</s>	0
<s>	0
<unk>	0
<pad>	0
▁一	-0
▁一个	-1
男人	-2
一个	-3
女人	-4
▁两	-5
坐在	-6
穿着	-7
的男人	-8
站在	-9
衬衫	-10
人在	-11
正在	-12
女孩	-13
男孩	-14
▁两个	-15
▁一个穿	-16
的人	-17
年轻	-18
▁一群	-19
红色	-20
拿着	-21
的女人	-22
▁穿	-23
▁一名	-24
孩子	-25
蓝色	-26
行车	-27
看着	-28
自行车	-29
▁一只	-30
男子	-31
妇女	-32
▁一个人	-33
▁一个男人	-34
街上	-35
道上	-36
棕色	-37
▁一个女人	-38
身着	-39
狗在	-40
子上	-41
旁边	-42
▁三	-43
白色	-44
帽子	-45
运动	-46
衣服	-47
在一	-48
衬衫的	-49
▁一个穿着	-50
骑着	-51
地上	-52
▁有	-53
黄色	-54
和一个	-55
▁我	-56
外面	-57
他的	-58
男孩在	-59
人们	-60
▁一个人在	-61
足球	-62
绿色	-63
夹克	-64
两个	-65
身穿	-66
▁一位	-67
女孩在	-68
工作	-69
▁三个	-70
带着	-71
一辆	-72
衬衫的男人	-73
运动员	-74
一起	-75
橙色	-76
▁两名	-77
儿童	-78
行道上	-79
走在	-80
▁一个小	-81
的小	-82
东西	-83
▁人们	-84
一只	-85
比赛	-86
骑自行车	-87
建筑	-88
滩上	-89
▁一群人	-90
玩耍	-91
女士	-92
另一个	-93
一条	-94
黑色	-95
戴着	-96
表演	-97
他们	-98
吉他	-99
牛仔	-100
金发	-101
▁这	-102
附近	-103
准备	-104
游泳	-105
男人在	-106
公园	-107
头发	-108
人行道上	-109
▁穿着	-110
粉红色	-111
裙子	-112
板上	-113
亚洲	-114
衬衫和	-115
后面	-116
行走	-117
一名	-118
空中	-119
衣的	-120
穿过	-121
▁在	-122
摩托	-123
草地上	-124
她的	-125
说话	-126
眼镜	-127
的一	-128
婴儿	-129
服装	-130
的男人在	-131
的年轻	-132
制服	-133
台上	-134
城市	-135
微笑	-136
照片	-137
短裤	-138
背景	-139
滑雪	-140
人坐在	-141
▁身穿	-142
▁他	-143
面前	-144
▁她	-145
女人在	-146
摩托车	-147
▁我们	-148
▁一个年轻	-149
音乐	-150
几个	-151
在街上	-152
灰色	-153
桌子上	-154
一些	-155
上的	-156
▁男人	-157
人站在	-158
在一个	-159
▁戴	-160
海滩上	-161
户外	-162
滑板	-163
路上	-164
牛仔裤	-165
水里	-166
▁四	-167
跑去	-168
跑来	-169
前面	-170
的人在	-171
的男孩	-172
躺在	-173
▁两只	-174
头盔	-175
跑来跑去	-176
走去	-177
着一个	-178
孩子在	-179
一张	-180
其他	-181
汽车	-182
跳跃	-183
玩具	-184
▁一个女人在	-185
椅上	-186
人群	-187
大楼	-188
走来	-189
女性	-190
跳舞	-191
笑着	-192
棒球	-193
麦克	-194
试图	-195
▁一个男人在	-196
冲浪	-197
条纹	-198
的女孩	-199
麦克风	-200
场上	-201
食物	-202
篮球	-203
游泳池	-204
的男子	-205
▁两个人在	-206
裤子	-207
夫妇	-208
子里	-209
聚集	-210
▁有个	-211
▁一个戴	-212
走来走去	-213
商店	-214
弹吉他	-215
走过	-216
非常	-217
喜欢	-218
游戏	-219
网球	-220
西装	-221
▁两个人	-222
岩石	-223
乐队	-224
舞台上	-225
紫色	-226
跳过	-227
工人	-228
的街	-229
小孩	-230
沿着	-231
女子	-232
许多	-233
下来	-234
的女人在	-235
的妇女	-236
站在一个	-237
餐厅	-238
比赛中	-239
年长	-240
▁一个穿黑	-241
太阳	-242
跳着	-243
着一	-244
手机	-245
拍照	-246
男性	-247
一个穿	-248
墙上	-249
演奏	-250
坐着	-251
背心	-252
▁年轻	-253
周围	-254
小男孩	-255
椅子上	-256
白色的	-257
长椅上	-258
▁一群人在	-259
参加	-260
胡子	-261
跳着跳着	-262
足球运动员	-263
上面	-264
嘴里	-265
标志	-266
水中	-267
老人	-268
▁四个	-269
球员	-270
旁边的	-271
举起	-272
大衣	-273
房间	-274
泥土	-275
火车	-276
草地	-277
▁一对	-278
一群	-279
棕色狗	-280
黑狗	-281
▁一辆	-282
沙滩上	-283
的女士	-284
头上	-285
▁她很	-286
▁身着	-287
有个	-288
楼梯	-289
边的	-290
手在	-291
▁一名身着	-292
他们的	-293
▁人们在	-294
享受	-295
▁三名	-296
▁一个男孩	-297
厨房	-298
▁几个	-299
电脑	-300
的孩子	-301
长长	-302
姿势	-303
赛车	-304
▁一个穿蓝	-305
唱歌	-306
站着	-307
▁两个穿	-308
爬上	-309
顶上	-310
一位	-311
多彩	-312
栅栏	-313
者在	-314
乐器	-315
卡车	-316
起来	-317
背包	-318
黑白	-319
▁一个戴着	-320
摄像	-321
大的	-322
很多	-323
观众	-324
男子在	-325
检查	-326
繁忙	-327
人正在	-328
的男人正在	-329
等待	-330
的人正在	-331
在一条	-332
市场	-333
小女孩	-334
一边	-335
滚滚	-336
骑马	-337
公共	-338
美国	-339
聊天	-340
金属	-341
公园里	-342
▁一个在	-343
顶部	-344
▁穿黑	-345
的一天	-346
骑着自行车	-347
海滩	-348
▁我喜欢	-349
老年	-350
黑人	-351
朋友	-352
艺术	-353
拿着一	-354
背景中	-355
三个	-356
▁一个小男孩	-357
坐在一个	-358
中间	-359
咖啡	-360
身后	-361
阳光	-362
▁男人和	-363
▁穿蓝	-364
的小孩	-365
▁一个女孩	-366
船上	-367
需要	-368
儿童在	-369
▁一只狗	-370
的小女孩	-371
成年	-372
的街道上	-373
走在街上	-374
跳进	-375
制服的	-376
▁一个人坐在	-377
坦克	-378
▁一个穿白	-379
▁一个穿红	-380
▁一个穿红色	-381
衬衫的男人在	-382
展示	-383
男女	-384
和蓝色	-385
的照片	-386
▁一个男人和一个	-387
地铁	-388
踢足球	-389
黄色的	-390
赛跑	-391
雪中	-392
▁许多	-393
▁一只棕色	-394
了一	-395
交谈	-396
摄影	-397
购物	-398
拿着一个	-399
▁两个男人	-400
奥里	-401
的东西	-402
的男人站在	-403
出来	-404
相机	-405
房间里	-406
凳上	-407
咪咪	-408
的狗	-409
游行	-410
睡在	-411
奥里奥里	-412
家伙	-413
通过	-414
衣服的	-415
黑狗在	-416
的女人正在	-417
忙忙	-418
沙发	-419
一人	-420
棍球	-421
白人	-422
石头	-423
警察	-424
镜头	-425
帽子的	-426
聚集在	-427
的男人坐在	-428
一件	-429
两名	-430
其中	-431
对面	-432
学生	-433
地板上	-434
曲棍球	-435
▁一个金发	-436
拥挤	-437
毛衣	-438
背着	-439
▁坐在	-440
晚上	-441
消防	-442
走着	-443
雪地	-444
休息	-445
似乎	-446
棍子	-447
气球	-448
没有	-449
活动	-450
田里	-451
结构	-452
观看	-453
附近的	-454
▁一个穿蓝色	-455
亮的	-456
使用	-457
幼儿	-458
行道	-459
山上	-460
彩色	-461
报纸	-462
互相	-463
垃圾	-464
走路	-465
酒吧	-466
和黑	-467
▁孩子	-468
▁穿红	-469
外面的	-470
电话	-471
在空中	-472
建筑物	-473
的人站在	-474
绳子	-475
其他人	-476
而一个	-477
▁有两个	-478
▁我们需要	-479
白狗	-480
▁男人在	-481
衬衫的女人	-482
▁一个穿黄色	-483
旁观	-484
跳到	-485
老年妇女	-486
涂鸦	-487
在一辆	-488
巨大的	-489
墨镜	-490
拍摄	-491
的时	-492
覆盖	-493
雨伞	-494
年轻人	-495
喷泉	-496
手套	-497
明媚	-498
▁这个	-499
沙发上	-500
蓝色的	-501
年轻女孩	-502
阳光明媚	-503
▁两名妇女	-504
▁一个人站在	-505
子的	-506
紧紧	-507
▁男孩	-508
一个人	-509
帮助	-510
林里	-511
窗户	-512
美丽	-513
体育	-514
里玩耍	-515
一栋	-516
自己	-517
青年	-518
的亚洲	-519
▁一只狗在	-520
床上	-521
水泥	-522
秋千	-523
经过	-524
要去	-525
在一起	-526
工人在	-527
帽子和	-528
滑板上	-529
▁孩子们	-530
女人坐在	-531
而另一个	-532
▁黑	-533
和白色的	-534
▁一个小女孩	-535
上有	-536
水面	-537
飞盘	-538
的时候	-539
运动员在	-540
动物	-541
帐篷	-542
排球	-543
桌子	-544
▁一个小孩	-545
▁一名妇女	-546
一样	-547
国旗	-548
格子	-549
骑自行车的	-550
▁一个穿粉红色	-551
上衣	-552
徒步	-553
放在	-554
水果	-555
的地	-556
绅士	-557
上工作	-558
人穿着	-559
红色的	-560
▁两只狗在	-561
的人行道上	-562
悬崖	-563
打球	-564
握着	-565
的手	-566
雕像	-567
摆姿势	-568
院子里	-569
▁一对夫妇	-570
▁一个男孩在	-571
跳着跳着跳着跳着	-572
啤酒	-573
围巾	-574
提琴	-575
骑手	-576
▁女人	-577
多彩的	-578
摄像头	-579
▁他正在	-580
衬衫的人	-581
的女人站在	-582
一本	-583
塑料	-584
田野	-585
硬帽	-586
观察	-587
▁一个长	-588
同时	-589
海洋	-590
街道	-591
跳下	-592
钓鱼	-593
靠近	-594
食品	-595
长凳上	-596
小男孩在	-597
游泳池里	-598
▁一位年轻	-599
▁两个男人在	-600
笔记	-601
街头	-602
设备	-603
饮料	-604
音乐家	-605
围裙	-606
大群	-607
安全	-608
散步	-609
水边	-610
球队	-611
和黑色	-612
一个女人	-613
▁五	-614
另外	-615
盯着	-616
坦克顶部	-617
不同	-618
抱着	-619
旅行	-620
满是	-621
蔬菜	-622
非洲	-623
▁一条	-624
和一只	-625
一座	-626
中年	-627
保龄	-628
员在	-629
家庭	-630
抓住	-631
派对	-632
游乐	-633
男一	-634
的老	-635
进行	-636
吃东西	-637
的小男孩	-638
帽子的男人	-639
和白	-640
子在	-641
小狗	-642
少年	-643
母亲	-644
竞技	-645
路边	-646
穿着蓝色	-647
▁一个身着	-648
▁一个男人和	-649
大型	-650
木头	-651
码头	-652
花招	-653
保龄球	-654
旁观者	-655
的金发	-656
运动衫	-657
年轻人在	-658
滑冰	-659
物体	-660
看到	-661
纹身	-662
装饰	-663
男一女	-664
笔记本	-665
▁穿红色	-666
▁一名男子	-667
走在人行道上	-668
骑自行车的人	-669
天空	-670
挥舞	-671
蛋糕	-672
装备	-673
了一个	-674
岩石上	-675
▁一个老	-676
穿着红色	-677
▁一个戴眼镜	-678
▁一个小男孩在	-679
▁一个年轻女孩	-680
▁3	-681
下面	-682
写着	-683
眼睛	-684
礼服	-685
里的	-686
太阳镜	-687
衬衫的男孩	-688
▁一群人站在	-689
阳光明媚的一天	-690
人和	-691
做饭	-692
圣诞	-693
攀岩	-694
波浪	-695
电影	-696
里有	-697
▁他很	-698
人行道	-699
另一名	-700
戴眼镜	-701
音乐会	-702
骑摩托车	-703
的年轻女孩	-704
一家	-705
停车	-706
对着	-707
拥抱	-708
摔跤	-709
树上	-710
靠在	-711
飞机	-712
夹克和	-713
一个男人	-714
骑着一辆	-715
之间	-716
坡上	-717
外套	-718
橄榄	-719
比基	-720
球衣	-721
面包	-722
驾驶	-723
▁一些	-724
打网球	-725
用手机	-726
建筑工人	-727
白衬衫和	-728
穿着黑色	-729
▁一个穿橙色	-730
▁一群人坐在	-731
什么	-732
围着	-733
头巾	-734
广告	-735
潜水	-736
物品	-737
玻璃	-738
▁两位	-739
和白色	-740
比基尼	-741
衣服的男人	-742
▁一个女人坐在	-743
▁一个穿着蓝色	-744
奔跑	-745
护目	-746
架上	-747
满了	-748
空气	-749
装扮	-750
车里	-751
乐队在	-752
护目镜	-753
耍花招	-754
抱着一个	-755
冰淇	-756
别人	-757
各种	-758
地区	-759
手臂	-760
机器	-761
看书	-762
窗外	-763
长袍	-764
▁五个	-765
▁棕色	-766
冰淇淋	-767
公共汽车	-768
▁一个孩子	-769
▁两个女孩	-770
▁我们要去	-771
裙子的女人	-772
厨师	-773
另一	-774
开心	-775
手里	-776
跪在	-777
里玩	-778
一群人	-779
公园的	-780
小孩在	-781
美丽的	-782
裙子的	-783
看着一个	-784
十字	-785
快乐	-786
携带	-787
武术	-788
粉色	-789
舞台	-790
领带	-791
着一辆	-792
的男人和	-793
▁两个孩子	-794
健身	-795
前的	-796
抽烟	-797
栏杆	-798
微笑着	-799
青少年	-800
黑头发	-801
▁一大群	-802
的人坐在	-803
▁一位年长	-804
▁大	-805
今天	-806
印度	-807
台阶	-808
平衡	-809
森林	-810
舞蹈	-811
小提琴	-812
橄榄球	-813
的婴儿	-814
看报纸	-815
▁一个亚洲	-816
▁一个拿着	-817
▁一名身穿	-818
▁5	-819
室里	-820
工具	-821
木制	-822
白脸	-823
跳上	-824
餐馆	-825
一本书	-826
树林里	-827
楼梯上	-828
滚滚滚滚	-829
的女人坐在	-830
一棵	-831
房子	-832
放松	-833
某种	-834
画画	-835
的车	-836
耳机	-837
跑过	-838
还有	-839
▁有些	-840
厨房里	-841
摄影师	-842
穿红色	-843
白衬衫的	-844
笑着笑着	-845
▁三个男人	-846
在人行道上	-847
▁你	-848
喝着	-849
学习	-850
日落	-851
跑步	-852
马拉	-853
服装的	-854
看起来	-855
▁两个女人	-856
笔记本电脑	-857
▁4	-858
两只	-859
中国	-860
喝酒	-861
场的	-862
应该	-863
打鼓	-864
持有	-865
挂在	-866
挂着	-867
擅长	-868
桌边	-869
穿黑	-870
等着	-871
赤脚	-872
钱包	-873
人群中	-874
打篮球	-875
摄像机	-876
绿色的	-877
的年轻人	-878
▁两名身着	-879
狗在草地上	-880
▁男人和女人	-881
亲吻	-882
停在	-883
墙壁	-884
开始	-885
得很	-886
父亲	-887
肩膀	-888
草坪	-889
雪橇	-890
▁这是	-891
▁金发	-892
一个小	-893
有很多	-894
裔美国	-895
赛道上	-896
咪咪咪咪	-897
的桌子上	-898
▁三个人在	-899
另一个男人	-900
用手机说话	-901
▁两个人坐在	-902
▁一个小女孩在	-903
奥里奥里奥里奥里	-904
一场	-905
亚裔	-906
子和	-907
对方	-908
泳衣	-909
皮带	-910
练习	-911
铁轨	-912
障碍	-913
▁他是	-914
健身房	-915
夹克的	-916
忙忙忙忙	-917
用麦克风	-918
▁一个带着	-919
▁我们应该	-920
一块	-921
个人	-922
传统	-923
吃饭	-924
士兵	-925
手持	-926
车上	-927
餐桌	-928
▁滑雪	-929
两个人	-930
名妇女	-931
成年人	-932
沿着一条	-933
▁一男一女	-934
里跑来跑去	-935
地面	-936
寻找	-937
打扫	-938
新娘	-939
泡泡	-940
秃头	-941
门口	-942
黑暗	-943
在外面	-944
拥挤的	-945
明亮的	-946
的一个	-947
看着他	-948
▁有几个	-949
▁一只黑狗	-950
▁两个男孩	-951
▁一个穿绿色	-952
▁两个男孩在	-953
实验	-954
屏幕	-955
望远	-956
木舟	-957
行驶	-958
▁女孩	-959
举起手	-960
和红色	-961
大衣的	-962
女性在	-963
独木舟	-964
马拉松	-965
男子正在	-966
▁一个穿灰色	-967
▁红	-968
一根	-969
公交	-970
即将	-971
唱着	-972
排队	-973
粉红	-974
脸上	-975
轮胎	-976
高尔	-977
一起在	-978
和一名	-979
望远镜	-980
白衬衫	-981
覆盖的	-982
长长的	-983
棒球运动员	-984
▁一只棕色狗	-985
办公	-986
双手	-987
墙前	-988
完成	-989
摊位	-990
停车场	-991
在一家	-992
城市的	-993
消防员	-994
玩乐器	-995
球场上	-996
高尔夫	-997
棕色头发	-998
站在一起	-999
的年轻女子	-1000
▁一个人正在	-1001
▁一个穿白色	-1002
不穿	-1003
交通	-1004
凝土	-1005
几岁	-1006
总是	-1007
拳击	-1008
有些	-1009
植物	-1010
袋子	-1011
▁儿童	-1012
十几岁	-1013
在背景	-1014
年轻的	-1015
建筑工	-1016
混凝土	-1017
者正在	-1018
街道上	-1019
▁三个人	-1020
人群面前	-1021
衣服的人	-1022
非裔美国	-1023
▁一位女士	-1024
▁两个孩子在	-1025
的男人和一个	-1026
▁白	-1027
喷洒	-1028
开着	-1029
把戏	-1030
推车	-1031
柜台	-1032
滑下	-1033
漂浮	-1034
赛马	-1035
▁三只	-1036
上面有	-1037
做一个	-1038
和两个	-1039
嘴里有	-1040
游行中	-1041
▁两只狗	-1042
▁穿蓝色	-1043
在海滩上	-1044
夹克的男人	-1045
条纹衬衫的	-1046
▁一只黑狗在	-1047
一对	-1048
俯视	-1049
和蓝	-1050
在看	-1051
多色	-1052
室内	-1053
指着	-1054
教堂	-1055
洗衣	-1056
皮艇	-1057
腿上	-1058
讨论	-1059
路口	-1060
透过	-1061
面有	-1062
高高	-1063
黑发	-1064
另一只	-1065
的标志	-1066
街对面	-1067
黑白狗	-1068
一位非常	-1069
走在一条	-1070
▁一个人用	-1071
▁穿粉红色	-1072
▁一个女孩在	-1073
▁狗	-1074
产品	-1075
兴奋	-1076
凉鞋	-1077
机在	-1078
杂货	-1079
树木	-1080
桥上	-1081
街角	-1082
装置	-1083
身上	-1084
进入	-1085
那里	-1086
前面的	-1087
的街道	-1088
艺术家	-1089
雪地上	-1090
骑着马	-1091
▁一个有	-1092
空中跳跃	-1093
▁她很擅长	-1094
衬衫的男人正在	-1095
▁2	-1096
彼此	-1097
微镜	-1098
理发	-1099
的水	-1100
篮子	-1101
花园	-1102
雕塑	-1103
风琴	-1104
▁穿绿	-1105
一个大	-1106
显微镜	-1107
黑裤子	-1108
▁一只小	-1109
粉红色的	-1110
▁一个女人站在	-1111
▁男人和女人在	-1112
▁一个男人和一个女人	-1113
中的	-1114
人的	-1115
包围	-1116
投球	-1117
电视	-1118
膝盖	-1119
边缘	-1120
钢琴	-1121
长发	-1122
雪山	-1123
风景	-1124
黑衣	-1125
▁一组	-1126
▁妇女	-1127
台阶上	-1128
总是很	-1129
摄影机	-1130
棒球帽	-1131
白狗在	-1132
短裤的	-1133
繁忙的	-1134
十字路口	-1135
▁穿着蓝色	-1136
中心	-1137
体操	-1138
出售	-1139
幻灯	-1140
摆着	-1141
救生	-1142
方向	-1143
旗帜	-1144
欢呼	-1145
灯光	-1146
线上	-1147
翻转	-1148
走下	-1149
身边	-1150
车在	-1151
雪上	-1152
露天	-1153
▁我很	-1154
▁街上	-1155
他身后	-1156
在一栋	-1157
幻灯片	-1158
旧结构	-1159
有一个	-1160
短裤和	-1161
足球球	-1162
其中一人	-1163
在背景中	-1164
坐在一张	-1165
橙色背心	-1166
穿着白色	-1167
▁人们站在	-1168
坐在桌子上	-1169
人员	-1170
会上	-1171
会议	-1172
公牛	-1173
可能	-1174
情侣	-1175
服务	-1176
海浪	-1177
特技	-1178
电子	-1179
的大	-1180
车的	-1181
都是	-1182
骑在	-1183
冲浪者	-1184
屋顶上	-1185
泳衣的	-1186
派对上	-1187
在舞台上	-1188
太阳眼镜	-1189
年轻女子	-1190
▁孩子们在	-1191
篮球运动员	-1192
一堆	-1193
划船	-1194
包括	-1195
女儿	-1196
小丑	-1197
水管	-1198
独自	-1199
色的	-1200
设计	-1201
试着	-1202
距离	-1203
▁他们	-1204
▁穿白	-1205
和她的	-1206
在户外	-1207
挥舞着	-1208
斜坡上	-1209
玩游戏	-1210
球员在	-1211
▁在一个	-1212
男人坐在	-1213
男子坐在	-1214
的人拿着	-1215
▁两个人站在	-1216
▁两个女孩在	-1217
▁一个男人站在	-1218
er	-1219
一大	-1220
匹马	-1221
双臂	-1222
啦啦	-1223
头顶	-1224
慢跑	-1225
成人	-1226
柱子	-1227
的树	-1228
直地	-1229
过马	-1230
销售	-1231
长袖	-1232
鲜花	-1233
▁一家	-1234
▁外面	-1235
啦啦队	-1236
在一场	-1237
女人的	-1238
手风琴	-1239
牛仔帽	-1240
的地方	-1241
的绅士	-1242
码头上	-1243
跳下来	-1244
过马路	-1245
一些东西	-1246
女孩坐在	-1247
拉小提琴	-1248
泥土路上	-1249
白脸白脸	-1250
年轻女孩在	-1251
跳着跳着跳着跳着跳着跳着跳着跳着	-1252
▁男	-1253
克斯	-1254
卡其	-1255
围栏	-1256
她们	-1257
学校	-1258
打开	-1259
抗议	-1260
拐杖	-1261
湖边	-1262
睡着	-1263
穿红	-1264
穿蓝	-1265
行李	-1266
装满	-1267
雨中	-1268
顾客	-1269
▁滑板	-1270
个人在	-1271
公交车	-1272
准备在	-1273
男人和	-1274
足球队	-1275
一栋大楼	-1276
上面写着	-1277
冲浪板上	-1278
在草地上	-1279
小女孩在	-1280
带着一个	-1281
的女人和	-1282
▁一个穿绿	-1283
▁一个穿紫色	-1284
▁一个穿黑色	-1285
▁我们需要买	-1286
旧结构旧结构	-1287
繁忙的街道上	-1288
▁我们应该试着	-1289
on	-1290
▁人	-1291
们在	-1292
伸展	-1293
外的	-1294
外边	-1295
座位	-1296
操作	-1297
杯子	-1298
椅子	-1299
沙滩	-1300
漫步	-1301
相互	-1302
砖楼	-1303
竞争	-1304
笑容	-1305
部分	-1306
项目	-1307
飞过	-1308
▁四名	-1309
另一人	-1310
和黄色	-1311
头盔的	-1312
戴帽子	-1313
的人群	-1314
的老人	-1315
萨克斯	-1316
▁两个女人在	-1317
▁足球运动员	-1318
▁一个年轻男孩	-1319
因为	-1320
婚礼	-1321
庆祝	-1322
成一	-1323
成员	-1324
池塘	-1325
沙漠	-1326
海岸	-1327
的马	-1328
离开	-1329
脚踏	-1330
路过	-1331
踢球	-1332
选手	-1333
铲子	-1334
▁很多	-1335
一个在	-1336
后面的	-1337
和其他	-1338
有两个	-1339
▁女人在	-1340
女人正在	-1341
女孩站在	-1342
男人站在	-1343
美国国旗	-1344
舞台上表演	-1345
跳进游泳池	-1346
▁一只棕色狗在	-1347
上看	-1348
卷发	-1349
和红	-1350
基地	-1351
对手	-1352
巴士	-1353
得到	-1354
打扮	-1355
清理	-1356
球场	-1357
盘子	-1358
移动	-1359
绑在	-1360
背上	-1361
裸体	-1362
镜子	-1363
门前	-1364
隧道	-1365
面罩	-1366
▁两人	-1367
▁狗在	-1368
不同的	-1369
位女士	-1370
夫妇在	-1371
婴儿车	-1372
学生在	-1373
实验室	-1374
梯子上	-1375
游乐场	-1376
留胡子	-1377
秋千上	-1378
竞技场	-1379
黑帽子	-1380
▁戴眼镜	-1381
徒步旅行	-1382
正在一个	-1383
的房间里	-1384
背着背包	-1385
▁一个老人	-1386
建筑工人在	-1387
▁一个小孩在	-1388
▁当	-1389
一头	-1390
下看	-1391
书馆	-1392
医生	-1393
喷水	-1394
壁画	-1395
姑娘	-1396
手指	-1397
手表	-1398
手道	-1399
杂志	-1400
环绕	-1401
现场	-1402
纽约	-1403
裁判	-1404
装着	-1405
身戴	-1406
这个	-1407
远处	-1408
▁婴儿	-1409
▁这家	-1410
半空中	-1411
图书馆	-1412
平台上	-1413
毛衣的	-1414
空手道	-1415
穿着蓝	-1416
▁三个穿	-1417
举起手来	-1418
大楼前面	-1419
的男孩在	-1420
站在街上	-1421
▁一个长着	-1422
一位非常有	-1423
坐在长椅上	-1424
衣服的女人	-1425
用麦克风说话	-1426
儿子	-1427
公路	-1428
哭泣	-1429
喇叭	-1430
地毯	-1431
射击	-1432
打架	-1433
投手	-1434
拉着	-1435
新鲜	-1436
旋转	-1437
时间	-1438
牵手	-1439
睡觉	-1440
远足	-1441
飞行	-1442
▁今天	-1443
体育场	-1444
▁一只大	-1445
▁穿紫色	-1446
一辆红色	-1447
和一个穿	-1448
妇女正在	-1449
▁一个穿棕色	-1450
▁一个男人坐在	-1451
▁一个女人和一个	-1452
三名	-1453
下的	-1454
举着	-1455
则在	-1456
天气	-1457
头部	-1458
店里	-1459
接受	-1460
木板	-1461
机上	-1462
树林	-1463
目标	-1464
礼物	-1465
脚手	-1466
道路	-1467
阅读	-1468
队的	-1469
▁小孩	-1470
一条小	-1471
人看着	-1472
人面前	-1473
向一个	-1474
和棕色	-1475
手拿着	-1476
石头上	-1477
穿着白	-1478
老人在	-1479
肩膀上	-1480
赛车手	-1481
餐厅里	-1482
高高的	-1483
▁戴帽子	-1484
▁穿黄色	-1485
两个男人	-1486
和牛仔裤	-1487
坐在地上	-1488
大楼外面	-1489
摩托车上	-1490
棕色狗在	-1491
演奏音乐	-1492
穿着橙色	-1493
穿过草地	-1494
黑白狗在	-1495
▁一个没有	-1496
人站在一个	-1497
短裤的男人	-1498
衬衫的女孩	-1499
▁数	-1500
一片	-1501
下山	-1502
东方	-1503
修理	-1504
倒在	-1505
充满	-1506
制造	-1507
博物	-1508
在大	-1509
广场	-1510
我们	-1511
提供	-1512
服的	-1513
树枝	-1514
毛巾	-1515
毯子	-1516
浴缸	-1517
滚轮	-1518
灰狗	-1519
监视	-1520
花朵	-1521
草原	-1522
连帽	-1523
降落	-1524
靴子	-1525
公共场	-1526
和他的	-1527
喝啤酒	-1528
悬崖上	-1529
手牵手	-1530
根棍子	-1531
玩滑板	-1532
▁两人在	-1533
▁许多人	-1534
一个人在	-1535
妇女站在	-1536
自行车上	-1537
衬衫和蓝	-1538
走着走着	-1539
躺在地上	-1540
▁一个坐在	-1541
▁这家餐厅	-1542
和一个女人	-1543
西装的男人	-1544
▁一个年轻的	-1545
街上走来走去	-1546
▁6	-1547
一艘	-1548
两辆	-1549
充气	-1550
刚刚	-1551
张开	-1552
接近	-1553
摇摆	-1554
朝下	-1555
木筏	-1556
歌手	-1557
海边	-1558
烧烤	-1559
焊接	-1560
耳朵	-1561
芭蕾	-1562
跑在	-1563
铁路	-1564
面具	-1565
▁一支	-1566
▁这些	-1567
▁黑狗	-1568
享受着	-1569
博物馆	-1570
后面有	-1571
在城市	-1572
垫子上	-1573
张照片	-1574
日落时	-1575
森林里	-1576
烤架上	-1577
球衣的	-1578
的汽车	-1579
的路上	-1580
草坪上	-1581
▁男孩在	-1582
一个男孩	-1583
夹克的人	-1584
年轻男孩	-1585
得很开心	-1586
的女孩在	-1587
▁一个人从	-1588
▁一群身着	-1589
和白色的狗	-1590
坐在椅子上	-1591
衣服的人在	-1592
▁一个孩子在	-1593
▁一个老人在	-1594
▁那	-1595
举行	-1596
乘客	-1597
作为	-1598
动作	-1599
努力	-1600
化妆	-1601
反射	-1602
山丘	-1603
折叠	-1604
挥手	-1605
沙丘	-1606
泳裤	-1607
瀑布	-1608
短发	-1609
穿白	-1610
红发	-1611
舞者	-1612
街边	-1613
键盘	-1614
雄性	-1615
马车	-1616
▁母亲	-1617
似乎在	-1618
吉他手	-1619
和橙色	-1620
在水中	-1621
手握着	-1622
的家伙	-1623
的狗在	-1624
看着她	-1625
空气中	-1626
自己的	-1627
购物车	-1628
条纹衬衫	-1629
紧紧紧紧	-1630
高尔夫球	-1631
▁一个身穿	-1632
▁一群儿童	-1633
▁一群穿着	-1634
▁一个女人拿着	-1635
▁一个穿蓝衬衫的男人	-1636
ar	-1637
后院	-1638
大海	-1639
有趣	-1640
望着	-1641
水上	-1642
河里	-1643
海报	-1644
狗的	-1645
的脸	-1646
科学	-1647
红白	-1648
组成	-1649
舌头	-1650
节日	-1651
谈话	-1652
走出	-1653
顶顶	-1654
▁站在	-1655
在他的	-1656
坐下来	-1657
玩玩具	-1658
男女女	-1659
穿蓝色	-1660
红头发	-1661
舞者在	-1662
被一个	-1663
试图在	-1664
▁儿童在	-1665
年轻女士	-1666
手里拿着	-1667
穿粉红色	-1668
▁一个年长	-1669
▁骑自行车	-1670
蓝色牛仔裤	-1671
衬衫的人在	-1672
▁一个穿着蓝	-1673
衬衫和牛仔裤	-1674
衬衫和黑裤子	-1675
▁一个年轻女孩在	-1676
滚滚滚滚滚滚滚滚	-1677
一幅	-1678
下雪	-1679
两人	-1680
叶子	-1681
商业	-1682
地板	-1683
寒冷	-1684
山地	-1685
弯曲	-1686
拖拉	-1687
教练	-1688
日本	-1689
明亮	-1690
晚饭	-1691
有人	-1692
杂耍	-1693
树叶	-1694
正式	-1695
油漆	-1696
泥巴	-1697
洗澡	-1698
演讲	-1699
羽毛	-1700
课堂	-1701
赛中	-1702
跟着	-1703
蹲着	-1704
追逐	-1705
长着	-1706
面对	-1707
一起玩	-1708
大衣和	-1709
弹钢琴	-1710
手机上	-1711
正在用	-1712
比赛的	-1713
白帽子	-1714
给一个	-1715
雪地里	-1716
▁小男孩	-1717
▁穿橙色	-1718
▁身穿黑	-1719
另一个人	-1720
和黄色的	-1721
安全背心	-1722
建筑工地	-1723
服装的人	-1724
男子穿着	-1725
男孩坐在	-1726
的男子在	-1727
看着他的	-1728
而其他人	-1729
▁两名儿童	-1730
▁人们坐在	-1731
的女人拿着	-1732
裤子的男人	-1733
骑着摩托车	-1734
▁一个年轻人	-1735
▁三个男人在	-1736
▁一个年轻人在	-1737
▁一个穿蓝衬衫的	-1738
▁小	-1739
倾斜	-1740
医院	-1741
国家	-1742
在她	-1743
女郎	-1744
屋顶	-1745
山羊	-1746
店的	-1747
手术	-1748
扔进	-1749
摇滚	-1750
标签	-1751
水体	-1752
湖里	-1753
牧羊	-1754
田地	-1755
缝纫	-1756
角落	-1757
训练	-1758
车辆	-1759
里面	-1760
长的	-1761
门廊	-1762
骆驼	-1763
▁亚洲	-1764
▁你能	-1765
▁这部	-1766
一张纸	-1767
地铁上	-1768
市场上	-1769
水边的	-1770
照相机	-1771
男性在	-1772
直直地	-1773
穿白色	-1774
而一名	-1775
表演者	-1776
装扮成	-1777
购物袋	-1778
连帽衫	-1779
▁一群穿	-1780
工人正在	-1781
男子站在	-1782
老人坐在	-1783
长长长长	-1784
▁这部电影	-1785
▁骑自行车的人	-1786
在街上走来走去	-1787
骑自行车的骑手	-1788
▁我们应该试着更	-1789
咪咪咪咪咪咪咪咪	-1790
忙忙忙忙忙忙忙忙	-1791
奥里奥里奥里奥里奥里奥里奥里奥里	-1792
一堵	-1793
如何	-1794
山顶	-1795
得像	-1796
指向	-1797
推着	-1798
握手	-1799
摆出	-1800
文件	-1801
树旁	-1802
桶里	-1803
泳池	-1804
溜冰	-1805
灌木	-1806
编织	-1807
背面	-1808
调整	-1809
走到	-1810
走动	-1811
雌性	-1812
从一个	-1813
凳子上	-1814
吹泡泡	-1815
和一件	-1816
咖啡馆	-1817
女子在	-1818
妇女在	-1819
戴头盔	-1820
排成一	-1821
田野里	-1822
的建筑	-1823
酒吧里	-1824
骑马的	-1825
▁穿棕色	-1826
▁穿灰色	-1827
在沙滩上	-1828
坐在一辆	-1829
女孩穿着	-1830
站在一辆	-1831
走过一个	-1832
▁他总是很	-1833
▁四个人在	-1834
玩得很开心	-1835
聚集在一起	-1836
▁一只黑白狗	-1837
▁一个穿着绿色	-1838
衬衫的男人站在	-1839
▁女	-1840
▁蓝	-1841
上下	-1842
乐团	-1843
从事	-1844
保护	-1845
垒球	-1846
外国	-1847
守门	-1848
室的	-1849
干草	-1850
德国	-1851
恤的	-1852
我的	-1853
手工	-1854
斜坡	-1855
新郎	-1856
梯子	-1857
棕榈	-1858
步行	-1859
水的	-1860
沙子	-1861
泡沫	-1862
滚动	-1863
电梯	-1864
的顶	-1865
相片	-1866
秋天	-1867
计划	-1868
跑者	-1869
跟鞋	-1870
闭着	-1871
陡峭	-1872
露营	-1873
鞋子	-1874
颜色	-1875
骑车	-1876
▁黑衣	-1877
俯视着	-1878
到一个	-1879
和眼镜	-1880
嘴里塞	-1881
打扮成	-1882
正在看	-1883
火车上	-1884
火车站	-1885
男人的	-1886
看东西	-1887
车旁边	-1888
高跟鞋	-1889
准备食物	-1890
商店外面	-1891
坐在一起	-1892
她的手机	-1893
的自行车	-1894
穿着黄色	-1895
▁一个微笑	-1896
▁一只白狗	-1897
▁一名年轻	-1898
▁建筑工人	-1899
和一个男人	-1900
唱着麦克风	-1901
▁一个穿着黑	-1902
▁一名男子在	-1903
▁两个人穿着	-1904
衬衫的小男孩	-1905
裙子的女人在	-1906
▁一个穿着白色	-1907
冬天	-1908
卖主	-1909
厅里	-1910
可以	-1911
喷气	-1912
四个	-1913
妈妈	-1914
就像	-1915
师在	-1916
建造	-1917
恤和	-1918
景象	-1919
树下	-1920
树前	-1921
炫耀	-1922
环境	-1923
白衣	-1924
紧身	-1925
纪念	-1926
美女	-1927
设置	-1928
赛事	-1929
赛道	-1930
迷彩	-1931
酒店	-1932
锤子	-1933
队友	-1934
项链	-1935
顿饭	-1936
▁有人	-1937
一只小	-1938
三个人	-1939
人拿着	-1940
和一位	-1941
和两名	-1942
在一张	-1943
在水里	-1944
头顶上	-1945
把一个	-1946
朋友在	-1947
柱子上	-1948
毯子上	-1949
泥土路	-1950
漂亮的	-1951
甲板上	-1952
的儿童	-1953
的姿势	-1954
的球员	-1955
绳子上	-1956
草原上	-1957
蓝帽子	-1958
餐桌上	-1959
骑手在	-1960
▁女孩在	-1961
▁她正在	-1962
▁我们去	-1963
一名身着	-1964
一张照片	-1965
的小孩在	-1966
▁一群年轻	-1967
公共汽车上	-1968
坐在草地上	-1969
拿着麦克风	-1970
的男子正在	-1971
躺在草地上	-1972
▁一个人穿着	-1973
▁一群人正在	-1974
拥挤的街道上	-1975
▁一位老年妇女	-1976
乘坐	-1977
互联	-1978
伞下	-1979
列车	-1980
午饭	-1981
古老	-1982
当地	-1983
手提	-1984
指挥	-1985
捕捉	-1986
机械	-1987
桌上	-1988
水坑	-1989
烤肉	-1990
父母	-1991
狂欢	-1992
班牙	-1993
的男	-1994
碗里	-1995
站立	-1996
肩上	-1997
苹果	-1998
蜡烛	-1999
表面	-2000
购买	-2001
走廊	-2002
轮椅	-2003
野外	-2004
银色	-2005
防护	-2006
靠着	-2007
▁戴着	-2008
▁父亲	-2009
互联网	-2010
和帽子	-2011
城市里	-2012
广场上	-2013
成人和	-2014
手放在	-2015
掉下来	-2016
旁边是	-2017
时正在	-2018
栏杆上	-2019
水面上	-2020
浴缸里	-2021
的白人	-2022
的窗户	-2023
的蓝色	-2024
西班牙	-2025
讲台上	-2026
跳起来	-2027
蹦床上	-2028
▁一名穿	-2029
▁穿绿色	-2030
两个女人	-2031
土自行车	-2032
的女士在	-2033
看着他们	-2034
跳过障碍	-2035
麦克风前	-2036
▁一个不穿	-2037
▁一位金发	-2038
▁一只小狗	-2039
▁三名身着	-2040
▁年轻人在	-2041
▁年轻女孩	-2042
他的自行车	-2043
公园长椅上	-2044
在街上行走	-2045
夹克的女人	-2046
裙子的女孩	-2047
▁一个女人用	-2048
夹克的男人在	-2049
骑着自行车在	-2050
▁一个穿着橙色	-2051
▁有个小男孩在	-2052
草地里跑来跑去	-2053
▁他是一位非常有	-2054
三明	-2055
专业	-2056
保持	-2057
入口	-2058
写作	-2059
冰上	-2060
创造	-2061
司机	-2062
和平	-2063
圈里	-2064
娃娃	-2065
对立	-2066
尝试	-2067
底部	-2068
弯腰	-2069
扫帚	-2070
扶梯	-2071
攀爬	-2072
早上	-2073
本书	-2074
来自	-2075
杯酒	-2076
水池	-2077
河边	-2078
海中	-2079
演员	-2080
烤架	-2081
登山	-2082
的女	-2083
的黑	-2084
砖墙	-2085
绿草	-2086
草帽	-2087
衣着	-2088
衬衣	-2089
触摸	-2090
警官	-2091
跑向	-2092
阴影	-2093
雪里	-2094
面部	-2095
鼻子	-2096
▁参加	-2097
▁新娘	-2098
一个是	-2099
一个球	-2100
三明治	-2101
上衣的	-2102
几个人	-2103
商店里	-2104
在一块	-2105
幼儿在	-2106
往下看	-2107
救生衣	-2108
正在玩	-2109
正站在	-2110
浅蓝色	-2111
海边的	-2112
灌木丛	-2113
田地上	-2114
电吉他	-2115
的一对	-2116
的头发	-2117
脚踏车	-2118
课堂上	-2119
运动服	-2120
道路上	-2121
都穿着	-2122
阳台上	-2123
陡峭的	-2124
▁两个戴	-2125
▁互联网	-2126
▁穿白色	-2127
中年男子	-2128
举起双手	-2129
公共场所	-2130
嘴里有个	-2131
女人穿着	-2132
恤的男人	-2133
推着一辆	-2134
的建筑物	-2135
跳到空中	-2136
▁一个家庭	-2137
的小男孩在	-2138
▁一个人拿着	-2139
▁一个留胡子	-2140
裙子的小女孩	-2141
足球运动员在	-2142
▁一个穿着棕色	-2143
▁一个穿着灰色	-2144
▁一个穿黑衣服	-2145
▁一个穿着粉红色	-2146
▁老	-2147
一台	-2148
一堂	-2149
丛林	-2150
乐部	-2151
伸出	-2152
到来	-2153
前台	-2154
可爱	-2155
商品	-2156
嘉年	-2157
夜间	-2158
岸边	-2159
工厂	-2160
左手	-2161
幕后	-2162
感到	-2163
才华	-2164
拇指	-2165
拖车	-2166
播放	-2167
操场	-2168
收集	-2169
水下	-2170
水槽	-2171
海军	-2172
混合	-2173
爬过	-2174
盒子	-2175
石墙	-2176
红球	-2177
背后	-2178
行人	-2179
轮车	-2180
阴云	-2181
集市	-2182
▁我对	-2183
俱乐部	-2184
吹喇叭	-2185
和灰色	-2186
嘉年华	-2187
在一片	-2188
在他们	-2189
大楼前	-2190
帐篷里	-2191
戴墨镜	-2192
打棒球	-2193
晚上在	-2194
栅栏上	-2195
消防车	-2196
的一条	-2197
的顶端	-2198
着一只	-2199
铁轨上	-2200
黑色的	-2201
▁摄影师	-2202
▁有人在	-2203
两个孩子	-2204
头盔的人	-2205
妇女坐在	-2206
滑板公园	-2207
电子游戏	-2208
看起来像	-2209
西装的人	-2210
足球比赛	-2211
青年男子	-2212
音乐家在	-2213
▁一名男孩	-2214
▁一大群人	-2215
▁三个女人	-2216
▁两名男子	-2217
▁人们正在	-2218
▁穿牛仔裤	-2219
制服的男人	-2220
坐在沙发上	-2221
的年轻人在	-2222
▁一个人骑着	-2223
▁一个穿条纹	-2224
▁三个孩子在	-2225
▁两个小孩在	-2226
曲棍球运动员	-2227
直直地直直地	-2228
站在人行道上	-2229
衬衫的女人在	-2230
衬衫的小女孩	-2231
▁一个穿着黑色	-2232
▁一个骑自行车的	-2233
▁一个男人和一个女人在	-2234
am	-2235
ll	-2236
▁六	-2237
丝带	-2238
令人	-2239
侧面	-2240
到处	-2241
刷牙	-2242
吊在	-2243
和他	-2244
在雪	-2245
地图	-2246
大片	-2247
宝宝	-2248
家具	-2249
尾巴	-2250
扔到	-2251
拍下	-2252
控制	-2253
显示	-2254
机场	-2255
桌旁	-2256
正从	-2257
河流	-2258
法庭	-2259
清洁	-2260
玉米	-2261
瓷砖	-2262
生日	-2263
白天	-2264
皮肤	-2265
短短	-2266
短裙	-2267
等候	-2268
箱里	-2269
背部	-2270
葡萄	-2271
警卫	-2272
跑到	-2273
车库	-2274
转弯	-2275
遮住	-2276
金色	-2277
门外	-2278
雪衣	-2279
领的	-2280
风筝	-2281
▁工人	-2282
一只手	-2283
了一张	-2284
从后面	-2285
向空中	-2286
喷气式	-2287
在一群	-2288
地毯上	-2289
地铁站	-2290
坡道上	-2291
垃圾桶	-2292
守门员	-2293
手工艺	-2294
拖拉机	-2295
教室里	-2296
活动上	-2297
的服装	-2298
着一根	-2299
穿黄色	-2300
穿黑色	-2301
而人们	-2302
背面有	-2303
表演中	-2304
黑暗的	-2305
▁小女孩	-2306
▁黑头发	-2307
一起工作	-2308
女人拿着	-2309
摩托车手	-2310
正在准备	-2311
演奏乐器	-2312
的人行道	-2313
竞技场上	-2314
绿草地上	-2315
观众面前	-2316
音乐会上	-2317
▁两名身穿	-2318
▁几个人在	-2319
服装的妇女	-2320
的女人看着	-2321
的小女孩在	-2322
衣服的女孩	-2323
▁一个乐队在	-2324
抱着一个婴儿	-2325
坐在一张桌子上	-2326
▁两个男人和一个	-2327
▁一个穿白衬衫的男人	-2328
an	-2329
一匹	-2330
一小	-2331
下午	-2332
中东	-2333
仪式	-2334
伦敦	-2335
伸手	-2336
军装	-2337
农村	-2338
分享	-2339
卖家	-2340
变得	-2341
吃着	-2342
周末	-2343
团体	-2344
图片	-2345
大象	-2346
天使	-2347
家人	-2348
少女	-2349
尔卡	-2350
尽头	-2351
年幼	-2352
开放	-2353
扫荡	-2354
时在	-2355
板球	-2356
标记	-2357
模糊	-2358
欧洲	-2359
深色	-2360
游客	-2361
甜筒	-2362
生活	-2363
用手	-2364
电线	-2365
的球	-2366
空的	-2367
织物	-2368
肮脏	-2369
装有	-2370
讲话	-2371
走进	-2372
边上	-2373
队在	-2374
马球	-2375
▁两辆	-2376
▁观众	-2377
▁身戴	-2378
一只狗	-2379
与一个	-2380
他的脸	-2381
包围的	-2382
厨师在	-2383
只狗在	-2384
名儿童	-2385
名男子	-2386
和孩子	-2387
和紫色	-2388
在一次	-2389
头朝下	-2390
女人和	-2391
展示了	-2392
座位上	-2393
摊位上	-2394
条纹的	-2395
正试图	-2396
沙地上	-2397
男女在	-2398
的一群	-2399
的工人	-2400
的红色	-2401
的顶上	-2402
穿着红	-2403
穿绿色	-2404
缝纫机	-2405
网球手	-2406
芭蕾舞	-2407
装满了	-2408
跟一个	-2409
销售商	-2410
降落伞	-2411
面包车	-2412
▁一名戴	-2413
▁海滩上	-2414
▁身穿白	-2415
到麦克风	-2416
商店前面	-2417
嘴里塞着	-2418
嘴里拿着	-2419
成年人在	-2420
拉着一辆	-2421
排成一排	-2422
的椅子上	-2423
看着窗外	-2424
穿着绿色	-2425
萨克斯风	-2426
读一本书	-2427
跳进水里	-2428
金发女孩	-2429
闭着眼睛	-2430
青少年在	-2431
▁一个戴黑	-2432
▁一个非常	-2433
▁一名亚洲	-2434
▁一名年长	-2435
▁一名男性	-2436
▁我喜欢看	-2437
▁许多人在	-2438
而另一个人	-2439
骑自行车者	-2440
▁一个十几岁	-2441
▁一个穿着红	-2442
▁一对夫妇在	-2443
▁有几个人在	-2444
▁穿红衬衫的	-2445
▁穿蓝衬衫的	-2446
和蓝色牛仔裤	-2447
的女人和一个	-2448
衣服的男人在	-2449
▁一个穿牛仔裤	-2450
▁一个骑自行车	-2451
▁一群人聚集在	-2452
夹克的男人站在	-2453
▁一个棒球运动员	-2454
12	-2455
AT	-2456
or	-2457
▁几	-2458
▁骑	-2459
一支	-2460
世界	-2461
人物	-2462
修剪	-2463
假发	-2464
公司	-2465
公寓	-2466
农民	-2467
名的	-2468
外科	-2469
夜里	-2470
大叫	-2471
天花	-2472
幼童	-2473
开车	-2474
径上	-2475
戒指	-2476
把球	-2477
护士	-2478
拖把	-2479
拖着	-2480
斗牛	-2481
新的	-2482
期间	-2483
洞里	-2484
渔夫	-2485
漂亮	-2486
牌子	-2487
瓶子	-2488
画着	-2489
的书	-2490
看上	-2491
碧眼	-2492
结婚	-2493
考试	-2494
船的	-2495
表情	-2496
袋里	-2497
要么	-2498
观光	-2499
谈论	-2500
阳台	-2501
飞来	-2502
飞翔	-2503
骄傲	-2504
高速	-2505
鸽子	-2506
▁他对	-2507
▁四位	-2508
▁棒球	-2509
▁白人	-2510
一棵树	-2511
中行走	-2512
从水里	-2513
伸出来	-2514
可能是	-2515
周围的	-2516
和绿色	-2517
咖啡厅	-2518
女士在	-2519
家伙在	-2520
巷子里	-2521
拿着红	-2522
有些人	-2523
湖边的	-2524
滑雪者	-2525
热气球	-2526
电话上	-2527
的衣服	-2528
站在一	-2529
等待着	-2530
脚手架	-2531
花园里	-2532
衬衫在	-2533
被绑在	-2534
西装的	-2535
轨道上	-2536
轮椅上	-2537
远足者	-2538
里面有	-2539
▁一只黑	-2540
▁女人和	-2541
▁年轻人	-2542
▁棕色狗	-2543
▁穿着红	-2544
一个女孩	-2545
一对夫妇	-2546
吃冰淇淋	-2547
周围都是	-2548
圣诞老人	-2549
女人站在	-2550
德国牧羊	-2551
打保龄球	-2552
水里玩耍	-2553
的男人用	-2554
看起来很	-2555
穿过一个	-2556
足球场上	-2557
▁一对年轻	-2558
▁互联网让	-2559
一个巨大的	-2560
一个穿蓝色	-2561
喷泉里玩耍	-2562
游泳池游泳	-2563
的男孩站在	-2564
穿着粉红色	-2565
非裔美国人	-2566
▁一个女人把	-2567
▁一个男人把	-2568
▁一个男人用	-2569
▁一个穿着白	-2570
▁一个长头发	-2571
▁一群年轻人	-2572
▁有个小男孩	-2573
和白色的狗在	-2574
坐在人行道上	-2575
衣服的小女孩	-2576
▁一个女人正在	-2577
▁一个穿着格子	-2578
▁一个穿着红色	-2579
▁一个骑摩托车	-2580
▁一只黑白狗在	-2581
旧结构旧结构旧结构旧结构	-2582
一天	-2583
上打	-2584
事情	-2585
内裤	-2586
冬衣	-2587
冰球	-2588
出租	-2589
剧院	-2590
区域	-2591
午餐	-2592
只狗	-2593
图像	-2594
地带	-2595
城堡	-2596
城里	-2597
墙边	-2598
大喊	-2599
帽和	-2600
干净	-2601
年龄	-2602
战斗	-2603
挥棒	-2604
接吻	-2605
支持	-2606
放进	-2607
方的	-2608
昨天	-2609
景色	-2610
棕发	-2611
毛毛	-2612
河上	-2613
滑行	-2614
的面	-2615
相配	-2616
着火	-2617
笑脸	-2618
糖果	-2619
绳索	-2620
莫霍	-2621
袜子	-2622
起重	-2623
足迹	-2624
跳楼	-2625
都在	-2626
野餐	-2627
铁丝	-2628
锻炼	-2629
闲逛	-2630
阴暗	-2631
阻止	-2632
露出	-2633
飞去	-2634
香蕉	-2635
▁大批	-2636
▁她是	-2637
▁数名	-2638
▁橙色	-2639
停下来	-2640
冲浪板	-2641
卡其裤	-2642
吃午饭	-2643
和新郎	-2644
在地上	-2645
外面玩	-2646
婴儿在	-2647
巴士上	-2648
市场里	-2649
广告牌	-2650
得开心	-2651
最喜欢	-2652
棕榈树	-2653
汽车的	-2654
波尔卡	-2655
滑雪车	-2656
玩排球	-2657
电话里	-2658
的旁边	-2659
的街头	-2660
看上去	-2661
看镜头	-2662
睡着了	-2663
硬帽的	-2664
而其他	-2665
而另外	-2666
背景是	-2667
胡子男	-2668
莫霍克	-2669
衬衣的	-2670
走下去	-2671
食物的	-2672
餐厅的	-2673
餐桌旁	-2674
▁两名穿	-2675
▁冲浪者	-2676
▁小孩在	-2677
▁身穿蓝	-2678
一个小孩	-2679
保龄球馆	-2680
大喊大叫	-2681
打曲棍球	-2682
拿着吉他	-2683
的孩子在	-2684
穿着一件	-2685
聚集一堂	-2686
表演特技	-2687
金发女人	-2688
▁一个站在	-2689
▁一个骑着	-2690
▁一名非洲	-2691
▁小男孩在	-2692
▁穿着橙色	-2693
体操运动员	-2694
的年轻男孩	-2695
的金发女人	-2696
▁一个人带着	-2697
▁一个黑头发	-2698
▁一只白狗在	-2699
▁人们聚集在	-2700
的年轻女孩在	-2701
短裤的男人在	-2702
▁一个棕色头发	-2703
▁一群年轻人在	-2704
▁一个男人在街上	-2705
▁一位年长的绅士	-2706
▁一个穿黑衬衫的男人	-2707
,1	-2708
as	-2709
en	-2710
▁黄	-2711
一间	-2712
互动	-2713
仔细	-2714
光线	-2715
出现	-2716
发生	-2717
受伤	-2718
头罩	-2719
娱乐	-2720
尼姆	-2721
山车	-2722
平静	-2723
悲伤	-2724
所有	-2725
把手	-2726
抓着	-2727
拖鞋	-2728
搅拌	-2729
摇摇	-2730
斗篷	-2731
枕头	-2732
桌前	-2733
桶子	-2734
楼前	-2735
欣赏	-2736
武器	-2737
汗衫	-2738
浴室	-2739
涂上	-2740
热狗	-2741
现代	-2742
电动	-2743
画了	-2744
画家	-2745
的长	-2746
盛装	-2747
着的	-2748
睡衣	-2749
破碎	-2750
祈祷	-2751
穿越	-2752
粉笔	-2753
纸上	-2754
绑着	-2755
绕着	-2756
美味	-2757
自然	-2758
自由	-2759
蝙蝠	-2760
行进	-2761
计算	-2762
走向	-2763
跑动	-2764
部落	-2765
长笛	-2766
院子	-2767
雕刻	-2768
面上	-2769
鸭子	-2770
ATV	-2771
▁一场	-2772
▁一艘	-2773
▁人群	-2774
▁带着	-2775
▁牛仔	-2776
▁蓝色	-2777
下面的	-2778
两只狗	-2779
为人群	-2780
乐队的	-2781
公路上	-2782
办公室	-2783
包围着	-2784
听音乐	-2785
商店前	-2786
塑料袋	-2787
大提琴	-2788
头盔和	-2789
建筑的	-2790
操场上	-2791
有三个	-2792
木筏上	-2793
洗衣机	-2794
海滩的	-2795
田野上	-2796
的男性	-2797
的白色	-2798
的顶部	-2799
的食物	-2800
红帽子	-2801
而他的	-2802
聚会上	-2803
脖子上	-2804
膝盖上	-2805
裙子和	-2806
观光客	-2807
雨伞下	-2808
黑衣的	-2809
▁几个人	-2810
▁四个人	-2811
▁我今天	-2812
▁父亲和	-2813
▁这个人	-2814
一个穿红	-2815
体育赛事	-2816
儿童站在	-2817
冲浪者在	-2818
戴着帽子	-2819
拿着一根	-2820
背着一个	-2821
衬衫和白	-2822
镜头微笑	-2823
雪中奔跑	-2824
▁一群孩子	-2825
▁两个穿着	-2826
▁两个穿黑	-2827
▁男男女女	-2828
▁身穿白色	-2829
▁身穿蓝色	-2830
▁这个人在	-2831
大衣的女人	-2832
打高尔夫球	-2833
站在草地上	-2834
繁忙的街道	-2835
而其他人则	-2836
衣服的男孩	-2837
▁一个戴帽子	-2838
▁一名戴眼镜	-2839
▁一群人走在	-2840
▁三个人站在	-2841
▁建筑工人在	-2842
衬衫的人正在	-2843
衬衫的年轻人	-2844
餐厅的桌子上	-2845
▁一个男人正在	-2846
..	-2847
BM	-2848
is	-2849
▁从	-2850
▁雪	-2851
一把	-2852
七八	-2853
两根	-2854
为了	-2855
交叉	-2856
信息	-2857
冬季	-2858
割草	-2859
发现	-2860
口罩	-2861
右手	-2862
向着	-2863
商场	-2864
在他	-2865
地的	-2866
婚纱	-2867
家里	-2868
小屋	-2869
屏障	-2870
山峰	-2871
巨石	-2872
干燥	-2873
年纪	-2874
形成	-2875
彩虹	-2876
快速	-2877
成功	-2878
手上	-2879
抚摸	-2880
拥有	-2881
挡住	-2882
捡起	-2883
新生	-2884
无袖	-2885
木林	-2886
来抓	-2887
模特	-2888
横跨	-2889
正与	-2890
民族	-2891
水域	-2892
水瓶	-2893
注意	-2894
灰尘	-2895
烟雾	-2896
照顾	-2897
玩水	-2898
玩球	-2899
珠宝	-2900
球迷	-2901
的山	-2902
着嘴	-2903
短信	-2904
研究	-2905
砖头	-2906
笑笑	-2907
第三	-2908
类似	-2909
终点	-2910
绿绿	-2911
羊毛	-2912
耐心	-2913
自动	-2914
衣物	-2915
记录	-2916
走狗	-2917
跳伞	-2918
身处	-2919
运行	-2920
迷你	-2921
追球	-2922
配有	-2923
铲雪	-2924
闪闪	-2925
陶器	-2926
雪鞋	-2927
风笛	-2928
高楼	-2929
鸡蛋	-2930
BMX	-2931
▁年长	-2932
▁足球	-2933
一只大	-2934
七八糟	-2935
刮胡子	-2936
变得更	-2937
名身着	-2938
周围有	-2939
唱歌和	-2940
商店的	-2941
圆圈里	-2942
圣诞树	-2943
在一座	-2944
她身后	-2945
孩子的	-2946
戴尼姆	-2947
房子里	-2948
旁边有	-2949
是什么	-2950
木板上	-2951
杂货店	-2952
沙子里	-2953
的一座	-2954
的人和	-2955
的天空	-2956
的岩石	-2957
的波浪	-2958
的白狗	-2959
的衬衫	-2960
石墙上	-2961
葡萄酒	-2962
西装和	-2963
计算机	-2964
赛跑中	-2965
跳出来	-2966
▁一名女	-2967
▁一群四	-2968
▁三只狗	-2969
▁她很有	-2970
一个穿黑	-2971
一根柱子	-2972
两个男孩	-2973
两名妇女	-2974
乱七八糟	-2975
和红色的	-2976
坐在外面	-2977
城市街道	-2978
头上戴着	-2979
帽的男人	-2980
拿着一把	-2981
拿着相机	-2982
服的男人	-2983
望远镜看	-2984
正在寻找	-2985
正在穿过	-2986
玩得开心	-2987
男人拿着	-2988
看一本书	-2989
穿着棕色	-2990
脚手架上	-2991
走过一条	-2992
躺在床上	-2993
飞来飞去	-2994
飞过空中	-2995
▁一个秃头	-2996
▁一个裸体	-2997
▁一对情侣	-2998
▁两人穿着	-2999
▁四个男人	-3000
▁有些人在	-3001
一个穿红色	-3002
人坐在一个	-3003
制服的男子	-3004
城市街道上	-3005
大衣的男人	-3006
游乐场玩耍	-3007
滑板运动员	-3008
白色和蓝色	-3009
衬衫的妇女	-3010
阳光明媚的	-3011
▁两个小女孩	-3012
另一个女人的	-3013
田里跑来跑去	-3014
舞台上弹吉他	-3015
▁一个人在街上	-3016
▁一个女人穿着	-3017
▁一个金发女孩	-3018
▁一位年轻女士	-3019
▁一位年轻女子	-3020
▁这部电影非常	-3021
▁一个人骑自行车	-3022
▁一个穿红衬衫的	-3023
白脸白脸白脸白脸	-3024
走着走着走着走着	-3025
▁一个穿红衬衫的男人	-3026
▁一只棕色和白色的狗	-3027
▁他是一位非常有名的	-3028
▁一个穿蓝衬衫的男人在	-3029
一副	-3030
下雨	-3031
专注	-3032
两条	-3033
丰富	-3034
了个	-3035
价格	-3036
任务	-3037
倒着	-3038
军事	-3039
军官	-3040
农场	-3041
击败	-3042
到达	-3043
制作	-3044
包装	-3045
包裹	-3046
历史	-3047
台新	-3048
呼吸	-3049
地方	-3050
场景	-3051
填充	-3052
头看	-3053
奇怪	-3054
孤单	-3055
小溪	-3056
尖叫	-3057
就要	-3058
巨型	-3059
布料	-3060
带领	-3061
帽的	-3062
平台	-3063
开阔	-3064
弹着	-3065
戴黑	-3066
房里	-3067
手握	-3068
扫地	-3069
扶手	-3070
挖洞	-3071
故事	-3072
时装	-3073
最后	-3074
有色	-3075
材料	-3076
板子	-3077
树丛	-3078
毛发	-3079
汉堡	-3080
洗碗	-3081
涂着	-3082
液体	-3083
渔网	-3084
溪流	-3085
满满	-3086
牙齿	-3087
玩家	-3088
玩着	-3089
甜点	-3090
的外	-3091
的脚	-3092
相邻	-3093
穿绿	-3094
窗帘	-3095
童子	-3096
箱子	-3097
罐子	-3098
翻翻	-3099
背背	-3100
航行	-3101
蒙面	-3102
衣和	-3103
赶上	-3104
起飞	-3105
跪下	-3106
路走	-3107
躲在	-3108
轮子	-3109
钓竿	-3110
防弹	-3111
马上	-3112
黄狗	-3113
鼓手	-3114
一顿饭	-3115
了一场	-3116
做一些	-3117
儿子在	-3118
农产品	-3119
卡车的	-3120
喷泉里	-3121
地面上	-3122
大石头	-3123
她的手	-3124
山顶上	-3125
帐篷下	-3126
徒步者	-3127
把东西	-3128
拳击手	-3129
摔跤手	-3130
桌子旁	-3131
棕色马	-3132
歌手在	-3133
正在做	-3134
正在向	-3135
法庭上	-3136
深蓝色	-3137
游乐园	-3138
狂欢节	-3139
白头发	-3140
的地区	-3141
的小狗	-3142
的尽头	-3143
的房间	-3144
的表情	-3145
的边缘	-3146
的雄性	-3147
的黑人	-3148
皮带上	-3149
看着水	-3150
砖墙上	-3151
艺术品	-3152
起重机	-3153
运动鞋	-3154
选手在	-3155
金色的	-3156
镜头前	-3157
▁一个大	-3158
▁一个带	-3159
▁一位在	-3160
▁她喜欢	-3161
▁穿黑色	-3162
一个孩子	-3163
一名妇女	-3164
上的东西	-3165
两个人在	-3166
举起一个	-3167
他的手臂	-3168
儿童坐在	-3169
厨房做饭	-3170
另一个在	-3171
和另一个	-3172
在公园里	-3173
坦克顶顶	-3174
孩子站在	-3175
没有衬衫	-3176
电脑屏幕	-3177
的棕色狗	-3178
相互交谈	-3179
穿过一条	-3180
站在外面	-3181
衣的男人	-3182
雪覆盖的	-3183
靠近一个	-3184
骑着他的	-3185
▁一个快乐	-3186
▁一个赤脚	-3187
▁一个黑人	-3188
▁一位亚洲	-3189
▁三只狗在	-3190
▁两名女性	-3191
▁人们走在	-3192
▁他们正在	-3193
▁戴帽子的	-3194
▁有几个人	-3195
▁这位女士	-3196
一个穿黑色	-3197
上衣的女人	-3198
另一个女人	-3199
在空中跳跃	-3200
坐在地板上	-3201
屋顶上工作	-3202
男人和女人	-3203
聚集在一个	-3204
足球比赛中	-3205
跳过障碍物	-3206
骑摩托车的	-3207
▁一个女人和	-3208
▁一群人看着	-3209
▁一群儿童在	-3210
▁三个男孩在	-3211
▁我们需要修	-3212
人行道上行走	-3213
喷气式喷气式	-3214
▁一个男人拿着	-3215
▁我们需要打扫	-3216
▁一个男孩和一个	-3217
滚滚滚滚滚滚滚滚滚滚滚滚滚滚滚滚	-3218
20	-3219
in	-3220
▁七	-3221
一下	-3222
一杯	-3223
两边	-3224
之上	-3225
倒了	-3226
军人	-3227
到了	-3228
勺子	-3229
医疗	-3230
南瓜	-3231
却在	-3232
参与	-3233
参观	-3234
可归	-3235
吊带	-3236
同样	-3237
向后	-3238
向左	-3239
呼啦	-3240
呼拉	-3241
和女	-3242
善良	-3243
园艺	-3244
地下	-3245
墨西	-3246
大堆	-3247
奥运	-3248
奶油	-3249
容易	-3250
展览	-3251
岸上	-3252
已经	-3253
帆船	-3254
帮我	-3255
店前	-3256
引擎	-3257
弯下	-3258
当时	-3259
很大	-3260
怀着	-3261
悬浮	-3262
投出	-3263
拍拍	-3264
摆动	-3265
无家	-3266
无领	-3267
时被	-3268
星星	-3269
暗淡	-3270
果汁	-3271
棋盘	-3272
棵树	-3273
正用	-3274
沿街	-3275
浏览	-3276
演唱	-3277
火炬	-3278
灯下	-3279
热带	-3280
班卓	-3281
生锈	-3282
病人	-3283
看球	-3284
瞄准	-3285
社交	-3286
管子	-3287
粘土	-3288
给我	-3289
美洲	-3290
职业	-3291
胜利	-3292
胡须	-3293
草丛	-3294
西瓜	-3295
货物	-3296
走上	-3297
越过	-3298
跑下	-3299
蹲下	-3300
车厢	-3301
车站	-3302
车轮	-3303
车道	-3304
转过	-3305
远离	-3306
追赶	-3307
选择	-3308
铺路	-3309
黄昏	-3310
鼓掌	-3311
▁两支	-3312
▁太阳	-3313
▁灰色	-3314
▁照片	-3315
▁男性	-3316
▁街头	-3317
▁黑人	-3318
乐队里	-3319
从水中	-3320
他旁边	-3321
冬衣的	-3322
卡车上	-3323
厨房的	-3324
古老的	-3325
和微笑	-3326
和短裤	-3327
和胡子	-3328
和蔬菜	-3329
在公园	-3330
在泥土	-3331
墨西哥	-3332
大楼里	-3333
天花板	-3334
小狗在	-3335
年纪较	-3336
才华的	-3337
拿着球	-3338
有人在	-3339
棕狗在	-3340
正在从	-3341
水泥墙	-3342
浅水中	-3343
滑雪板	-3344
炉子上	-3345
环绕着	-3346
男子和	-3347
白裙子	-3348
的亚裔	-3349
的女子	-3350
的桌子	-3351
皮夹克	-3352
监视器	-3353
看杂志	-3354
着一块	-3355
睡衣的	-3356
站在大	-3357
童子军	-3358
第三个	-3359
网球拍	-3360
街上的	-3361
裤子的	-3362
足球赛	-3363
进水里	-3364
面对着	-3365
▁乐队在	-3366
▁滑雪机	-3367
▁滑雪者	-3368
▁穿条纹	-3369
▁穿着蓝	-3370
▁穿西装	-3371
▁黑狗在	-3372
一位女士	-3373
一只棕色	-3374
一名男子	-3375
一男一女	-3376
一起表演	-3377
一辆白色	-3378
为摄像头	-3379
修自行车	-3380
和太阳镜	-3381
婴儿车里	-3382
弹吉他和	-3383
彼此旁边	-3384
拍摄一个	-3385
救生衣的	-3386
无家可归	-3387
玩手风琴	-3388
的亚洲人	-3389
看上去很	-3390
看着镜头	-3391
老人站在	-3392
街上行走	-3393
身着蓝色	-3394
躺在一个	-3395
防弹背心	-3396
▁一位穿着	-3397
▁两个亚洲	-3398
▁两个小孩	-3399
▁两个年轻	-3400
▁两个身着	-3401
▁你能帮我	-3402
▁有个女孩	-3403
▁棕色狗在	-3404
▁这张照片	-3405
一个小男孩	-3406
另一个男孩	-3407
夹克的男孩	-3408
女人和一个	-3409
对着麦克风	-3410
海滩上行走	-3411
电话里说话	-3412
白色和棕色	-3413
看着摄像机	-3414
自行车旁边	-3415
衬衫的年轻	-3416
衬衫的男子	-3417
▁一名身着蓝	-3418
▁她正在学习	-3419
▁有个女孩在	-3420
▁穿绿衬衫的	-3421
在一场比赛中	-3422
的男人和一件	-3423
骑着一辆红色	-3424
▁一个女人带着	-3425
▁一个金发碧眼	-3426
▁一位年轻女性	-3427
▁一名年轻人在	-3428
草地上跑来跑去	-3429
▁一只黑狗和一只	-3430
▁骑自行车的人在	-3431
在阳光明媚的一天	-3432
▁一个穿黄色衬衫的	-3433
咪咪咪咪咪咪咪咪咪咪咪咪咪咪咪咪	-3434
忙忙忙忙忙忙忙忙忙忙忙忙忙忙忙忙	-3435
,3	-3436
DJ	-3437
al	-3438
▁1	-3439
▁与	-3440
▁长	-3441
一点	-3442
中空	-3443
之后	-3444
伴娘	-3445
兜风	-3446
冲向	-3447
几乎	-3448
利用	-3449
升起	-3450
去了	-3451
双腿	-3452
可乐	-3453
吸尘	-3454
吸引	-3455
圆形	-3456
圆点	-3457
在这	-3458
城镇	-3459
大利	-3460
大多	-3461
大狗	-3462
太太	-3463
对付	-3464
展出	-3465
山坡	-3466
峡谷	-3467
市区	-3468
布上	-3469
床单	-3470
废墟	-3471
当着	-3472
愉快	-3473
成的	-3474
手势	-3475
技术	-3476
把头	-3477
指甲	-3478
数字	-3479
斧头	-3480
新闻	-3481
旧的	-3482
明天	-3483
有几	-3484
木质	-3485
杂技	-3486
杆上	-3487
某人	-3488
棍棒	-3489
楼的	-3490
歌唱	-3491
正向	-3492
深处	-3493
清洗	-3494
温暖	-3495
滑动	-3496
漂白	-3497
潜入	-3498
然后	-3499
爆炸	-3500
爬山	-3501
瑜伽	-3502
用水	-3503
的画	-3504
石块	-3505
米色	-3506
粉丝	-3507
粗糙	-3508
纸板	-3509
结束	-3510
肥皂	-3511
胸罩	-3512
脱衣	-3513
脸朝	-3514
脸部	-3515
节目	-3516
蒙住	-3517
蜡笔	-3518
行动	-3519
豪华	-3520
超市	-3521
超重	-3522
路人	-3523
跳跳	-3524
身体	-3525
躺着	-3526
追着	-3527
通常	-3528
铁链	-3529
长裙	-3530
间里	-3531
项圈	-3532
风格	-3533
饼干	-3534
首歌	-3535
高中	-3536
麻袋	-3537
amp	-3538
▁两队	-3539
▁学生	-3540
一匹马	-3541
一大堆	-3542
一条狗	-3543
三轮车	-3544
为照片	-3545
会议上	-3546
发短信	-3547
吃晚饭	-3548
呼啦圈	-3549
和另外	-3550
咖啡杯	-3551
喝着酒	-3552
嘴张开	-3553
在一堆	-3554
垃圾袋	-3555
声吉他	-3556
寒冷的	-3557
张着嘴	-3558
当他们	-3559
很多人	-3560
快乐地	-3561
户外的	-3562
房子的	-3563
手提箱	-3564
打排球	-3565
抓住球	-3566
栅栏的	-3567
洗衣服	-3568
游泳者	-3569
滑下来	-3570
漂浮在	-3571
玩足球	-3572
环境中	-3573
的人正	-3574
的前面	-3575
的女性	-3576
的手臂	-3577
的栅栏	-3578
的裙子	-3579
的雕像	-3580
穿条纹	-3581
穿紫色	-3582
纪念碑	-3583
练武术	-3584
老夫妇	-3585
脸上有	-3586
蓝头盔	-3587
赛车在	-3588
路边的	-3589
进一个	-3590
铁丝网	-3591
铁路上	-3592
隧道里	-3593
雪橇上	-3594
青年在	-3595
▁一条狗	-3596
▁她计划	-3597
▁工人在	-3598
▁我们上	-3599
▁日落时	-3600
▁消防员	-3601
▁自行车	-3602
一个穿白	-3603
一场比赛	-3604
一张桌子	-3605
一条船上	-3606
一起跳舞	-3607
他的手机	-3608
传统服装	-3609
健身房里	-3610
准备投球	-3611
另一只狗	-3612
和黑色的	-3613
商店门口	-3614
啦啦队员	-3615
在她身后	-3616
坐在墙上	-3617
坐在桌边	-3618
坐在绿色	-3619
年轻妇女	-3620
恤的男孩	-3621
打橄榄球	-3622
拿着一只	-3623
有很多人	-3624
木制结构	-3625
栅栏旁边	-3626
水中游泳	-3627
游乐场的	-3628
牛仔裤和	-3629
男人正在	-3630
白人男子	-3631
穿着服装	-3632
穿着灰色	-3633
赛马场上	-3634
跑马拉松	-3635
追着一个	-3636
野餐桌旁	-3637
驾驶一辆	-3638
▁一位身着	-3639
▁一名幼儿	-3640
▁一名警察	-3641
▁一群妇女	-3642
▁三个孩子	-3643
▁三名妇女	-3644
▁两个家伙	-3645
▁滑雪机在	-3646
▁身穿红色	-3647
▁这是一张	-3648
一个房间里	-3649
公共汽车站	-3650
其他人看着	-3651
另一名妇女	-3652
头盔的男人	-3653
玩电子游戏	-3654
的年轻女士	-3655
老年妇女在	-3656
衣服的妇女	-3657
▁一个人躺在	-3658
▁一个女人从	-3659
▁一个穿短裤	-3660
▁一个长胡子	-3661
▁一男一女在	-3662
▁三个人坐在	-3663
▁两只黑狗在	-3664
▁两名儿童在	-3665
▁有个男孩在	-3666
▁穿黑衬衫的	-3667
一位非常成功	-3668
夹克的女人在	-3669
帽子的男人在	-3670
滑板上耍花招	-3671
西装的男人在	-3672
▁一个男孩站在	-3673
▁一个老人坐在	-3674
城市的人行道上	-3675
衬衫的男人坐在	-3676
裙子的女人正在	-3677
骑自行车的人在	-3678
▁一个人站在一个	-3679
▁一个男人和两个	-3680
▁两个足球运动员	-3681
▁她是一位非常有	-3682
▁我们需要买台新	-3683
▁这家餐厅有很多	-3684
的男人坐在桌子上	-3685
穿过草地跑来跑去	-3686
紧紧紧紧紧紧紧紧	-3687
衬衫和蓝色牛仔裤	-3688
▁一个穿条纹衬衫的	-3689
od	-3690
oo	-3691
ou	-3692
▁和	-3693
▁水	-3694
▁由	-3695
一排	-3696
一架	-3697
一组	-3698
个月	-3699
主题	-3700
交给	-3701
光浴	-3702
兔子	-3703
决定	-3704
分卫	-3705
划艇	-3706
午觉	-3707
单车	-3708
印着	-3709
发型	-3710
发射	-3711
吉普	-3712
和绿	-3713
回家	-3714
在地	-3715
在马	-3716
坡道	-3717
处理	-3718
多姿	-3719
大学	-3720
大浪	-3721
大笑	-3722
好奇	-3723
好的	-3724
安排	-3725
宗教	-3726
客户	-3727
小型	-3728
小心	-3729
小时	-3730
小牛	-3731
少数	-3732
左边	-3733
开会	-3734
式的	-3735
当他	-3736
当劳	-3737
录像	-3738
怎么	-3739
恤衫	-3740
想在	-3741
打水	-3742
挖土	-3743
推推	-3744
攀登	-3745
放大	-3746
新婚	-3747
旅游	-3748
时会	-3749
晒黑	-3750
暴风	-3751
松树	-3752
架子	-3753
某个	-3754
树的	-3755
棕狗	-3756
正规	-3757
步枪	-3758
残骸	-3759
比萨	-3760
毕业	-3761
民众	-3762
沙沙	-3763
沼泽	-3764
泼水	-3765
海盗	-3766
滑稽	-3767
演示	-3768
点心	-3769
烹饪	-3770
燃烧	-3771
独特	-3772
玩弄	-3773
用品	-3774
电锯	-3775
的白	-3776
的蓝	-3777
直升	-3778
看不	-3779
看望	-3780
看见	-3781
碎石	-3782
礼堂	-3783
积极	-3784
窗口	-3785
练的	-3786
组织	-3787
翻滚	-3788
联盟	-3789
聚会	-3790
肖像	-3791
胳膊	-3792
胸口	-3793
菜单	-3794
蝴蝶	-3795
褐色	-3796
设施	-3797
诚实	-3798
诡计	-3799
跳了	-3800
车手	-3801
连串	-3802
银行	-3803
锅里	-3804
问题	-3805
雪雪	-3806
零食	-3807
顶着	-3808
鸟儿	-3809
▁一张	-3810
▁乐队	-3811
▁人类	-3812
▁女士	-3813
▁晚上	-3814
▁那个	-3815
▁飞机	-3816
一个有	-3817
一些新	-3818
与其他	-3819
之间的	-3820
买东西	-3821
准备用	-3822
出租车	-3823
创造力	-3824
别人的	-3825
十字架	-3826
和一些	-3827
和一辆	-3828
喝咖啡	-3829
喷洒器	-3830
在墙上	-3831
在田里	-3832
垃圾箱	-3833
士兵在	-3834
天空中	-3835
婚礼上	-3836
家庭在	-3837
对一个	-3838
对面的	-3839
山坡上	-3840
市中心	-3841
带着一	-3842
戴着绿	-3843
戴耳机	-3844
手套的	-3845
把她的	-3846
抓住了	-3847
时笑着	-3848
服务员	-3849
服的人	-3850
木头上	-3851
杯子里	-3852
板凳上	-3853
橙色球	-3854
汽车和	-3855
海洋中	-3856
用木头	-3857
画一个	-3858
的一位	-3859
的底部	-3860
的情侣	-3861
的水域	-3862
的笑容	-3863
的绳子	-3864
的绿色	-3865
盘食物	-3866
睡午觉	-3867
硬帽和	-3868
穿橙色	-3869
组成的	-3870
背景里	-3871
表演时	-3872
许多人	-3873
麦当劳	-3874
黑暗中	-3875
▁外面有	-3876
▁很多人	-3877
▁摩托车	-3878
▁有三个	-3879
▁穿着白	-3880
一个大型	-3881
一只小狗	-3882
一张相片	-3883
一辆黄色	-3884
上下上下	-3885
两名男子	-3886
举起双臂	-3887
互相交谈	-3888
似乎正在	-3889
准备参加	-3890
可以看到	-3891
吃三明治	-3892
在桌子上	-3893
孩子坐在	-3894
弹声吉他	-3895
弹电吉他	-3896
手里握着	-3897
最喜欢的	-3898
棋盘游戏	-3899
水里游泳	-3900
消防员在	-3901
牛仔裤的	-3902
白帽子的	-3903
的一部分	-3904
的老人在	-3905
直地直地	-3906
穿过街道	-3907
站在一些	-3908
红色帽子	-3909
自行车的	-3910
表演舞蹈	-3911
跪在地上	-3912
身着黄色	-3913
身着黑色	-3914
金属结构	-3915
雪地里玩	-3916
非常兴奋	-3917
骑着摩托	-3918
骑着波浪	-3919
▁一个中年	-3920
▁一些人在	-3921
▁一位女性	-3922
▁一名男女	-3923
▁一名穿着	-3924
▁他正在做	-3925
▁四个孩子	-3926
▁很多人在	-3927
▁穿着白色	-3928
▁身穿黑色	-3929
▁这是一个	-3930
乱七八糟的	-3931
变得更容易	-3932
另一个女孩	-3933
和一名妇女	-3934
棒球比赛中	-3935
水果和蔬菜	-3936
的女士正在	-3937
的男人看着	-3938
的金发女孩	-3939
穿着白衬衫	-3940
站在沙滩上	-3941
网球运动员	-3942
背心的男人	-3943
衬衫和眼镜	-3944
通过显微镜	-3945
阴云的一天	-3946
马拉松赛跑	-3947
▁一个人走在	-3948
▁一只小狗在	-3949
▁一名年轻人	-3950
▁一群男孩在	-3951
▁四个人站在	-3952
▁新娘和新郎	-3953
而另一个男人	-3954
街上骑自行车	-3955
衣服的女人在	-3956
▁一个人在一个	-3957
▁一个戴眼镜的	-3958
▁一个戴着帽子	-3959
▁一个男人走在	-3960
▁三个男人坐在	-3961
▁两个年轻女孩	-3962
▁有两个男人在	-3963
一位非常成功的	-3964
格子衬衫的男人	-3965
繁忙的人行道上	-3966
▁一个穿白衬衫的	-3967
▁两个年轻女孩在	-3968
▁两只狗在草地上	-3969
▁一个戴眼镜的男人	-3970
▁在阳光明媚的一天	-3971
▁两个男人和一个女人	-3972
▁他是一位非常成功的	-3973
▁一只棕色和白色的狗在	-3974
,2	-3975
Le	-3976
ac	-3977
ee	-3978
es	-3979
▁S	-3980
▁八	-3981
▁家	-3982
▁请	-3983
三脚	-3984
上用	-3985
不是	-3986
两座	-3987
中途	-3988
云层	-3989
仰望	-3990
修复	-3991
倒塌	-3992
偷看	-3993
内衣	-3994
击球	-3995
刷子	-3996
剪刀	-3997
加拿	-3998
区的	-3999
印地	-4000
反应	-4001
吹口	-4002
唱诗	-4003
喷漆	-4004
喷雾	-4005
四轮	-4006
回来	-4007
团队	-4008
坑里	-4009
塞进	-4010
夏天	-4011
外衣	-4012
大块	-4013
大门	-4014
妻子	-4015
客厅	-4016
小的	-4017
小马	-4018
尾辫	-4019
工程	-4020
巷里	-4021
形状	-4022
忘记	-4023
忙着	-4024
戴白	-4025
房屋	-4026
打斗	-4027
抬起	-4028
拍了	-4029
拱门	-4030
推到	-4031
搭乘	-4032
方式	-4033
族馆	-4034
无聊	-4035
晚餐	-4036
机前	-4037
杆子	-4038
柠檬	-4039
树荫	-4040
梁上	-4041
横穿	-4042
欲坠	-4043
水桶	-4044
水流	-4045
法国	-4046
法官	-4047
洗手	-4048
洗车	-4049
海绵	-4050
海鸥	-4051
游荡	-4052
滑梯	-4053
滑水	-4054
滑翔	-4055
满意	-4056
火花	-4057
灯笼	-4058
灰发	-4059
炉子	-4060
炎热	-4061
点燃	-4062
热情	-4063
狭窄	-4064
玩弦	-4065
白球	-4066
的事	-4067
的是	-4068
的腿	-4069
盖着	-4070
硬木	-4071
种族	-4072
第二	-4073
筷子	-4074
紧急	-4075
约翰	-4076
网上	-4077
翅膀	-4078
肚子	-4079
脖子	-4080
腰带	-4081
花岗	-4082
获得	-4083
营地	-4084
蜜蜂	-4085
课程	-4086
赞助	-4087
起居	-4088
躺下	-4089
车旁	-4090
迹象	-4091
那个	-4092
部队	-4093
采摘	-4094
采访	-4095
钉子	-4096
长椅	-4097
门上	-4098
防晒	-4099
阿拉	-4100
随身	-4101
雨天	-4102
雨衣	-4103
香烟	-4104
骑过	-4105
高处	-4106
高空	-4107
鸟在	-4108
▁一座	-4109
▁当地	-4110
▁戴黑	-4111
▁男子	-4112
▁白天	-4113
▁红色	-4114
▁红衣	-4115
▁纽约	-4116
▁赛跑	-4117
▁雪地	-4118
▁驾驶	-4119
一座桥	-4120
一边看	-4121
两人在	-4122
个孩子	-4123
中东部	-4124
中玩耍	-4125
为观众	-4126
举着一	-4127
了一些	-4128
他面前	-4129
们正在	-4130
做瑜伽	-4131
切蛋糕	-4132
前面有	-4133
动物园	-4134
化妆品	-4135
口袋里	-4136
同时在	-4137
名女性	-4138
向上看	-4139
和头盔	-4140
和玩具	-4141
和饮料	-4142
唱着歌	-4143
唱诗班	-4144
土路上	-4145
在路上	-4146
坦克顶	-4147
墙上的	-4148
墙壁上	-4149
外边的	-4150
大楼外	-4151
大狗在	-4152
大腿上	-4153
女人用	-4154
她的狗	-4155
她身边	-4156
完成的	-4157
山上的	-4158
市街上	-4159
得非常	-4160
戴面罩	-4161
扶梯上	-4162
攀岩者	-4163
旋转木	-4164
日光浴	-4165
时微笑	-4166
有耐心	-4167
有许多	-4168
枕头上	-4169
森林的	-4170
橙色的	-4171
水坑里	-4172
池塘里	-4173
沙丘上	-4174
河边的	-4175
满满是	-4176
潜水员	-4177
熟练的	-4178
狗坐在	-4179
玩一个	-4180
玩飞盘	-4181
理发师	-4182
生锈的	-4183
用棍子	-4184
的到来	-4185
的姑娘	-4186
的帽子	-4187
的景象	-4188
的水里	-4189
的背上	-4190
的黄色	-4191
科学家	-4192
穿制服	-4193
穿着黑	-4194
窗户上	-4195
紧身裤	-4196
红衬衫	-4197
美味的	-4198
背对着	-4199
行走时	-4200
街边的	-4201
衣服在	-4202
衣的人	-4203
装备的	-4204
装饰的	-4205
裤子和	-4206
试图从	-4207
身后有	-4208
转过身	-4209
门廊上	-4210
阳光下	-4211
阴影下	-4212
颜色的	-4213
黑皮肤	-4214
鼓手在	-4215
▁一群在	-4216
▁公园里	-4217
▁我需要	-4218
▁戴墨镜	-4219
▁红头发	-4220
▁观光客	-4221
▁足球队	-4222
一只黑狗	-4223
什么东西	-4224
公共场合	-4225
办公室里	-4226
卡车后面	-4227
参加一场	-4228
商店窗户	-4229
在一个大	-4230
在一个小	-4231
在他身后	-4232
在水面上	-4233
墙上挂着	-4234
多彩服装	-4235
女人旁边	-4236
女孩正在	-4237
工人站在	-4238
戴帽子的	-4239
戴着头盔	-4240
折叠椅上	-4241
抱着她的	-4242
拿着雨伞	-4243
摇摇欲坠	-4244
旁边的一	-4245
柜台后面	-4246
正在看着	-4247
沿着海滩	-4248
海滩上的	-4249
滑雪板上	-4250
滑雪滑雪	-4251
滑雪者在	-4252
男孩站在	-4253
的地板上	-4254
盛装盛装	-4255
穿着紫色	-4256
穿过一片	-4257
篮球选手	-4258
背景中有	-4259
背景中的	-4260
自行车赛	-4261
舞台上的	-4262
衬衫和黑	-4263
观众看着	-4264
观众观看	-4265
试图阻止	-4266
足球制服	-4267
轮椅上的	-4268
轮胎摆动	-4269
露天露天	-4270
靠在墙上	-4271
骑着一匹	-4272
▁一个人把	-4273
▁一个婴儿	-4274
▁一只狗从	-4275
▁两个穿白	-4276
▁两个穿蓝	-4277
▁两位女士	-4278
▁他是一名	-4279
▁他正在吹	-4280
▁几个男人	-4281
▁我们去了	-4282
▁有个男人	-4283
▁棕色头发	-4284
▁男人站在	-4285
▁身穿绿色	-4286
一个人坐在	-4287
一个男人在	-4288
一张桌子上	-4289
两个男人在	-4290
到麦克风里	-4291
围巾的女人	-4292
山地自行车	-4293
彩色明亮的	-4294
微笑着微笑	-4295
摩托车手在	-4296
服装的女人	-4297
正站在一个	-4298
沙滩上玩耍	-4299
演奏手风琴	-4300
玩滑板游戏	-4301
的女士坐在	-4302
的女士站在	-4303
的女孩坐在	-4304
的女孩正在	-4305
的孩子正在	-4306
的老年妇女	-4307
美丽的一天	-4308
聚集在街上	-4309
舞台上唱歌	-4310
透过显微镜	-4311
雪地里玩耍	-4312
项目上工作	-4313
▁一个人爬上	-4314
▁一大群人在	-4315
▁一群年轻的	-4316
▁两个小男孩	-4317
▁年轻女孩在	-4318
▁有个小女孩	-4319
▁滑板运动员	-4320
▁穿白衬衫的	-4321
十几岁的男孩	-4322
拿着一个标志	-4323
看着她的手机	-4324
穿着红色夹克	-4325
衣服的人正在	-4326
裙子的女孩在	-4327
▁一个女孩坐在	-4328
▁一个男孩坐在	-4329
▁一个金发女人	-4330
▁一只大棕色狗	-4331
▁一只棕色的狗	-4332
▁一名男子坐在	-4333
▁一对年轻夫妇	-4334
▁两个小男孩在	-4335
▁两个男人站在	-4336
▁戴帽子的男人	-4337
▁滑板运动员在	-4338
▁身穿白衬衫和	-4339
对着麦克风说话	-4340
的年轻女孩正在	-4341
衬衫和蓝牛仔裤	-4342
裙子的女人站在	-4343
▁一个年轻男孩在	-4344
▁一个年轻的亚洲	-4345
▁一个戴太阳眼镜	-4346
▁男人和女人坐在	-4347
▁一个男人和女人在	-4348
▁一个穿着白衬衫和	-4349
▁一个穿红衬衫的男孩	-4350
▁一个穿橙色衬衫的男人	-4351
▁一个穿白衬衫的男人在	-4352
▁她是一位非常有才华的	-4353
om	-4354
os	-4355
ri	-4356
▁7	-4357
▁玩	-4358
▁船	-4359
▁该	-4360
▁马	-4361
一具	-4362
一次	-4363
一顶	-4364
临时	-4365
乡村	-4366
争吵	-4367
争斗	-4368
今晚	-4369
仓库	-4370
伸向	-4371
作品	-4372
你的	-4373
例行	-4374
便车	-4375
修补	-4376
假期	-4377
光束	-4378
克力	-4379
全套	-4380
写字	-4381
冰块	-4382
冷却	-4383
切开	-4384
切肉	-4385
前看	-4386
前额	-4387
力的	-4388
发光	-4389
可靠	-4390
号码	-4391
合唱	-4392
后座	-4393
员工	-4394
圆桌	-4395
在前	-4396
在小	-4397
坠落	-4398
堆积	-4399
夏威	-4400
外看	-4401
夜晚	-4402
大树	-4403
大米	-4404
大量	-4405
天线	-4406
太婆	-4407
夫妻	-4408
奥林	-4409
奶牛	-4410
妇人	-4411
宁静	-4412
安慰	-4413
容器	-4414
屁股	-4415
山下	-4416
工业	-4417
年青	-4418
并肩	-4419
废弃	-4420
度假	-4421
开枪	-4422
录音	-4423
影子	-4424
很热	-4425
很远	-4426
得分	-4427
心地	-4428
感激	-4429
手举	-4430
手杖	-4431
手的	-4432
扣子	-4433
把它	-4434
拍到	-4435
挖掘	-4436
探索	-4437
摊前	-4438
擦鞋	-4439
政治	-4440
故意	-4441
斯基	-4442
施工	-4443
时尚	-4444
木棍	-4445
本地	-4446
条条	-4447
某事	-4448
树边	-4449
格兰	-4450
棉花	-4451
横幅	-4452
橘子	-4453
橡皮	-4454
橡胶	-4455
欢乐	-4456
武装	-4457
水泉	-4458
水道	-4459
测试	-4460
测量	-4461
浮标	-4462
清扫	-4463
炉上	-4464
照亮	-4465
爸爸	-4466
男的	-4467
留下	-4468
番茄	-4469
疯狂	-4470
白马	-4471
的后	-4472
的绿	-4473
盖的	-4474
眉毛	-4475
看来	-4476
空旷	-4477
窗边	-4478
红花	-4479
绘画	-4480
维修	-4481
绷带	-4482
美好	-4483
老虎	-4484
耕种	-4485
耳环	-4486
聚光	-4487
脸颊	-4488
舒适	-4489
舞女	-4490
船只	-4491
英国	-4492
被从	-4493
读书	-4494
贝斯	-4495
贝雷	-4496
货车	-4497
贴上	-4498
贴着	-4499
超速	-4500
跑着	-4501
跳绳	-4502
轨道	-4503
酒保	-4504
钥匙	-4505
铅笔	-4506
铺设	-4507
闪亮	-4508
雪茄	-4509
露面	-4510
音响	-4511
颜料	-4512
驴子	-4513
鼓声	-4514
one	-4515
▁一排	-4516
▁三人	-4517
▁他在	-4518
▁城市	-4519
▁天空	-4520
▁学校	-4521
▁我为	-4522
▁火车	-4523
▁电影	-4524
▁白狗	-4525
▁绿色	-4526
▁音乐	-4527
▁黑发	-4528
一些人	-4529
一大块	-4530
一大批	-4531
一小群	-4532
一幅画	-4533
一起吃	-4534
与她的	-4535
中间的	-4536
亚洲人	-4537
休息一	-4538
充满活	-4539
兴奋地	-4540
出一个	-4541
割草机	-4542
印地安	-4543
合唱团	-4544
吉他和	-4545
吉普车	-4546
名男性	-4547
向左看	-4548
和一群	-4549
和三个	-4550
和儿童	-4551
和墨镜	-4552
和男孩	-4553
咖啡店	-4554
喜欢在	-4555
喝着一	-4556
圣诞节	-4557
在一间	-4558
在海滩	-4559
在那里	-4560
在附近	-4561
坐在高	-4562
夏威夷	-4563
大棍子	-4564
太阳下	-4565
头巾的	-4566
头顶有	-4567
奥林匹	-4568
岸边的	-4569
巧克力	-4570
年伦敦	-4571
店外面	-4572
建筑里	-4573
弯下腰	-4574
得很快	-4575
意大利	-4576
手推车	-4577
打电话	-4578
拉绳子	-4579
拍照片	-4580
教堂里	-4581
时坐在	-4582
是一个	-4583
有一条	-4584
有趣的	-4585
树枝上	-4586
正看着	-4587
水族馆	-4588
水池里	-4589
水里玩	-4590
水面前	-4591
沙漠中	-4592
滑板在	-4593
滑雪机	-4594
演唱会	-4595
牌游戏	-4596
狗站在	-4597
用绳子	-4598
电脑上	-4599
电话亭	-4600
的一家	-4601
的中间	-4602
的人把	-4603
的人用	-4604
的天气	-4605
的方向	-4606
的游戏	-4607
的物体	-4608
的船上	-4609
的非洲	-4610
盒子里	-4611
看电视	-4612
眼镜和	-4613
砖墙前	-4614
破碎的	-4615
穿短裤	-4616
等火车	-4617
紧紧地	-4618
终点线	-4619
网球场	-4620
网球鞋	-4621
老年人	-4622
而她的	-4623
背包在	-4624
苏打水	-4625
蝙蝠侠	-4626
衣服和	-4627
装饰品	-4628
设备上	-4629
设计的	-4630
试图用	-4631
赛马场	-4632
跟着他	-4633
车停在	-4634
车道上	-4635
过山车	-4636
镜子前	-4637
镜子里	-4638
长胡子	-4639
闪亮的	-4640
院子上	-4641
雪山上	-4642
飞行员	-4643
餐馆里	-4644
骑马者	-4645
▁一匹马	-4646
▁一只白	-4647
▁两个大	-4648
▁图书馆	-4649
▁她很自	-4650
▁有些人	-4651
▁母亲和	-4652
▁穿着黑	-4653
▁赛车手	-4654
一条街上	-4655
一根棍子	-4656
一辆汽车	-4657
中年妇女	-4658
体育场里	-4659
公共交通	-4660
制服的人	-4661
和粉红色	-4662
和绿色的	-4663
和蓝色的	-4664
喝着饮料	-4665
在厨房里	-4666
在空气中	-4667
在街上卖	-4668
在院子里	-4669
外面玩耍	-4670
大衣的人	-4671
女性正在	-4672
孩子看着	-4673
带着孩子	-4674
帮助一个	-4675
年纪较大	-4676
年轻男人	-4677
年长妇女	-4678
戴着墨镜	-4679
抱着孩子	-4680
拍了一张	-4681
拥抱一个	-4682
旁边有个	-4683
桌子后面	-4684
检查她的	-4685
正在进行	-4686
武术比赛	-4687
深色头发	-4688
男孩正在	-4689
男孩穿着	-4690
的人一起	-4691
的人在看	-4692
的人说话	-4693
的旁观者	-4694
的艺术家	-4695
的道路上	-4696
相机拍照	-4697
穿过水面	-4698
站在一条	-4699
聚在一起	-4700
舞台表演	-4701
购物中心	-4702
赛车手在	-4703
跳过空中	-4704
雕像面前	-4705
雪中行走	-4706
露天市场	-4707
骑脚踏车	-4708
麦克风里	-4709
黑人男子	-4710
▁一个人正	-4711
▁一个棕色	-4712
▁一个穿黄	-4713
▁一个纹身	-4714
▁一个非洲	-4715
▁一只带着	-4716
▁三个女孩	-4717
▁三名儿童	-4718
▁两个金发	-4719
▁两名男性	-4720
▁我们昨天	-4721
▁我喜欢写	-4722
▁戴黑帽子	-4723
▁游泳池里	-4724
▁穿着棕色	-4725
▁穿着绿色	-4726
▁穿着黑色	-4727
一个穿黄色	-4728
一群人中间	-4729
一辆摩托车	-4730
一辆红色的	-4731
两个孩子在	-4732
丰富多彩的	-4733
人行道上的	-4734
其他人一起	-4735
冰淇淋甜筒	-4736
和一个男孩	-4737
嘴里有东西	-4738
在一栋大楼	-4739
多姿多彩的	-4740
夹克的女孩	-4741
女人在一个	-4742
对镜头微笑	-4743
年轻人坐在	-4744
弹萨克斯风	-4745
拥挤的街道	-4746
拿着一张纸	-4747
服装的男人	-4748
格子衬衫的	-4749
橙色背心的	-4750
母亲和她的	-4751
涂鸦覆盖的	-4752
游泳运动员	-4753
的一对夫妇	-4754
的女人带着	-4755
的女人旁边	-4756
的妇女正在	-4757
的男人说话	-4758
站在一个大	-4759
站在他身后	-4760
站在舞台上	-4761
自行车头盔	-4762
舞台上演奏	-4763
非常熟练的	-4764
领带的男人	-4765
▁一个穿西装	-4766
▁一只狗跳过	-4767
▁一名男孩在	-4768
▁一群男人在	-4769
▁两名男子在	-4770
▁五个人坐在	-4771
▁戴头盔的人	-4772
▁有两个女人	-4773
▁穿白衬衫和	-4774
▁许多人坐在	-4775
一个穿粉红色	-4776
一条泥土路上	-4777
公园的长椅上	-4778
吃冰淇淋甜筒	-4779
和一个男人在	-4780
在一个房间里	-4781
感到非常兴奋	-4782
拿着一根棍子	-4783
的小女孩正在	-4784
的男人在街上	-4785
的足球运动员	-4786
笔记本电脑上	-4787
篮球运动员在	-4788
衬衫的男孩在	-4789
附近的草地上	-4790
▁一个女人躺在	-4791
▁一个男人睡在	-4792
▁一个长着胡子	-4793
▁两个女孩坐在	-4794
▁两个小女孩在	-4795
▁两个年轻人在	-4796
▁两名妇女坐在	-4797
▁我们需要修理	-4798
▁穿着白衬衫和	-4799
▁穿蓝衬衫的人	-4800
▁足球运动员在	-4801
在一条泥土路上	-4802
夹克的男人坐在	-4803
曲棍球运动员在	-4804
的人行道上行走	-4805
的男人站在一个	-4806
▁一个小男孩坐在	-4807
▁一个男人和女人	-4808
▁一个穿白衬衫和	-4809
▁一个穿红色夹克	-4810
▁一个足球运动员	-4811
▁一只白色和棕色	-4812
▁两个女人和一个	-4813
▁穿黑衬衫的男人	-4814
制服的棒球运动员	-4815
▁一个没有衬衫的男人	-4816
▁他是一名非常熟练的	-4817
▁一个穿黄色衬衫的男人	-4818
直直地直直地直直地直直地	-4819
10	-4820
St	-4821
ad	-4822
ch	-4823
iP	-4824
lo	-4825
uc	-4826
▁带	-4827
▁教	-4828
▁风	-4829
一队	-4830
万圣	-4831
丈夫	-4832
三只	-4833
下棋	-4834
下车	-4835
下降	-4836
不明	-4837
世纪	-4838
丝袜	-4839
个子	-4840
之一	-4841
之前	-4842
亮亮	-4843
亮色	-4844
人力	-4845
企业	-4846
优雅	-4847
佩戴	-4848
保险	-4849
俯瞰	-4850
停止	-4851
兄弟	-4852
光芒	-4853
免费	-4854
公用	-4855
共同	-4856
关于	-4857
冒险	-4858
出去	-4859
到球	-4860
前进	-4861
加油	-4862
半空	-4863
单人	-4864
发言	-4865
取款	-4866
受到	-4867
可塑	-4868
右边	-4869
号的	-4870
吃一	-4871
同步	-4872
名字	-4873
名牌	-4874
向下	-4875
吸烟	-4876
和穿	-4877
哭着	-4878
商人	-4879
商务	-4880
嘲笑	-4881
嘴唇	-4882
土丘	-4883
土生	-4884
在白	-4885
在跑	-4886
地点	-4887
地里	-4888
坚持	-4889
垒打	-4890
垫上	-4891
堆里	-4892
夜总	-4893
大厅	-4894
头带	-4895
头戴	-4896
头的	-4897
头骨	-4898
奇特	-4899
奶酪	-4900
好像	-4901
字母	-4902
安装	-4903
完全	-4904
宠物	-4905
寻常	-4906
封面	-4907
小组	-4908
小群	-4909
小说	-4910
山边	-4911
市街	-4912
带有	-4913
很好	-4914
很近	-4915
忙碌	-4916
恐龙	-4917
手和	-4918
扔了	-4919
扣扣	-4920
技能	-4921
投掷	-4922
抱住	-4923
拉拉	-4924
拉链	-4925
挑战	-4926
捕鱼	-4927
接球	-4928
收获	-4929
教师	-4930
斑点	-4931
日子	-4932
明年	-4933
昨晚	-4934
是在	-4935
木偶	-4936
木柴	-4937
机里	-4938
查看	-4939
树冠	-4940
树干	-4941
根烟	-4942
格斗	-4943
桌布	-4944
桥下	-4945
椰子	-4946
楼外	-4947
每天	-4948
毛皮	-4949
水和	-4950
沃尔	-4951
河下	-4952
泰迪	-4953
洒水	-4954
洗涤	-4955
浅色	-4956
海鲜	-4957
涂了	-4958
涂料	-4959
涂漆	-4960
港口	-4961
湖上	-4962
满身	-4963
激烈	-4964
火鸡	-4965
照耀	-4966
爬树	-4967
牙刷	-4968
牛排	-4969
猴子	-4970
玫瑰	-4971
现在	-4972
用脚	-4973
田径	-4974
电缆	-4975
电车	-4976
画廊	-4977
的头	-4978
盘上	-4979
知道	-4980
穿戴	-4981
精心	-4982
紧张	-4983
紧挨	-4984
红衣	-4985
组装	-4986
绳上	-4987
绵羊	-4988
群众	-4989
老头	-4990
老师	-4991
老鼠	-4992
考虑	-4993
肌肉	-4994
自制	-4995
自助	-4996
舞池	-4997
艇上	-4998
英尺	-4999
营火	-5000
落下	-5001
蒙上	-5002
蓝伞	-5003
蓝衣	-5004
街区	-5005
表现	-5006
规模	-5007
视线	-5008
视频	-5009
越好	-5010
跨过	-5011
路障	-5012
蹲在	-5013
过道	-5014
这些	-5015
这条	-5016
远方	-5017
迷惑	-5018
都有	-5019
重型	-5020
野马	-5021
阵子	-5022
集中	-5023
集会	-5024
集体	-5025
雪球	-5026
面粉	-5027
鞠躬	-5028
领先	-5029
首饰	-5030
骑牛	-5031
高兴	-5032
黑带	-5033
黑皮	-5034
龙头	-5035
▁包括	-5036
▁印度	-5037
▁在这	-5038
▁大约	-5039
▁幼儿	-5040
▁灰狗	-5041
▁秋天	-5042
▁穿湿	-5043
▁穿黄	-5044
▁红发	-5045
▁胡子	-5046
▁这位	-5047
▁骑着	-5048
▁黄色	-5049
一人在	-5050
一大群	-5051
上的人	-5052
上行走	-5053
下一个	-5054
与一名	-5055
个女孩	-5056
了一块	-5057
了一座	-5058
了一条	-5059
亮黄色	-5060
仰望着	-5061
体育馆	-5062
冷却器	-5063
医院的	-5064
卡车前	-5065
发表演	-5066
另一边	-5067
号球衣	-5068
后面是	-5069
向下看	-5070
向人群	-5071
周围是	-5072
和手套	-5073
和男人	-5074
喝杯酒	-5075
在她的	-5076
在树上	-5077
在白色	-5078
在雨中	-5079
外套的	-5080
夜总会	-5081
大厅里	-5082
头发和	-5083
奇怪的	-5084
她旁边	-5085
子上有	-5086
孤单的	-5087
完成了	-5088
屏幕上	-5089
店工作	-5090
开着的	-5091
开阔的	-5092
彩色的	-5093
很悲伤	-5094
很满意	-5095
成人在	-5096
成员在	-5097
抓飞盘	-5098
拉出来	-5099
拿着枪	-5100
挤满了	-5101
握着一	-5102
搭便车	-5103
斗牛的	-5104
暗淡的	-5105
有红色	-5106
服装和	-5107
木林区	-5108
板上的	-5109
树木和	-5110
棉花糖	-5111
棕色的	-5112
楼梯的	-5113
欢呼着	-5114
水中的	-5115
水果摊	-5116
水槽里	-5117
汉堡包	-5118
沙漠里	-5119
没有穿	-5120
沿一条	-5121
波浪中	-5122
泳池里	-5123
洗涤剂	-5124
海洋里	-5125
涂满了	-5126
消防栓	-5127
滑冰者	-5128
灯光下	-5129
班卓琴	-5130
用滑板	-5131
田地里	-5132
电影院	-5133
男孩和	-5134
白脸白	-5135
白衣的	-5136
的一幅	-5137
的乐器	-5138
的动物	-5139
的印度	-5140
的后面	-5141
的商店	-5142
的壁画	-5143
的学生	-5144
的小丑	-5145
的火车	-5146
的玩具	-5147
的街角	-5148
的面孔	-5149
的风景	-5150
看到的	-5151
着她的	-5152
砍木头	-5153
礼服的	-5154
红衣的	-5155
绿地上	-5156
羽毛球	-5157
背翻转	-5158
艺术和	-5159
蓝色球	-5160
蓝衬衫	-5161
被树木	-5162
读一本	-5163
走道上	-5164
足球场	-5165
跑下来	-5166
跳跃中	-5167
近距离	-5168
障碍物	-5169
雕像上	-5170
飞机上	-5171
黄昏时	-5172
2012	-5173
▁一个玩	-5174
▁一位老	-5175
▁今天又	-5176
▁啦啦队	-5177
▁在户外	-5178
▁孩子在	-5179
▁年轻的	-5180
▁成人和	-5181
▁有一个	-5182
▁有很多	-5183
▁滑板机	-5184
▁男人们	-5185
▁男人用	-5186
▁男子在	-5187
▁这些天	-5188
▁音乐家	-5189
一个拿着	-5190
一个标志	-5191
一个穿着	-5192
一个黄色	-5193
一条小路	-5194
一群儿童	-5195
一辆蓝色	-5196
上有纹身	-5197
举着一个	-5198
亚裔妇女	-5199
公交车站	-5200
公园里玩	-5201
努力工作	-5202
厨房柜台	-5203
发表演讲	-5204
另一个穿	-5205
名儿童在	-5206
后面有个	-5207
和女孩在	-5208
围着一个	-5209
在森林里	-5210
在赛道上	-5211
地铁列车	-5212
坐在水泥	-5213
坐着看着	-5214
夹克和黑	-5215
奥林匹克	-5216
女人带着	-5217
女孩拿着	-5218
展示他的	-5219
建筑物上	-5220
张桌子上	-5221
感到骄傲	-5222
户外活动	-5223
抱着婴儿	-5224
拿着一张	-5225
拿着红色	-5226
推着一个	-5227
握着一个	-5228
放在一个	-5229
旋转木马	-5230
无领男子	-5231
时微笑着	-5232
有两个人	-5233
格子衬衫	-5234
正在使用	-5235
沙滩排球	-5236
混凝土上	-5237
滑冰公园	-5238
滑板滑板	-5239
滑雪车在	-5240
爬上一座	-5241
爬上悬崖	-5242
玩弦乐器	-5243
的一群人	-5244
的人看着	-5245
的人穿着	-5246
的人群中	-5247
的人面前	-5248
的肩膀上	-5249
的长凳上	-5250
的长椅上	-5251
看的时候	-5252
看着她的	-5253
穿着泳衣	-5254
穿过公园	-5255
穿过树林	-5256
穿过田野	-5257
站在附近	-5258
等待火车	-5259
膝盖上有	-5260
自动取款	-5261
装的男人	-5262
足球队在	-5263
跑得很快	-5264
跳上天空	-5265
追着一只	-5266
防护装备	-5267
雪中玩耍	-5268
骑着一个	-5269
骑着红色	-5270
高速公路	-5271
黑帽子和	-5272
▁一个乐队	-5273
▁一个卷发	-5274
▁一个灰色	-5275
▁一位身穿	-5276
▁一群人用	-5277
▁一群朋友	-5278
▁三个穿着	-5279
▁两名亚洲	-5280
▁五个人在	-5281
▁四名妇女	-5282
▁我喜欢读	-5283
▁戴牛仔帽	-5284
▁穿着灰色	-5285
▁穿着红色	-5286
▁身着棕色	-5287
▁身穿橙色	-5288
一个穿白色	-5289
一群旁观者	-5290
一间房间里	-5291
不同的彩色	-5292
丛林健身房	-5293
为人群表演	-5294
人正在一个	-5295
制服的人在	-5296
另一个人在	-5297
另一个球员	-5298
在一个城市	-5299
在街上走着	-5300
大楼前面的	-5301
寒冷的一天	-5302
年幼的孩子	-5303
年轻女子在	-5304
徒步旅行者	-5305
旁观者观看	-5306
服装的女孩	-5307
沿着人行道	-5308
泥土自行车	-5309
海滩附近的	-5310
玩滑板把戏	-5311
的人和一个	-5312
的女人说话	-5313
的男人穿着	-5314
的男人骑着	-5315
的男子坐在	-5316
的男子站在	-5317
的男男女女	-5318
站在讲台上	-5319
而一个男人	-5320
脖子上戴着	-5321
自行车把戏	-5322
舌头伸出来	-5323
街头表演者	-5324
衬衫和短裤	-5325
走在海滩上	-5326
阅读一本书	-5327
▁一个亚洲人	-5328
▁一个人在看	-5329
▁一个人睡在	-5330
▁一只狗站在	-5331
▁一对老夫妇	-5332
▁一群孩子在	-5333
▁一群男人和	-5334
▁两个年轻的	-5335
▁两个穿白色	-5336
▁两个穿红色	-5337
▁你最喜欢的	-5338
▁四个女孩在	-5339
▁坐在椅子上	-5340
▁戴太阳眼镜	-5341
▁有个男人在	-5342
▁男男女女在	-5343
▁穿着粉红色	-5344
一辆公共汽车	-5345
人群面前表演	-5346
从水里跳出来	-5347
在一群人面前	-5348
建筑工人站在	-5349
水里跑来跑去	-5350
游泳池里游泳	-5351
游泳池里玩耍	-5352
的舞台上表演	-5353
看着一个女人	-5354
衣服的人坐在	-5355
运动衫的男人	-5356
透过显微镜看	-5357
▁一个小男孩从	-5358
▁一名身着黑色	-5359
▁一名非裔美国	-5360
▁两个女人坐在	-5361
▁两只棕色狗在	-5362
▁父亲和儿子在	-5363
在人行道上行走	-5364
夹克的男人正在	-5365
而另一个人看着	-5366
衣服的男人正在	-5367
长长的长长长长	-5368
▁一个人骑着一辆	-5369
▁一个小男孩站在	-5370
▁一个男人和他的	-5371
▁一个穿着牛仔裤	-5372
▁一个金发小男孩	-5373
▁一位年轻女子在	-5374
▁一只棕色和黑色	-5375
▁一只狗在海滩上	-5376
▁我们应该试着对	-5377
▁棕色和白色的狗	-5378
▁一个人在人行道上	-5379
▁一个人坐在椅子上	-5380
▁一个人骑着自行车	-5381
▁一个骑自行车的人	-5382
▁我们需要买一些新	-5383
▁一个穿粉红色衣服的女孩	-5384
11	-5385
Br	-5386
Te	-5387
ak	-5388
le	-5389
ne	-5390
ph	-5391
tt	-5392
us	-5393
▁多	-5394
▁工	-5395
▁猫	-5396
一套	-5397
一桶	-5398
三轮	-5399
上涨	-5400
下巴	-5401
主人	-5402
主教	-5403
乘着	-5404
乡下	-5405
书架	-5406
乱跑	-5407
争夺	-5408
从他	-5409
他人	-5410
以及	-5411
伸进	-5412
位置	-5413
住民	-5414
作家	-5415
假扮	-5416
做的	-5417
停靠	-5418
偷窥	-5419
克萨	-5420
公众	-5421
公文	-5422
兴趣	-5423
册子	-5424
冰冻	-5425
冷静	-5426
剃须	-5427
加索	-5428
勇敢	-5429
勤奋	-5430
单簧	-5431
单身	-5432
原木	-5433
去看	-5434
口红	-5435
口香	-5436
叫做	-5437
可口	-5438
吃了	-5439
吉祥	-5440
同事	-5441
后台	-5442
向上	-5443
向右	-5444
吹着	-5445
喝水	-5446
喷出	-5447
嘴上	-5448
器上	-5449
固定	-5450
图案	-5451
土机	-5452
在玩	-5453
在车	-5454
地形	-5455
场所	-5456
型的	-5457
埋在	-5458
堆叠	-5459
多米	-5460
大白	-5461
大黑	-5462
奖杯	-5463
女的	-5464
孔雀	-5465
字塔	-5466
守着	-5467
安静	-5468
就在	-5469
尼亚	-5470
屋子	-5471
屠夫	-5472
山前	-5473
山谷	-5474
左臂	-5475
已婚	-5476
布斯	-5477
布置	-5478
带到	-5479
帽帽	-5480
年代	-5481
店外	-5482
建立	-5483
弹跳	-5484
形象	-5485
很美	-5486
心脏	-5487
快餐	-5488
愤怒	-5489
所以	-5490
手推	-5491
手来	-5492
打中	-5493
扔下	-5494
把大	-5495
披肩	-5496
披萨	-5497
拉丁	-5498
拳头	-5499
挡风	-5500
挣扎	-5501
排水	-5502
摇晃	-5503
撞上	-5504
放映	-5505
教室	-5506
散装	-5507
数人	-5508
数学	-5509
数码	-5510
斑马	-5511
斯林	-5512
斯特	-5513
日常	-5514
早餐	-5515
时候	-5516
时用	-5517
晚宴	-5518
晴朗	-5519
最近	-5520
月亮	-5521
服饰	-5522
未来	-5523
机动	-5524
村庄	-5525
框架	-5526
楼里	-5527
模型	-5528
樱桃	-5529
欢迎	-5530
母牛	-5531
每人	-5532
沮丧	-5533
治疗	-5534
洞穴	-5535
涂满	-5536
清楚	-5537
滑到	-5538
滑向	-5539
满脸	-5540
演出	-5541
漫画	-5542
潮湿	-5543
点了	-5544
烤烤	-5545
热水	-5546
煎饼	-5547
燕尾	-5548
爬到	-5549
牧师	-5550
狭小	-5551
玩玩	-5552
球在	-5553
球球	-5554
球赛	-5555
理石	-5556
生意	-5557
用大	-5558
电工	-5559
男士	-5560
登上	-5561
白水	-5562
的歌	-5563
的眼	-5564
的轮	-5565
监督	-5566
看去	-5567
破旧	-5568
破烂	-5569
示威	-5570
竞相	-5571
第一	-5572
笼子	-5573
米花	-5574
糕点	-5575
经典	-5576
经验	-5577
绿球	-5578
罐头	-5579
而他	-5580
肤色	-5581
胆小	-5582
脚趾	-5583
脱下	-5584
色彩	-5585
花花	-5586
苍白	-5587
螺旋	-5588
行尸	-5589
街灯	-5590
视着	-5591
警车	-5592
讲台	-5593
说着	-5594
调查	-5595
贫困	-5596
赌场	-5597
赢得	-5598
走了	-5599
跑跑	-5600
跳入	-5601
跳高	-5602
踏板	-5603
身份	-5604
身旁	-5605
转身	-5606
轮上	-5607
边有	-5608
速度	-5609
钉在	-5610
钢铁	-5611
锥形	-5612
锯子	-5613
长凳	-5614
门边	-5615
队伍	-5616
防暴	-5617
防水	-5618
雇员	-5619
雌鸟	-5620
雪人	-5621
雪天	-5622
面孔	-5623
面条	-5624
领队	-5625
马戏	-5626
高飞	-5627
黄球	-5628
鼓舞	-5629
ter	-5630
▁一头	-5631
▁会议	-5632
▁成人	-5633
▁成年	-5634
▁戴白	-5635
▁正在	-5636
▁老人	-5637
▁船上	-5638
▁警察	-5639
▁长发	-5640
▁餐厅	-5641
▁黑白	-5642
一头牛	-5643
一辆小	-5644
万圣节	-5645
三脚架	-5646
上打字	-5647
不寻常	-5648
专注于	-5649
中世纪	-5650
了一只	-5651
从上面	-5652
从地上	-5653
休息室	-5654
克萨斯	-5655
入口处	-5656
公文包	-5657
冲浪时	-5658
到空中	-5659
制成的	-5660
加拿大	-5661
匹骑马	-5662
单簧管	-5663
卖水果	-5664
原住民	-5665
口香糖	-5666
另一支	-5667
可充气	-5668
可塑石	-5669
吉祥物	-5670
吊起来	-5671
后院的	-5672
和几个	-5673
和吉他	-5674
和拍照	-5675
和朋友	-5676
四分卫	-5677
围裙的	-5678
在一棵	-5679
在厨房	-5680
在岩石	-5681
在房子	-5682
在水泥	-5683
在路边	-5684
在雪地	-5685
大多是	-5686
大楼的	-5687
天主教	-5688
头发有	-5689
女郎在	-5690
小径上	-5691
小船上	-5692
山顶的	-5693
工作时	-5694
工作服	-5695
帐篷前	-5696
帮助下	-5697
年长的	-5698
年龄较	-5699
广告前	-5700
建造的	-5701
微笑在	-5702
戴头巾	-5703
戴手套	-5704
房间的	-5705
手提包	-5706
投手在	-5707
报纸上	-5708
拥抱着	-5709
拿着大	-5710
捡垃圾	-5711
推土机	-5712
放大镜	-5713
散步时	-5714
新生儿	-5715
旧建筑	-5716
晚上的	-5717
木凳上	-5718
机场的	-5719
机里玩	-5720
横梁上	-5721
正在对	-5722
正走在	-5723
正走过	-5724
武术家	-5725
泥土里	-5726
海军蓝	-5727
海浪中	-5728
清洁工	-5729
滑板机	-5730
滚轮刀	-5731
演员在	-5732
烤箱里	-5733
热情地	-5734
照镜子	-5735
狭窄的	-5736
玩具上	-5737
玩耍和	-5738
用一个	-5739
用水管	-5740
用金属	-5741
电脑前	-5742
画了一	-5743
登山者	-5744
的一些	-5745
的乐队	-5746
的人的	-5747
的侧面	-5748
的滑雪	-5749
的纹身	-5750
的食品	-5751
的马上	-5752
皮艇上	-5753
目的地	-5754
看不见	-5755
看着它	-5756
着一堆	-5757
着一幅	-5758
睡觉时	-5759
秋千里	-5760
穆斯林	-5761
窗外看	-5762
站起来	-5763
笼子里	-5764
篮子里	-5765
篮球场	-5766
紧身衣	-5767
经过时	-5768
绿草上	-5769
绿草地	-5770
绿衬衫	-5771
而观众	-5772
背心和	-5773
背心的	-5774
胡子和	-5775
脸朝下	-5776
花田里	-5777
苏格兰	-5778
蓝眼睛	-5779
走出来	-5780
路行驶	-5781
踏板上	-5782
车上有	-5783
车厢里	-5784
过水面	-5785
过道上	-5786
迷彩服	-5787
里有个	-5788
金发小	-5789
金字塔	-5790
阿拉伯	-5791
附近有	-5792
雕像前	-5793
雪板上	-5794
音乐节	-5795
食品商	-5796
骑师在	-5797
高加索	-5798
黑钱包	-5799
▁一个叫	-5800
▁一个黑	-5801
▁一位女	-5802
▁一只带	-5803
▁一只湿	-5804
▁一群戴	-5805
▁两个女	-5806
▁外面的	-5807
▁她今天	-5808
▁她擅长	-5809
▁我通常	-5810
▁男孩们	-5811
▁街上有	-5812
▁身着绿	-5813
▁身着黑	-5814
▁这只狗	-5815
▁青少年	-5816
一个城市	-5817
一些事情	-5818
一名儿童	-5819
一家餐馆	-5820
上面印着	-5821
上面有个	-5822
两个女孩	-5823
个人坐在	-5824
乐队成员	-5825
享受一天	-5826
人群看着	-5827
保持平衡	-5828
其中一个	-5829
其他人则	-5830
其他人在	-5831
农民市场	-5832
办公室的	-5833
参加一个	-5834
可口可乐	-5835
名女性和	-5836
名妇女在	-5837
和他们的	-5838
和黑外套	-5839
围着栅栏	-5840
圣诞礼物	-5841
在人群中	-5842
在半空中	-5843
在游行中	-5844
坐在街上	-5845
坐在路边	-5846
安全装备	-5847
山上滑雪	-5848
山在背景	-5849
工作的人	-5850
幻灯片中	-5851
得到一个	-5852
户外市场	-5853
打开礼物	-5854
扔到空中	-5855
把保龄球	-5856
抓住一个	-5857
拉着一个	-5858
拍摄照片	-5859
拿着一块	-5860
拿着她的	-5861
拿着杯子	-5862
拿着篮球	-5863
拿着锤子	-5864
提供食物	-5865
摔跤手在	-5866
曲棍球手	-5867
根柱子上	-5868
桌边吃饭	-5869
检查一个	-5870
正在享受	-5871
正在观看	-5872
正过马路	-5873
步行道上	-5874
汽车停在	-5875
沿着赛道	-5876
波尔卡点	-5877
浅棕色狗	-5878
海滩上玩	-5879
游行乐队	-5880
漂白板上	-5881
玩曲棍球	-5882
用一只手	-5883
男人穿着	-5884
的老太太	-5885
看着对方	-5886
砖楼前面	-5887
站在他的	-5888
篮球场上	-5889
繁忙街道	-5890
红衬衫的	-5891
老人正在	-5892
背景里有	-5893
自行车在	-5894
芭蕾舞女	-5895
蓝帽子和	-5896
街对面的	-5897
衣的人在	-5898
表演武术	-5899
表演诡计	-5900
裤的男人	-5901
许多人在	-5902
走下楼梯	-5903
跑过草地	-5904
跳到水里	-5905
跳跃来抓	-5906
跳过一个	-5907
跳进湖里	-5908
踢了一个	-5909
身着红色	-5910
身穿黑色	-5911
运动服的	-5912
运动衫的	-5913
野餐桌上	-5914
金发美女	-5915
铁链栅栏	-5916
长椅上的	-5917
阅读报纸	-5918
院子里玩	-5919
领的黑狗	-5920
骑在街上	-5921
骑着玩具	-5922
黄色玩具	-5923
黑人妇女	-5924
▁一个坐着	-5925
▁一个妈妈	-5926
▁一个幼儿	-5927
▁一个白人	-5928
▁一个红发	-5929
▁一个长发	-5930
▁一名女性	-5931
▁一名携带	-5932
▁一名警官	-5933
▁三名男子	-5934
▁两只棕色	-5935
▁两名警察	-5936
▁年轻男孩	-5937
▁我对我的	-5938
▁我很感激	-5939
▁穿着紫色	-5940
▁身着黑色	-5941
▁身穿黄色	-5942
▁黑白狗在	-5943
一张长椅上	-5944
一辆汽车的	-5945
一辆自行车	-5946
休息一阵子	-5947
传统服装的	-5948
制服的女孩	-5949
制服的球员	-5950
制服的男孩	-5951
另一个球队	-5952
另一名男子	-5953
和一个女孩	-5954
和一只狗在	-5955
围裙的男人	-5956
在一家餐馆	-5957
在竞技场上	-5958
在街上跳舞	-5959
巨大的泡沫	-5960
帽子的人在	-5961
帽子的男孩	-5962
成年人坐在	-5963
戴太阳眼镜	-5964
戴帽子的人	-5965
比基尼顶部	-5966
比赛中比赛	-5967
沙滩上奔跑	-5968
波尔卡圆点	-5969
烤架上做饭	-5970
狗在海滩上	-5971
玩棋盘游戏	-5972
球队的球员	-5973
用她的手机	-5974
电脑监视器	-5975
电话上说话	-5976
的女人穿着	-5977
的小孩站在	-5978
的年轻女人	-5979
的男人在看	-5980
的男孩正在	-5981
着一根柱子	-5982
短裤的女人	-5983
硬帽的男人	-5984
穿着黑色的	-5985
站在海滩上	-5986
等待过马路	-5987
精心设计的	-5988
红色和蓝色	-5989
而一个女人	-5990
聚集在外面	-5991
衬衫和帽子	-5992
裙子的妇女	-5993
镜头前微笑	-5994
马拉松比赛	-5995
▁一个人看着	-5996
▁一个人背着	-5997
▁一个戴着红	-5998
▁一个打扮成	-5999
▁一个男孩从	-6000
▁一个穿迷彩	-6001
▁一个网球手	-6002
▁一只狗躺在	-6003
▁一群人穿着	-6004
▁一群人聚集	-6005
▁三名儿童在	-6006
▁两个球员在	-6007
▁两个穿蓝色	-6008
▁两只棕色狗	-6009
▁两名女性在	-6010
▁体操运动员	-6011
▁四个人坐在	-6012
▁身穿制服的	-6013
体操运动员在	-6014
制服的男人在	-6015
建筑工地工作	-6016
打网球的女人	-6017
旁边的长凳上	-6018
无家可归的人	-6019
棒球运动员在	-6020
橄榄球运动员	-6021
滑板运动员在	-6022
白色坦克顶部	-6023
的女人正在看	-6024
的狗在草地上	-6025
的篮球运动员	-6026
穿着粉红色的	-6027
绿色和黄色的	-6028
网球运动员在	-6029
而一个男人在	-6030
衣服的小男孩	-6031
衬衫的男人和	-6032
西装的人正在	-6033
青年男子正在	-6034
▁一个人在一辆	-6035
▁一个在舞台上	-6036
▁一个女人看着	-6037
▁一个女人走在	-6038
▁一个深色头发	-6039
▁一个身着绿色	-6040
▁一只黑棕色狗	-6041
▁一名妇女正在	-6042
▁一名身着蓝色	-6043
▁戴帽子的人在	-6044
▁有个年轻女孩	-6045
▁穿条纹衬衫的	-6046
一边用手机说话	-6047
硬帽的男人正在	-6048
裙子的年轻女孩	-6049
足球运动员试图	-6050
▁一个小男孩在玩	-6051
▁一个金发女孩在	-6052
▁一对年轻夫妇在	-6053
▁两个男人在一个	-6054
▁两个骑自行车的	-6055
▁穿绿衬衫的男人	-6056
▁穿蓝衬衫的女人	-6057
▁穿黑衬衫的女人	-6058
的女人坐在桌子上	-6059
▁一个戴帽子的男人	-6060
▁一个男人站在一个	-6061
▁一个穿蓝色牛仔裤	-6062
▁穿蓝衬衫的男人在	-6063
▁一个女人在人行道上	-6064
▁一个戴黑帽子的男人	-6065
▁一个穿黑衣服的男人	-6066
▁一只棕色狗在草地上	-6067
▁一个男人和一个女人坐在	-6068
▁一个男人和一个女人站在	-6069
▁一个穿牛仔裤的男人和一件	-6070
走着走着走着走着走着走着走着走着	-6071
--	-6072
Fe	-6073
ay	-6074
ur	-6075
▁书	-6076
▁河	-6077
▁被	-6078
▁雨	-6079
▁高	-6080
▁鸟	-6081
一双	-6082
一所	-6083
一波	-6084
一瓶	-6085
一看	-6086
一项	-6087
三人	-6088
三辆	-6089
上做	-6090
上班	-6091
下坡	-6092
两侧	-6093
中央	-6094
为球	-6095
主要	-6096
之旅	-6097
乐于	-6098
了头	-6099
事业	-6100
事故	-6101
亮光	-6102
人中	-6103
人从	-6104
人类	-6105
代表	-6106
伴侣	-6107
伸着	-6108
位上	-6109
低头	-6110
低音	-6111
住在	-6112
体上	-6113
便利	-6114
便衣	-6115
修女	-6116
修车	-6117
倒挂	-6118
假装	-6119
停了	-6120
停泊	-6121
健康	-6122
僵尸	-6123
先生	-6124
光头	-6125
免受	-6126
公主	-6127
公开	-6128
写在	-6129
冰冷	-6130
冰箱	-6131
切入	-6132
切成	-6133
到一	-6134
剧化	-6135
加速	-6136
勃根	-6137
包里	-6138
化学	-6139
卡通	-6140
印刷	-6141
印有	-6142
厕所	-6143
友好	-6144
发动	-6145
发烧	-6146
古董	-6147
只穿	-6148
右侧	-6149
吃喝	-6150
合影	-6151
同一	-6152
同龄	-6153
吹风	-6154
味道	-6155
和大	-6156
和狗	-6157
咬着	-6158
喜悦	-6159
四处	-6160
困惑	-6161
土著	-6162
在家	-6163
在笑	-6164
坐下	-6165
堵塞	-6166
复兴	-6167
复杂	-6168
夏日	-6169
大小	-6170
大火	-6171
大炮	-6172
头疼	-6173
女婴	-6174
娜塔	-6175
嬉皮	-6176
学龄	-6177
它的	-6178
守夜	-6179
室外	-6180
对峙	-6181
将于	-6182
将球	-6183
层的	-6184
展上	-6185
展品	-6186
巡逻	-6187
工地	-6188
巨人	-6189
巴克	-6190
布满	-6191
席上	-6192
平行	-6193
开到	-6194
引导	-6195
很亮	-6196
很快	-6197
徒徒	-6198
徽章	-6199
恐怖	-6200
情况	-6201
成熟	-6202
战壕	-6203
手折	-6204
扑克	-6205
打个	-6206
打招	-6207
打盹	-6208
打破	-6209
扔在	-6210
托盘	-6211
扭曲	-6212
扮演	-6213
把水	-6214
抬头	-6215
拉上	-6216
拉到	-6217
拐角	-6218
拖战	-6219
招待	-6220
拦住	-6221
拿了	-6222
按钮	-6223
捆绑	-6224
排在	-6225
排练	-6226
探险	-6227
推上	-6228
搞笑	-6229
改变	-6230
放出	-6231
救援	-6232
数名	-6233
整齐	-6234
文化	-6235
无人	-6236
无法	-6237
时代	-6238
时髦	-6239
春天	-6240
暂停	-6241
暴露	-6242
有蓝	-6243
木工	-6244
机会	-6245
机构	-6246
条狗	-6247
来说	-6248
来越	-6249
林地	-6250
林木	-6251
标语	-6252
样本	-6253
桥边	-6254
棚屋	-6255
正朝	-6256
正被	-6257
沙地	-6258
沙拉	-6259
沙雕	-6260
活泼	-6261
海上	-6262
海藻	-6263
涉及	-6264
滑倒	-6265
滑滑	-6266
滑进	-6267
满载	-6268
演戏	-6269
火坑	-6270
焦点	-6271
照相	-6272
爱好	-6273
牛奶	-6274
特写	-6275
犹太	-6276
独身	-6277
玩大	-6278
玩跳	-6279
班级	-6280
球手	-6281
球杆	-6282
球里	-6283
理解	-6284
生产	-6285
生气	-6286
痒痒	-6287
百货	-6288
的好	-6289
的海	-6290
的通	-6291
皇冠	-6292
皮革	-6293
直接	-6294
相似	-6295
相反	-6296
相同	-6297
相对	-6298
着陆	-6299
短袖	-6300
研磨	-6301
稻草	-6302
空间	-6303
穿上	-6304
穿梭	-6305
管道	-6306
系列	-6307
红伞	-6308
红包	-6309
红灯	-6310
经历	-6311
编号	-6312
群体	-6313
老板	-6314
胖子	-6315
胸前	-6316
脚上	-6317
脸色	-6318
腰部	-6319
航空	-6320
船在	-6321
船坞	-6322
花束	-6323
花纹	-6324
花裙	-6325
苍蝇	-6326
英语	-6327
荒野	-6328
落叶	-6329
蒸汽	-6330
薯片	-6331
蜘蛛	-6332
螃蟹	-6333
被困	-6334
被围	-6335
被水	-6336
被绑	-6337
裹着	-6338
警棍	-6339
起点	-6340
超人	-6341
越快	-6342
跪着	-6343
路旁	-6344
跳来	-6345
跳雪	-6346
踩在	-6347
车前	-6348
过去	-6349
迈阿	-6350
返回	-6351
这份	-6352
这里	-6353
连接	-6354
逃跑	-6355
通往	-6356
部新	-6357
酒馆	-6358
里斯	-6359
野猪	-6360
钓到	-6361
铃薯	-6362
锥子	-6363
镇上	-6364
长在	-6365
闪烁	-6366
防御	-6367
除了	-6368
陪伴	-6369
集合	-6370
雨靴	-6371
雪板	-6372
面团	-6373
鞋带	-6374
领导	-6375
领领	-6376
餐饮	-6377
香肠	-6378
马匹	-6379
骑师	-6380
魔术	-6381
鳄鱼	-6382
黑板	-6383
Fed	-6384
ian	-6385
ing	-6386
oll	-6387
ora	-6388
▁一架	-6389
▁三位	-6390
▁中国	-6391
▁五名	-6392
▁亚裔	-6393
▁冬天	-6394
▁厨师	-6395
▁咖啡	-6396
▁夜里	-6397
▁少数	-6398
▁建筑	-6399
▁我感	-6400
▁欧洲	-6401
▁父母	-6402
▁街角	-6403
▁非洲	-6404
▁顾客	-6405
▁黑色	-6406
一只猫	-6407
一条大	-6408
一起笑	-6409
一起跑	-6410
一首歌	-6411
上写着	-6412
下行走	-6413
下雪山	-6414
不开心	-6415
两辆车	-6416
个男人	-6417
买了一	-6418
了街道	-6419
亮亮的	-6420
亮橙色	-6421
人们在	-6422
他父亲	-6423
他的狗	-6424
他身边	-6425
以赶上	-6426
伟大的	-6427
做杂技	-6428
内衣的	-6429
准备去	-6430
准备好	-6431
加油站	-6432
卖食物	-6433
卧室里	-6434
即将在	-6435
双手在	-6436
发烧了	-6437
另一队	-6438
可爱的	-6439
吃零食	-6440
同一个	-6441
同样的	-6442
名女孩	-6443
后腿上	-6444
向目标	-6445
向观众	-6446
吹口哨	-6447
和家人	-6448
和树木	-6449
和说话	-6450
啤酒和	-6451
啤酒瓶	-6452
喝一杯	-6453
喷泉前	-6454
围栏上	-6455
土生土	-6456
在一艘	-6457
在后面	-6458
在商店	-6459
在地平	-6460
城里的	-6461
填满了	-6462
墙旁边	-6463
外衣的	-6464
多米诺	-6465
奥运会	-6466
她女儿	-6467
她的脸	-6468
嬉皮士	-6469
孩子们	-6470
对夫妇	-6471
小册子	-6472
小姑娘	-6473
工作室	-6474
带着两	-6475
建筑前	-6476
开放的	-6477
引擎盖	-6478
张开嘴	-6479
很长的	-6480
忘记带	-6481
恤和黑	-6482
惊人的	-6483
戏剧化	-6484
手握在	-6485
打招呼	-6486
打拳击	-6487
打板球	-6488
折叠椅	-6489
抬头看	-6490
拍一张	-6491
拿着伞	-6492
拿着纸	-6493
指挥员	-6494
放风筝	-6495
教堂的	-6496
教室的	-6497
方向看	-6498
旗帜和	-6499
时拿着	-6500
有几个	-6501
有纹身	-6502
柜台上	-6503
树叶上	-6504
树旁的	-6505
树荫下	-6506
树附近	-6507
棒球场	-6508
楼顶上	-6509
正准备	-6510
正在修	-6511
正在吃	-6512
每个人	-6513
比萨饼	-6514
比赛前	-6515
毯子里	-6516
汽车上	-6517
汽车里	-6518
沃尔玛	-6519
沙子上	-6520
河流上	-6521
泥土和	-6522
泰迪熊	-6523
洗手间	-6524
洗盘子	-6525
活动中	-6526
海洋的	-6527
深肤色	-6528
溜冰鞋	-6529
滑翔机	-6530
照片上	-6531
照片中	-6532
燃烧的	-6533
爆米花	-6534
玩他的	-6535
玩电动	-6536
玩花招	-6537
玩运动	-6538
玩键盘	-6539
玩音乐	-6540
理发店	-6541
用他的	-6542
用她的	-6543
用电脑	-6544
用粉笔	-6545
用绿色	-6546
田里跑	-6547
白胡子	-6548
的一场	-6549
的一块	-6550
的一排	-6551
的人看	-6552
的动作	-6553
的墙壁	-6554
的工作	-6555
的幼儿	-6556
的把戏	-6557
的楼梯	-6558
的比赛	-6559
的活动	-6560
的灰色	-6561
的物品	-6562
的男女	-6563
的眼睛	-6564
的艺术	-6565
的表演	-6566
的裸体	-6567
的警察	-6568
的足迹	-6569
的车辆	-6570
的道路	-6571
的长相	-6572
的雌性	-6573
监视着	-6574
相机上	-6575
看一个	-6576
看一些	-6577
看地图	-6578
着一件	-6579
着一群	-6580
砖街上	-6581
砖道上	-6582
礼堂里	-6583
秃头人	-6584
空旷的	-6585
穿着大	-6586
穿过雪	-6587
站在浅	-6588
站着一	-6589
管子上	-6590
篮球圈	-6591
紧挨着	-6592
纽约市	-6593
组人员	-6594
而他们	-6595
聊天和	-6596
肚子上	-6597
背包和	-6598
背景的	-6599
背着一	-6600
膝盖垫	-6601
船上的	-6602
蔬菜和	-6603
表现出	-6604
被其他	-6605
装置上	-6606
装饰着	-6607
角落里	-6608
设计师	-6609
走廊上	-6610
越来越	-6611
跑出来	-6612
车手在	-6613
过路人	-6614
迈阿密	-6615
迷你裙	-6616
酒吧上	-6617
金属棒	-6618
队员在	-6619
靴子的	-6620
领带和	-6621
马戏团	-6622
马旁边	-6623
马铃薯	-6624
高草地	-6625
....	-6626
iPod	-6627
▁一个用	-6628
▁一个骑	-6629
▁一些人	-6630
▁一只有	-6631
▁一群五	-6632
▁三人在	-6633
▁五个人	-6634
▁人群在	-6635
▁他很粗	-6636
▁厨师在	-6637
▁在日本	-6638
▁在街上	-6639
▁她昨天	-6640
▁婴儿在	-6641
▁我头疼	-6642
▁戴橙色	-6643
▁戴硬帽	-6644
▁摔跤手	-6645
▁有人用	-6646
▁狗正在	-6647
▁电影很	-6648
▁男人把	-6649
▁穿格子	-6650
▁穿泳衣	-6651
▁这本书	-6652
▁音乐会	-6653
▁骑马的	-6654
▁黑衣人	-6655
一个坐在	-6656
一个非常	-6657
一只白狗	-6658
一幅图片	-6659
一条狗在	-6660
一辆卡车	-6661
一辆绿色	-6662
三名妇女	-6663
两个小孩	-6664
两只狗在	-6665
个人站在	-6666
为一群人	-6667
乐队表演	-6668
乐队面前	-6669
互相争斗	-6670
互相微笑	-6671
亚洲男子	-6672
亲吻一个	-6673
人们看着	-6674
人和他的	-6675
人在一个	-6676
他们身后	-6677
他们面前	-6678
他的工作	-6679
他的手指	-6680
他的朋友	-6681
儿童正在	-6682
即将到来	-6683
参加比赛	-6684
参加游行	-6685
吃着食物	-6686
各种乐器	-6687
各种物品	-6688
名妇女和	-6689
和儿童在	-6690
喝着啤酒	-6691
在一个有	-6692
在地板上	-6693
在市场上	-6694
在竞技场	-6695
在蹦床上	-6696
坐在他的	-6697
墙上涂鸦	-6698
外科手术	-6699
外面拿着	-6700
夹克和白	-6701
她的头发	-6702
她的手臂	-6703
妇女拿着	-6704
妇女穿着	-6705
孩子一起	-6706
小白狗在	-6707
带着雨伞	-6708
年轻女性	-6709
建筑物前	-6710
建筑物外	-6711
徒步徒步	-6712
怀着一个	-6713
总是很有	-6714
悬崖顶上	-6715
戴牛仔帽	-6716
戴着眼镜	-6717
戴黑帽子	-6718
打网球了	-6719
护目镜和	-6720
拉大提琴	-6721
拍张照片	-6722
拍照的人	-6723
拳击场上	-6724
拳击手在	-6725
拿着一台	-6726
拿着一瓶	-6727
拿着拐杖	-6728
拿着棍子	-6729
拿着铲子	-6730
挤满了人	-6731
挥舞旗帜	-6732
摇滚乐队	-6733
摩托车的	-6734
旁观者在	-6735
旁边拿着	-6736
更有耐心	-6737
有三个人	-6738
未完成的	-6739
杂货店的	-6740
树在背景	-6741
检查他的	-6742
棒球场上	-6743
棒球比赛	-6744
棕色的狗	-6745
正在检查	-6746
气球动物	-6747
汽车前面	-6748
涂上涂鸦	-6749
混在一起	-6750
游乐场上	-6751
滑雪机在	-6752
炫耀他的	-6753
爬上一个	-6754
爬上石墙	-6755
牛仔骑着	-6756
玩小提琴	-6757
电子设备	-6758
电视节目	-6759
的人旁边	-6760
的人走在	-6761
的女人从	-6762
的妇女在	-6763
的男人从	-6764
的男人给	-6765
的男人被	-6766
的雪橇上	-6767
盯着镜头	-6768
看着一些	-6769
看着大海	-6770
看着街上	-6771
着一个大	-6772
睡在一辆	-6773
短裤和白	-6774
穿着短裤	-6775
穿着西装	-6776
穿过森林	-6777
等公交车	-6778
粉色裤子	-6779
红色玩具	-6780
聚光灯下	-6781
脸上涂着	-6782
艺术家在	-6783
草地上的	-6784
葡萄酒杯	-6785
蓝色塑料	-6786
街头卖主	-6787
衣服站在	-6788
表演者在	-6789
试图修复	-6790
贝斯吉他	-6791
走在一座	-6792
足球赛中	-6793
跑到街上	-6794
跑步机上	-6795
距离很远	-6796
身着橙色	-6797
身着绿色	-6798
身穿白色	-6799
身穿蓝色	-6800
车的后面	-6801
还有其他	-6802
通过一个	-6803
酒吧喝酒	-6804
金发金发	-6805
长袖长袖	-6806
院子里的	-6807
非洲儿童	-6808
飞向空中	-6809
骑着一条	-6810
骑着她的	-6811
骑着橙色	-6812
骑着绿色	-6813
骑着蓝色	-6814
phone	-6815
▁一个印度	-6816
▁一个蓝色	-6817
▁一个黑发	-6818
▁一只雌性	-6819
▁一名老人	-6820
▁一群亚洲	-6821
▁一群人从	-6822
▁一群女人	-6823
▁一辆红色	-6824
▁两个身穿	-6825
▁两个长发	-6826
▁两人坐在	-6827
▁两名年轻	-6828
▁人们排队	-6829
▁冲浪者在	-6830
▁几个身着	-6831
▁外面有个	-6832
▁女人穿着	-6833
▁小女孩在	-6834
▁德国牧羊	-6835
▁我为我的	-6836
▁我们去年	-6837
▁我们昨晚	-6838
▁我发烧了	-6839
▁我很开心	-6840
▁有人穿着	-6841
▁滑板机在	-6842
▁穿着黄色	-6843
▁赛跑者在	-6844
▁身着红色	-6845
▁身着绿色	-6846
▁身着蓝色	-6847
▁身穿黑衣	-6848
乐队里演奏	-6849
充满活力的	-6850
其中一个在	-6851
冲浪者正在	-6852
另一个孩子	-6853
和两个女人	-6854
咖啡馆外面	-6855
商店的窗户	-6856
在一辆白色	-6857
在他们面前	-6858
在空中飞翔	-6859
坐在沙滩上	-6860
坦克顶部和	-6861
大群人面前	-6862
大衣的人在	-6863
头发的女人	-6864
头盔的人在	-6865
婴儿婴儿车	-6866
帽子的女人	-6867
拿着一本书	-6868
拿着摄像头	-6869
曲棍球比赛	-6870
服装的人在	-6871
条纹衬衫和	-6872
正在做一个	-6873
正在进行中	-6874
比赛中竞争	-6875
毛衣的男人	-6876
沿着泥土路	-6877
泳裤的男孩	-6878
海滩上玩耍	-6879
游泳护目镜	-6880
的中年男子	-6881
的亚洲女人	-6882
的人弹吉他	-6883
的人群面前	-6884
的女士拿着	-6885
的女孩站在	-6886
的妇女坐在	-6887
的年轻夫妇	-6888
的年轻女性	-6889
的年轻男子	-6890
的男人旁边	-6891
的男人穿过	-6892
的男孩坐在	-6893
的非裔美国	-6894
码头的尽头	-6895
穿着牛仔裤	-6896
穿着蓝色的	-6897
穿着黄色的	-6898
等着过马路	-6899
繁忙的城市	-6900
红色和白色	-6901
美好的一天	-6902
美洲原住民	-6903
自行车停在	-6904
舞台上跳舞	-6905
芭蕾舞者在	-6906
衣服的孩子	-6907
衣服的小孩	-6908
衬衫和棕色	-6909
衬衫和裤子	-6910
衬衫的孩子	-6911
衬衫的小孩	-6912
讲台上讲话	-6913
躺在沙发上	-6914
钱包的女人	-6915
铁路上工作	-6916
骑自行车时	-6917
高尔夫球场	-6918
▁一个人在大	-6919
▁一个在街上	-6920
▁一个拿着大	-6921
▁一个白头发	-6922
▁一个穿着绿	-6923
▁一个穿蓝衣	-6924
▁一个穿黑白	-6925
▁一个红头发	-6926
▁一个远足者	-6927
▁一位戴眼镜	-6928
▁一只嘴里有	-6929
▁一名女性在	-6930
▁一名年轻的	-6931
▁一名穿红色	-6932
▁一名身着黑	-6933
▁一群女孩在	-6934
▁一群朋友在	-6935
▁一辆摩托车	-6936
▁一辆红色的	-6937
▁三个女人在	-6938
▁三个女孩在	-6939
▁两个人正在	-6940
▁两个穿橙色	-6941
▁两只白狗在	-6942
▁五个人站在	-6943
▁四个孩子在	-6944
▁在这张照片	-6945
▁我今天早上	-6946
▁我喜欢早上	-6947
▁摄影师正在	-6948
▁有两个人在	-6949
▁穿红色夹克	-6950
▁这张照片是	-6951
一起走来走去	-6952
不穿衣服的人	-6953
为照片摆姿势	-6954
人行道上看着	-6955
公共交通工具	-6956
另外两个男人	-6957
和一个女人在	-6958
和眼镜的男人	-6959
唱到麦克风里	-6960
在舞台上跳舞	-6961
城市人行道上	-6962
摆着一张相片	-6963
检查他的手机	-6964
棕色和白色的	-6965
正在寻找一个	-6966
泳裤的男人在	-6967
玩自行车把戏	-6968
男人的肩膀上	-6969
男孩在海滩上	-6970
白狗在草地上	-6971
白色冲浪板上	-6972
的小男孩坐在	-6973
的年轻人坐在	-6974
的年轻人站在	-6975
穿着橙色衬衫	-6976
穿着黑色衬衫	-6977
穿西装的男人	-6978
老年妇女坐在	-6979
背心的男人在	-6980
艺术和手工艺	-6981
衬衫的人站在	-6982
观众面前表演	-6983
走在一条路上	-6984
透过望远镜看	-6985
▁一个中年男子	-6986
▁一个人在户外	-6987
▁一个人在空中	-6988
▁一个女人在看	-6989
▁一个戴太阳镜	-6990
▁一个戴着绿色	-6991
▁一个穿泳衣的	-6992
▁一个穿浅蓝色	-6993
▁一个金发男孩	-6994
▁一只嘴里塞着	-6995
▁一名年轻女孩	-6996
▁一名男子站在	-6997
▁一名身着灰色	-6998
▁一名身着绿色	-6999
▁一对夫妇坐在	-7000
▁一群妇女站在	-7001
▁三个男人站在	-7002
▁两个老人坐在	-7003
▁两名建筑工人	-7004
▁人们站在一个	-7005
▁建筑工人站在	-7006
▁有两个女人在	-7007
▁穿红衬衫的人	-7008
为摄像头摆姿势	-7009
坐在一张桌子旁	-7010
坦克顶部的女人	-7011
坦克顶部的女士	-7012
夹克的女人站在	-7013
帽子的男人正在	-7014
幻灯片中滑下来	-7015
恤和蓝色牛仔裤	-7016
泥土里跑来跑去	-7017
田野里跑来跑去	-7018
的年轻女子正在	-7019
的男人坐在一个	-7020
看着另一个男人	-7021
穿白衬衫的男人	-7022
衬衫的女人正在	-7023
衬衫的男人说话	-7024
附近的人行道上	-7025
骑着他的自行车	-7026
▁一个人在海滩上	-7027
▁一个人在滑板上	-7028
▁一个人坐在一个	-7029
▁一个女人和两个	-7030
▁一个女人和她的	-7031
▁一个戴着牛仔帽	-7032
▁一个戴着红帽子	-7033
▁一个男人把一个	-7034
▁一个穿蓝色夹克	-7035
▁一个穿黑衬衫和	-7036
▁一个篮球运动员	-7037
▁一只棕色狗跳过	-7038
▁一只棕色的狗在	-7039
▁一名妇女和两名	-7040
▁一群年轻人正在	-7041
▁两个人站在一个	-7042
▁有个年轻女孩在	-7043
▁男人和女人站在	-7044
制服的足球运动员	-7045
而另一个男人看着	-7046
阳光明媚的一天在	-7047
骑自行车的骑手在	-7048
▁一个十几岁的男孩	-7049
▁一个女人在海滩上	-7050
▁一个年轻女孩拿着	-7051
▁一个戴着太阳眼镜	-7052
▁一个穿着白衬衫的	-7053
▁一位老年妇女正在	-7054
▁穿灰色衬衫的男人	-7055
▁他是一位非常有经验	-7056
▁一个没有衬衫的男人在	-7057
▁一个男人和一个小男孩	-7058
▁一个男人和两个女人在	-7059
▁一个穿灰色衬衫的男人	-7060
▁一个穿白色衣服的男人	-7061
▁一个穿红衬衫的男人在	-7062
▁两个男人和一个女人在	-7063
▁一个穿黑衣服的男人站在	-7064
喷气式喷气式喷气式喷气式	-7065
白脸白脸白脸白脸白脸白脸白脸白脸	-7066
00	-7067
Vi	-7068
ab	-7069
aw	-7070
el	-7071
um	-7072
un	-7073
xy	-7074
▁以	-7075
▁军	-7076
▁布	-7077
▁汤	-7078
▁花	-7079
▁赛	-7080
一团	-7081
一旁	-7082
一朵	-7083
一种	-7084
一袋	-7085
三角	-7086
上岸	-7087
上方	-7088
上涂	-7089
上课	-7090
下一	-7091
下方	-7092
丘陵	-7093
两件	-7094
两女	-7095
两扇	-7096
举手	-7097
举重	-7098
也许	-7099
乱的	-7100
事件	-7101
二十	-7102
交流	-7103
人心	-7104
人种	-7105
仰着	-7106
伙伴	-7107
传单	-7108
位于	-7109
住的	-7110
作战	-7111
作物	-7112
供应	-7113
便便	-7114
便装	-7115
保安	-7116
信号	-7117
倒进	-7118
倒酒	-7119
倒霉	-7120
倾听	-7121
做点	-7122
傻脸	-7123
光亮	-7124
公民	-7125
公的	-7126
公鸡	-7127
关闭	-7128
养家	-7129
内的	-7130
冒了	-7131
冬装	-7132
冰川	-7133
凉的	-7134
击掌	-7135
分开	-7136
切地	-7137
刚从	-7138
刺激	-7139
刻意	-7140
剃刀	-7141
前方	-7142
加斯	-7143
务实	-7144
包在	-7145
卖掉	-7146
卫兵	-7147
卫士	-7148
印象	-7149
参赛	-7150
双脚	-7151
只是	-7152
只有	-7153
后在	-7154
告诉	-7155
和小	-7156
和尚	-7157
和看	-7158
和马	-7159
哥哥	-7160
售货	-7161
四周	-7162
图画	-7163
图表	-7164
土豆	-7165
在山	-7166
场合	-7167
坐船	-7168
垄断	-7169
垫子	-7170
堆满	-7171
填写	-7172
壁上	-7173
壁炉	-7174
声器	-7175
声音	-7176
处于	-7177
多岁	-7178
大方	-7179
大船	-7180
大都	-7181
天鹅	-7182
头朝	-7183
奔向	-7184
奶嘴	-7185
姐妹	-7186
媒体	-7187
嫉妒	-7188
官员	-7189
宣布	-7190
害怕	-7191
宴会	-7192
家的	-7193
宽容	-7194
宽阔	-7195
寄生	-7196
密切	-7197
密的	-7198
对抗	-7199
寺庙	-7200
封锁	-7201
封闭	-7202
小便	-7203
小号	-7204
小块	-7205
小贩	-7206
尘土	-7207
就是	-7208
山路	-7209
山里	-7210
崇拜	-7211
差点	-7212
布布	-7213
平板	-7214
年的	-7215
并被	-7216
幸福	-7217
幸运	-7218
幼小	-7219
庆典	-7220
应急	-7221
底下	-7222
座上	-7223
弓箭	-7224
弟弟	-7225
弹奏	-7226
德勒	-7227
德州	-7228
怀里	-7229
思考	-7230
悬挂	-7231
情绪	-7232
想用	-7233
想要	-7234
愚蠢	-7235
戏法	-7236
戴蓝	-7237
手中	-7238
手从	-7239
手帕	-7240
手腕	-7241
手镯	-7242
打击	-7243
打手	-7244
扔球	-7245
扩音	-7246
技巧	-7247
抗争	-7248
抱抱	-7249
抹布	-7250
抽屉	-7251
拖走	-7252
指尖	-7253
指示	-7254
挖出	-7255
挤压	-7256
挥着	-7257
捕手	-7258
掉下	-7259
握在	-7260
搬运	-7261
摔倒	-7262
撞到	-7263
支撑	-7264
收藏	-7265
收音	-7266
敏感	-7267
散发	-7268
文章	-7269
方形	-7270
方面	-7271
旁的	-7272
族裔	-7273
时给	-7274
昆虫	-7275
明星	-7276
晃晃	-7277
暖和	-7278
更多	-7279
有关	-7280
有着	-7281
有红	-7282
朋克	-7283
望向	-7284
朝他	-7285
杂草	-7286
来到	-7287
标牌	-7288
栏上	-7289
桌球	-7290
桥梁	-7291
橙汁	-7292
欢笑	-7293
每只	-7294
毛帽	-7295
毛毯	-7296
毛绒	-7297
气温	-7298
沟通	-7299
沥青	-7300
河岸	-7301
沿河	-7302
法院	-7303
泥坑	-7304
流动	-7305
流淌	-7306
浇水	-7307
浴袍	-7308
海里	-7309
淋浴	-7310
深刻	-7311
清晨	-7312
清晰	-7313
湿湿	-7314
滑轮	-7315
滑过	-7316
漂流	-7317
火焰	-7318
灭火	-7319
点菜	-7320
烘干	-7321
烟花	-7322
热又	-7323
爬去	-7324
牙疼	-7325
牛群	-7326
牧场	-7327
物件	-7328
狗从	-7329
玩乐	-7330
现金	-7331
珠子	-7332
球上	-7333
球后	-7334
球帽	-7335
球时	-7336
球棒	-7337
球的	-7338
甜圈	-7339
生物	-7340
用小	-7341
田间	-7342
甲板	-7343
电筒	-7344
疲倦	-7345
白墙	-7346
白白	-7347
白鸟	-7348
的多	-7349
的布	-7350
的花	-7351
的雪	-7352
的鱼	-7353
看似	-7354
看看	-7355
真空	-7356
砖块	-7357
砖路	-7358
破坏	-7359
社区	-7360
种植	-7361
种类	-7362
科幻	-7363
空荡	-7364
空闲	-7365
穿孔	-7366
穿成	-7367
穿的	-7368
窗前	-7369
窗子	-7370
竖琴	-7371
章鱼	-7372
竹子	-7373
笑得	-7374
符号	-7375
签名	-7376
管弦	-7377
管的	-7378
篱笆	-7379
米什	-7380
系统	-7381
红旗	-7382
纸箱	-7383
终极	-7384
给了	-7385
绿地	-7386
缠着	-7387
罩着	-7388
美人	-7389
美食	-7390
翻过	-7391
老式	-7392
老旧	-7393
者的	-7394
而战	-7395
聪明	-7396
背对	-7397
背影	-7398
胡萝	-7399
胶带	-7400
至少	-7401
舞姿	-7402
艺人	-7403
花哨	-7404
花样	-7405
花瓣	-7406
花生	-7407
英雄	-7408
草莓	-7409
草裙	-7410
获取	-7411
蓝天	-7412
袖子	-7413
装的	-7414
裤和	-7415
裤的	-7416
西雅	-7417
观望	-7418
角色	-7419
解开	-7420
警告	-7421
计程	-7422
调味	-7423
谦虚	-7424
象棋	-7425
贝壳	-7426
负责	-7427
走开	-7428
超过	-7429
路跑	-7430
跳球	-7431
踏上	-7432
轮式	-7433
载有	-7434
轿车	-7435
辛勤	-7436
迅速	-7437
过程	-7438
过街	-7439
运输	-7440
通讯	-7441
遮盖	-7442
邦戈	-7443
邪恶	-7444
邻居	-7445
部的	-7446
酒杯	-7447
酷的	-7448
醒来	-7449
重量	-7450
金狗	-7451
钓球	-7452
铺满	-7453
铺着	-7454
铺面	-7455
错误	-7456
锥体	-7457
闪耀	-7458
队员	-7459
陆地	-7460
集装	-7461
雨雨	-7462
雪堆	-7463
雪的	-7464
雪车	-7465
面的	-7466
顶帽	-7467
飘浮	-7468
香槟	-7469
驱动	-7470
驶来	-7471
骑兵	-7472
骨头	-7473
黑包	-7474
齿轮	-7475
all	-7476
▁两头	-7477
▁两对	-7478
▁两组	-7479
▁中年	-7480
▁你会	-7481
▁四人	-7482
▁地铁	-7483
▁士兵	-7484
▁外国	-7485
▁天气	-7486
▁夫妻	-7487
▁女性	-7488
▁小丑	-7489
▁山上	-7490
▁快乐	-7491
▁拿着	-7492
▁数人	-7493
▁新婚	-7494
▁星星	-7495
▁有几	-7496
▁来自	-7497
▁果汁	-7498
▁步行	-7499
▁派对	-7500
▁男女	-7501
▁白衣	-7502
▁看见	-7503
▁空中	-7504
▁笑着	-7505
▁美国	-7506
▁老头	-7507
▁老年	-7508
▁赛马	-7509
▁这只	-7510
▁这场	-7511
▁这条	-7512
▁长着	-7513
▁青年	-7514
一个洞	-7515
一只在	-7516
一只白	-7517
一只鸟	-7518
一头大	-7519
一张有	-7520
一条线	-7521
一栋大	-7522
一栋楼	-7523
一棵大	-7524
一起走	-7525
一辆车	-7526
一连串	-7527
上冲浪	-7528
上平衡	-7529
上戴着	-7530
上拿着	-7531
下山了	-7532
下山时	-7533
下工作	-7534
两个大	-7535
两人都	-7536
个女人	-7537
个男孩	-7538
中间有	-7539
为顾客	-7540
乘客的	-7541
了一下	-7542
了一件	-7543
了东西	-7544
交谈时	-7545
人员在	-7546
从山上	-7547
从码头	-7548
他正在	-7549
他的头	-7550
们一起	-7551
传统的	-7552
倒吊在	-7553
倒水泥	-7554
做手势	-7555
停着的	-7556
充满了	-7557
军人在	-7558
冲浪在	-7559
准备了	-7560
准备打	-7561
切东西	-7562
则看着	-7563
剃了头	-7564
前拿着	-7565
前摆出	-7566
参加了	-7567
发动机	-7568
另一位	-7569
另一条	-7570
叶子上	-7571
叶子的	-7572
吃点心	-7573
吃苹果	-7574
吃食物	-7575
名身穿	-7576
听一个	-7577
吸尘器	-7578
吹长笛	-7579
吹风笛	-7580
和人群	-7581
和凉鞋	-7582
和别人	-7583
和唱歌	-7584
和女孩	-7585
和棕狗	-7586
和泥土	-7587
和玩耍	-7588
因为她	-7589
团体里	-7590
国家的	-7591
在一些	-7592
在一所	-7593
在两个	-7594
在商场	-7595
在外国	-7596
在外边	-7597
在市场	-7598
在海中	-7599
在海边	-7600
在蓝色	-7601
在这里	-7602
在雪上	-7603
在雪中	-7604
地区的	-7605
地看着	-7606
地跳跃	-7607
大型的	-7608
大都会	-7609
头上戴	-7610
头发黑	-7611
头顶着	-7612
女孩和	-7613
妇人在	-7614
安全感	-7615
客厅里	-7616
小路上	-7617
小黑狗	-7618
工具带	-7619
布斯通	-7620
帮助他	-7621
干燥的	-7622
并携带	-7623
床垫上	-7624
座椅上	-7625
当一个	-7626
当时她	-7627
很紧张	-7628
微笑和	-7629
戴着红	-7630
扔石头	-7631
扔飞盘	-7632
扬声器	-7633
把球扔	-7634
把石头	-7635
抱着他	-7636
抽根烟	-7637
拍她的	-7638
拍摄了	-7639
拍摄的	-7640
拱门下	-7641
拿到球	-7642
拿着书	-7643
握着手	-7644
携带着	-7645
摊位前	-7646
摔下来	-7647
摔倒了	-7648
收音机	-7649
新项目	-7650
新鲜的	-7651
方向盘	-7652
无衬衣	-7653
旧时装	-7654
时拍照	-7655
时看着	-7656
时通过	-7657
星巴克	-7658
晚宴上	-7659
有一位	-7660
服装店	-7661
机器上	-7662
机器人	-7663
机械师	-7664
杯子和	-7665
架子上	-7666
桌子前	-7667
棍子上	-7668
椅子和	-7669
椅子的	-7670
模特儿	-7671
正在跑	-7672
正式的	-7673
正跳过	-7674
正骑着	-7675
步行道	-7676
比娜塔	-7677
毕业生	-7678
毛狗在	-7679
水里有	-7680
泡泡浴	-7681
泥土道	-7682
注意力	-7683
洋娃娃	-7684
洗衣房	-7685
淡蓝色	-7686
渔夫在	-7687
游戏中	-7688
湿衣服	-7689
滑雪鞋	-7690
满是人	-7691
满满的	-7692
漂浮着	-7693
潜水板	-7694
火车轨	-7695
灰狗在	-7696
灰胡子	-7697
点东西	-7698
燕尾服	-7699
爬楼梯	-7700
牌子上	-7701
牛仔服	-7702
独自在	-7703
玩具车	-7704
玩把戏	-7705
玩拖战	-7706
玩风笛	-7707
玻璃窗	-7708
球迷们	-7709
球队的	-7710
甜甜圈	-7711
用勺子	-7712
用双手	-7713
用塑料	-7714
用毛巾	-7715
用筷子	-7716
用红色	-7717
男两女	-7718
男孩从	-7719
画家在	-7720
白手套	-7721
白色和	-7722
的中年	-7723
的人会	-7724
的其他	-7725
的台阶	-7726
的同时	-7727
的味道	-7728
的地形	-7729
的墙上	-7730
的外表	-7731
的大门	-7732
的山丘	-7733
的新娘	-7734
的木头	-7735
的树干	-7736
的树枝	-7737
的牌子	-7738
的特写	-7739
的狗狗	-7740
的电影	-7741
的石头	-7742
的秃头	-7743
的老师	-7744
的脸上	-7745
的舞台	-7746
的舞蹈	-7747
的街上	-7748
的表面	-7749
的轮廓	-7750
的饮料	-7751
的马车	-7752
相配的	-7753
看商品	-7754
着一具	-7755
石凳上	-7756
码头前	-7757
破旧的	-7758
穿过街	-7759
窗外的	-7760
站在白	-7761
等顾客	-7762
紫色的	-7763
纪念品	-7764
纸板上	-7765
绅士在	-7766
结构上	-7767
给他的	-7768
绿绿的	-7769
网球服	-7770
老男人	-7771
而两个	-7772
而人群	-7773
耳朵上	-7774
背后的	-7775
胡萝卜	-7776
草地和	-7777
草地的	-7778
草地里	-7779
蛋糕上	-7780
蜘蛛侠	-7781
被一只	-7782
被捆绑	-7783
被绳子	-7784
裁判在	-7785
西雅图	-7786
覆盖着	-7787
警察局	-7788
赛事上	-7789
走下来	-7790
走路时	-7791
走过去	-7792
跑道上	-7793
路上的	-7794
跳来跳	-7795
身着白	-7796
身着黑	-7797
车上的	-7798
车顶上	-7799
迷彩裤	-7800
通过了	-7801
那里有	-7802
都拿着	-7803
铁栏杆	-7804
长着一	-7805
阴暗的	-7806
阿米什	-7807
集会上	-7808
雪山下	-7809
雪覆盖	-7810
雪雪中	-7811
面朝下	-7812
领带的	-7813
食品车	-7814
马尾巴	-7815
驾驶舱	-7816
黄帽子	-7817
黑衣人	-7818
xylo	-7819
▁一对穿	-7820
▁一条带	-7821
▁一辆大	-7822
▁两个小	-7823
▁两个男	-7824
▁他很懒	-7825
▁他很爱	-7826
▁几个穿	-7827
▁在一场	-7828
▁女孩用	-7829
▁学生在	-7830
▁实验室	-7831
▁工人们	-7832
▁幼儿在	-7833
▁我们下	-7834
▁我牙疼	-7835
▁戴头巾	-7836
▁旁观者	-7837
▁有一对	-7838
▁橄榄球	-7839
▁穿军装	-7840
▁穿围裙	-7841
▁穿粉红	-7842
▁穿长袍	-7843
▁穿黑白	-7844
▁美丽的	-7845
▁身着蓝	-7846
▁远足者	-7847
▁销售商	-7848
▁马拉松	-7849
▁黑白狗	-7850
一个小型	-7851
一个穿蓝	-7852
一个红色	-7853
一个项目	-7854
一名女孩	-7855
一场表演	-7856
一块岩石	-7857
一块石头	-7858
一堵墙上	-7859
一头小牛	-7860
一座城市	-7861
一群人在	-7862
一群孩子	-7863
一起唱歌	-7864
一起玩耍	-7865
一起走路	-7866
三个女人	-7867
三个孩子	-7868
上的女人	-7869
专业人员	-7870
个人正在	-7871
互相拥抱	-7872
互相玩耍	-7873
亚洲女孩	-7874
人正在用	-7875
人聚集在	-7876
他们旁边	-7877
他们正在	-7878
他的照片	-7879
休息椅上	-7880
伸出手来	-7881
位女士在	-7882
体育场的	-7883
例行活动	-7884
保护自己	-7885
修剪草坪	-7886
做背翻转	-7887
健身房的	-7888
公园散步	-7889
公用电话	-7890
其背景是	-7891
冲浪冲浪	-7892
准备打球	-7893
到处都是	-7894
努力学习	-7895
包括一名	-7896
十几岁的	-7897
十字架上	-7898
半空中的	-7899
印象深刻	-7900
双臂围着	-7901
另一个是	-7902
吉他手和	-7903
吉他手在	-7904
名男子和	-7905
周围的人	-7906
周末要去	-7907
呼吸空气	-7908
和白条纹	-7909
和蓝短裤	-7910
和黑衣的	-7911
和黑靴子	-7912
咖啡馆里	-7913
圣诞树前	-7914
在外面的	-7915
在巷子里	-7916
在手机上	-7917
在街上走	-7918
在雪地上	-7919
坐在一些	-7920
垃圾箱里	-7921
城市地区	-7922
塞进嘴里	-7923
填充动物	-7924
外科医生	-7925
大型建筑	-7926
大房间里	-7927
大石头上	-7928
天花板上	-7929
太阳下的	-7930
头戴围巾	-7931
女孩看着	-7932
她旁边的	-7933
她的孩子	-7934
婴儿坐在	-7935
学习如何	-7936
孩子正在	-7937
守门员在	-7938
小男孩的	-7939
少数民族	-7940
山下滑雪	-7941
岩石形成	-7942
工作人员	-7943
工厂工作	-7944
市场购物	-7945
带着吉他	-7946
年轻女人	-7947
年长男子	-7948
座位上的	-7949
弹吉他而	-7950
心地善良	-7951
怀着婴儿	-7952
恤和短裤	-7953
戴着绿色	-7954
打扫干净	-7955
打羽毛球	-7956
把头放在	-7957
投手投出	-7958
拍摄篮球	-7959
拿着一件	-7960
拿着一堆	-7961
拿着一本	-7962
拿着一束	-7963
拿着乐器	-7964
拿着他的	-7965
挂着国旗	-7966
指挥交通	-7967
摆着照片	-7968
摩托摩托	-7969
播放音乐	-7970
救援人员	-7971
数码相机	-7972
新生婴儿	-7973
明亮粉红	-7974
有个会议	-7975
有个男人	-7976
有创造力	-7977
朋友一起	-7978
木地板上	-7979
林木地带	-7980
标志附近	-7981
标志面前	-7982
桌边喝酒	-7983
棒球手套	-7984
正在参加	-7985
每个人都	-7986
比赛中打	-7987
水下游泳	-7988
水中行走	-7989
水的边缘	-7990
沙滩上玩	-7991
沙滩城堡	-7992
沿着一个	-7993
沿着岩石	-7994
海中冲浪	-7995
海岸线上	-7996
海绵宝宝	-7997
湿衣服的	-7998
滑雪下山	-7999
滑雪电梯	-8000
灰色裤子	-8001
热粉红色	-8002
爬上岩石	-8003
爬上雪山	-8004
独木舟上	-8005
独木舟中	-8006
独木舟里	-8007
独自站在	-8008
玩橄榄球	-8009
电子装置	-8010
电脑上的	-8011
男孩看着	-8012
男男女女	-8013
白色房间	-8014
的台阶上	-8015
的小狗在	-8016
的手推车	-8017
的斜坡上	-8018
的男孩用	-8019
的老太婆	-8020
的老男人	-8021
的运动员	-8022
的阴影下	-8023
盯着一个	-8024
相机微笑	-8025
相机的人	-8026
看着东西	-8027
看着日落	-8028
睡在床上	-8029
硬帽的人	-8030
秃头男子	-8031
科学实验	-8032
科布斯通	-8033
空闲时间	-8034
穿着冬衣	-8035
穿着围裙	-8036
穿着夹克	-8037
穿着衬衫	-8038
站在人群	-8039
站在户外	-8040
站在栅栏	-8041
站在水里	-8042
站在路边	-8043
站着看着	-8044
篮球比赛	-8045
紧紧抓住	-8046
繁忙地区	-8047
红色吉他	-8048
红色背包	-8049
经过一个	-8050
给另一个	-8051
网球手在	-8052
背景面前	-8053
背着袋子	-8054
胡须男子	-8055
自行车前	-8056
舞蹈表演	-8057
船上划船	-8058
船上钓鱼	-8059
街头市场	-8060
表演一个	-8061
衫的男人	-8062
走到街上	-8063
走在一栋	-8064
走在路上	-8065
走着一条	-8066
走过一家	-8067
越快越好	-8068
跑过田野	-8069
跟另一个	-8070
路上行走	-8071
身穿黄色	-8072
辛勤工作	-8073
运动衫和	-8074
还有另外	-8075
进入一个	-8076
部新手机	-8077
重型机械	-8078
铁路轨道	-8079
长的一天	-8080
闪闪发光	-8081
队的球员	-8082
非常有趣	-8083
面前表演	-8084
音响吉他	-8085
顶着帽子	-8086
餐厅外面	-8087
马上就要	-8088
骑在一辆	-8089
骑着滑板	-8090
骑马骑马	-8091
▁一个人被	-8092
▁一个棕发	-8093
▁一个母亲	-8094
▁一个父亲	-8095
▁一个短发	-8096
▁一个穿好	-8097
▁一个穿成	-8098
▁一个穿皮	-8099
▁一个骑马	-8100
▁一位东方	-8101
▁一位坐在	-8102
▁一名中年	-8103
▁一群坐在	-8104
▁一群游客	-8105
▁一群老人	-8106
▁一辆绿色	-8107
▁一辆蓝色	-8108
▁三个男孩	-8109
▁两个人从	-8110
▁两个人把	-8111
▁两个人用	-8112
▁两个女性	-8113
▁两人站在	-8114
▁两位年轻	-8115
▁两只小狗	-8116
▁两只白狗	-8117
▁两名黑人	-8118
▁人们看着	-8119
▁今天天气	-8120
▁他很倒霉	-8121
▁大批民众	-8122
▁她很优雅	-8123
▁她很务实	-8124
▁她很勇敢	-8125
▁她很好奇	-8126
▁她很嫉妒	-8127
▁她很幸运	-8128
▁她很敏感	-8129
▁她很时尚	-8130
▁她很自信	-8131
▁我喜欢在	-8132
▁我很兴奋	-8133
▁我忘记带	-8134
▁我感冒了	-8135
▁戴白帽子	-8136
▁穿比基尼	-8137
▁穿蓝衬衫	-8138
▁篮球选手	-8139
▁身穿棕色	-8140
▁金发女人	-8141
▁黑衣女子	-8142
一个人拿着	-8143
一个女人的	-8144
一个穿紫色	-8145
一个穿绿色	-8146
一条小径上	-8147
一条小路上	-8148
一边听音乐	-8149
不同颜色的	-8150
为观众表演	-8151
人正在寻找	-8152
人站在一起	-8153
体育赛事上	-8154
做一些工作	-8155
冬季服装的	-8156
冲浪者骑着	-8157
前的桌子上	-8158
十字路口的	-8159
参加了一场	-8160
另一个人的	-8161
另一个拿着	-8162
和一个孩子	-8163
和一个年长	-8164
和一个穿红	-8165
和一只小狗	-8166
和另外两个	-8167
和平的标志	-8168
唱歌弹吉他	-8169
嘴里有个球	-8170
围着栅栏的	-8171
圆桌会议上	-8172
在一个非常	-8173
在一条路上	-8174
在一辆红色	-8175
在一辆黄色	-8176
在地平线上	-8177
在城市地区	-8178
在街上走过	-8179
坐在台阶上	-8180
坐在秋千上	-8181
城市的街道	-8182
填充的动物	-8183
外套的男人	-8184
夹克的人在	-8185
夹克的男子	-8186
实验室工作	-8187
寒冷的冬天	-8188
小女孩穿着	-8189
小男孩站在	-8190
就像其他人	-8191
岩石上看着	-8192
岩石海滩上	-8193
年轻人正在	-8194
年轻女士在	-8195
年长的绅士	-8196
恤和牛仔裤	-8197
恤的男人在	-8198
成年人正在	-8199
戴着白帽子	-8200
手里的东西	-8201
抓住了一个	-8202
拍一张照片	-8203
拥挤的地方	-8204
排球运动员	-8205
摄影师拍照	-8206
摆姿势拍照	-8207
摩托车旁边	-8208
操场上玩耍	-8209
明亮的红色	-8210
曲棍球游戏	-8211
朋友的照片	-8212
木板上行走	-8213
森林在背景	-8214
橄榄球比赛	-8215
正沿着一条	-8216
比赛中打球	-8217
毛衣的女人	-8218
沙滩上行走	-8219
泳衣的女孩	-8220
泳裤的男人	-8221
浅水中行走	-8222
涂满了涂鸦	-8223
温暖的一天	-8224
游泳池旁边	-8225
滑板公园的	-8226
火车上工作	-8227
电脑上工作	-8228
男人在街上	-8229
白脸白脸白	-8230
白色和红色	-8231
的亚洲男子	-8232
的人聚集在	-8233
的女人和穿	-8234
的女孩看着	-8235
的妇女站在	-8236
的孩子坐在	-8237
的孩子看着	-8238
的男人准备	-8239
的男人在做	-8240
的男人带着	-8241
的男人试图	-8242
的老人坐在	-8243
的金发男孩	-8244
着一个男人	-8245
睡在沙发上	-8246
睡着的婴儿	-8247
短裤和凉鞋	-8248
秋千上玩耍	-8249
穿着蓝衬衫	-8250
穿过一条街	-8251
站在一个小	-8252
站在厨房里	-8253
笑着看镜头	-8254
篮球比赛中	-8255
类电视节目	-8256
粉红色花朵	-8257
绿色椅子上	-8258
聚集在户外	-8259
自行车赛中	-8260
草地上行走	-8261
蓝色和黄色	-8262
衣服的女士	-8263
衣服的婴儿	-8264
衬衫的女士	-8265
衬衫的黑发	-8266
赛道上赛跑	-8267
赛道上赛车	-8268
走在楼梯上	-8269
走过一条路	-8270
跳下自行车	-8271
轨道上工作	-8272
雪地覆盖的	-8273
青年男子在	-8274
骑着棕色马	-8275
骑着竞技场	-8276
骑自行车在	-8277
高速公路上	-8278
黄色和蓝色	-8279
黑头发女人	-8280
Fedora	-8281
▁一个人一边	-8282
▁一个女孩从	-8283
▁一个戴头盔	-8284
▁一个戴着白	-8285
▁一个男人从	-8286
▁一个穿围裙	-8287
▁一个穿得像	-8288
▁一个穿着大	-8289
▁一个穿红白	-8290
▁一个脸上有	-8291
▁一个身着白	-8292
▁一些人坐在	-8293
▁一位年轻人	-8294
▁一位老人在	-8295
▁一只小白狗	-8296
▁一只狗沿着	-8297
▁一只黄色的	-8298
▁一群人站着	-8299
▁一群青少年	-8300
▁一群音乐家	-8301
▁三个小孩在	-8302
▁两个戴帽子	-8303
▁两个老人在	-8304
▁两只小狗在	-8305
▁两名工人在	-8306
▁两名身着黑	-8307
▁他正在洗碗	-8308
▁几个人站在	-8309
▁几个男人在	-8310
▁四个男人在	-8311
▁年轻人坐在	-8312
▁我们需要在	-8313
▁我喜欢写诗	-8314
▁我喜欢园艺	-8315
▁我喜欢画画	-8316
▁我喜欢钓鱼	-8317
▁我喜欢露营	-8318
▁戴眼镜的人	-8319
▁有三个人在	-8320
▁穿橙色背心	-8321
▁篮球运动员	-8322
▁身戴太阳镜	-8323
▁金发女人在	-8324
▁骑自行车的	-8325
人坐在桌子上	-8326
他们的自行车	-8327
准备参加比赛	-8328
制服的人站在	-8329
十字路口附近	-8330
参加武术比赛	-8331
另一个穿白色	-8332
和一个孩子在	-8333
和一个小女孩	-8334
唱歌和弹吉他	-8335
在一个拥挤的	-8336
在一次活动上	-8337
在舞台上唱歌	-8338
城市的街道上	-8339
外面走来走去	-8340
安全背心的人	-8341
对着镜头微笑	-8342
建筑工人坐在	-8343
弹吉他和唱歌	-8344
戴帽子的男人	-8345
抱着一个小孩	-8346
摆出一幅图片	-8347
服装的人站在	-8348
毛衣的小女孩	-8349
牛仔裤的女人	-8350
球场上踢足球	-8351
用笔记本电脑	-8352
田野上踢足球	-8353
白条纹衬衫的	-8354
白色和红色的	-8355
的小男孩正在	-8356
的男人和女人	-8357
的男人在一个	-8358
的街道上行走	-8359
的金发女人在	-8360
看着他的手机	-8361
穿着橙色背心	-8362
穿着红色衬衫	-8363
穿着黄色衬衫	-8364
笑着看着镜头	-8365
笑着笑着笑着	-8366
笔记本电脑和	-8367
衬衫和卡其裤	-8368
衬衫和蓝帽子	-8369
衬衫和蓝短裤	-8370
衬衫和蓝裤子	-8371
被树木包围的	-8372
被涂鸦覆盖的	-8373
被绑在皮带上	-8374
走在一条街上	-8375
路上骑自行车	-8376
长的长长长长	-8377
骑着一辆黄色	-8378
骑自行车者在	-8379
▁一个亚洲女人	-8380
▁一个人在水里	-8381
▁一个冲浪者在	-8382
▁一个女孩站在	-8383
▁一个孩子站在	-8384
▁一个戴着红色	-8385
▁一个戴黑帽子	-8386
▁一个没有上衣	-8387
▁一个男人试图	-8388
▁一个男人躺在	-8389
▁一个穿着黄色	-8390
▁一位亚洲女性	-8391
▁一只小黑狗在	-8392
▁一只狗在水里	-8393
▁一名妇女坐在	-8394
▁一名妇女穿着	-8395
▁一名年轻男孩	-8396
▁一名身着棕色	-8397
▁一名身着黄色	-8398
▁一大群人正在	-8399
▁一大群人站在	-8400
▁一对夫妇站在	-8401
▁一群人在外面	-8402
▁两个人在一条	-8403
▁两个孩子坐在	-8404
▁两个男人坐在	-8405
▁两位年轻女士	-8406
▁两名妇女站在	-8407
▁两名男子坐在	-8408
▁他总是很支持	-8409
▁他正在弹吉他	-8410
▁她很有创造力	-8411
▁建筑工人正在	-8412
▁我们需要修门	-8413
▁有个年轻人在	-8414
▁海滩上的一个	-8415
▁滑雪运动员在	-8416
▁男人和女人都	-8417
▁穿着白衬衫的	-8418
▁穿西装的人在	-8419
▁穿黑衬衫的人	-8420
▁身穿白衬衫的	-8421
一辆公共汽车上	-8422
公园里走来走去	-8423
在繁忙的街道上	-8424
在街上骑自行车	-8425
坐在一张长椅上	-8426
抱着一个小女孩	-8427
沿着一条泥土路	-8428
站在一个巨大的	-8429
篮球运动员正在	-8430
而另一个男人在	-8431
衣服的女人正在	-8432
衬衫的女人站在	-8433
衬衫的男孩正在	-8434
运动衫的男人在	-8435
通过显微镜观察	-8436
骑自行车耍花招	-8437
▁一个人在沙滩上	-8438
▁一个小男孩带着	-8439
▁一个年轻人坐在	-8440
▁一个戴眼镜的人	-8441
▁一个戴着帽子和	-8442
▁一个戴着蓝帽子	-8443
▁一个穿着帽子和	-8444
▁一个穿红色大衣	-8445
▁一个穿黑夹克和	-8446
▁一个金发女人在	-8447
▁一个长棕色头发	-8448
▁一位年轻的亚洲	-8449
▁一位年长的男子	-8450
▁一名足球运动员	-8451
▁一名身着黑衣的	-8452
▁一群人坐在一个	-8453
▁一群人站在街上	-8454
▁一群人走在一条	-8455
▁一群年轻人坐在	-8456
▁两个女人在街上	-8457
▁他正在拉小提琴	-8458
▁她很擅长弹钢琴	-8459
▁我们需要修屋顶	-8460
▁穿白衬衫的女人	-8461
▁穿粉红色衬衫的	-8462
制服的篮球运动员	-8463
嘴里拿着一根棍子	-8464
夹克和蓝色牛仔裤	-8465
的女人骑着自行车	-8466
的男人和一个女人	-8467
直地直地直地直地	-8468
笔记本电脑上打字	-8469
衬衫的男人和一个	-8470
走在拥挤的街道上	-8471
xylophone	-8472
▁一个年长的男人在	-8473
▁一个男人拿着一个	-8474
▁一个穿着坦克顶部	-8475
▁一个骑摩托车的人	-8476
▁一位年轻女士坐在	-8477
▁一位年长的绅士在	-8478
▁一名身着白衬衫和	-8479
▁一名身着白衬衫的	-8480
▁两个曲棍球运动员	-8481
▁棕色和白色的狗在	-8482
▁穿黑衬衫的女人在	-8483
一个男孩和一个女孩	-8484
长长的长长长长长长	-8485
▁一个十几岁的男孩在	-8486
▁一个穿着蓝色衬衫的	-8487
▁一个穿绿衬衫的男人	-8488
▁一个骑自行车的骑手	-8489
▁一只棕色和黑色的狗	-8490
▁我们应该试着更宽容	-8491
▁一个男人和一个男孩在	-8492
▁一个穿蓝衬衫的男孩在	-8493
▁一个穿黑衬衫的男人在	-8494
▁一个女人和一个年轻女孩	-8495
▁一个穿粉红色衬衫的小女孩	-8496
,4	-8497
30	-8498
50	-8499
Ar	-8500
Ch	-8501
El	-8502
GO	-8503
Jo	-8504
LO	-8505
OK	-8506
Wi	-8507
ah	-8508
co	-8509
ie	-8510
ig	-8511
im	-8512
ke	-8513
pp	-8514
st	-8515
ul	-8516
▁J	-8517
▁中	-8518
▁俄	-8519
▁冰	-8520
▁卖	-8521
▁山	-8522
▁村	-8523
▁满	-8524
▁茶	-8525
▁路	-8526
▁身	-8527
一侧	-8528
一幕	-8529
一扇	-8530
一身	-8531
一面	-8532
一首	-8533
三根	-8534
上吊	-8535
上读	-8536
下下	-8537
与球	-8538
两块	-8539
两面	-8540
个穿	-8541
中文	-8542
中等	-8543
为他	-8544
主唱	-8545
主持	-8546
举高	-8547
之外	-8548
乐谱	-8549
乐趣	-8550
乒乓	-8551
书包	-8552
书籍	-8553
争取	-8554
事会	-8555
交易	-8556
交汇	-8557
人工	-8558
人行	-8559
付费	-8560
仪器	-8561
任何	-8562
企鹅	-8563
众多	-8564
伤心	-8565
伴奏	-8566
伸入	-8567
伸到	-8568
但有	-8569
低语	-8570
住宅	-8571
作出	-8572
保健	-8573
信使	-8574
倒下	-8575
倒影	-8576
假日	-8577
做着	-8578
停着	-8579
健忘	-8580
充斥	-8581
克拉	-8582
公平	-8583
共生	-8584
共舞	-8585
关在	-8586
内战	-8587
冥想	-8588
冰场	-8589
冰鞋	-8590
冲刺	-8591
冷冻	-8592
冷又	-8593
几条	-8594
击倒	-8595
分钟	-8596
切割	-8597
切片	-8598
切鱼	-8599
利亚	-8600
到他	-8601
助人	-8602
包包	-8603
包着	-8604
匆匆	-8605
匆忙	-8606
区外	-8607
医学	-8608
午睡	-8609
半个	-8610
华盛	-8611
协助	-8612
单轮	-8613
卖鱼	-8614
卡拉	-8615
卡特	-8616
印印	-8617
卸货	-8618
厚厚	-8619
原上	-8620
双筒	-8621
双胞	-8622
反弹	-8623
发抖	-8624
取出	-8625
取水	-8626
口水	-8627
口琴	-8628
古典	-8629
古怪	-8630
可怕	-8631
可见	-8632
右腿	-8633
右臂	-8634
叶机	-8635
各样	-8636
吊床	-8637
吊死	-8638
后备	-8639
吹气	-8640
吹笛	-8641
周五	-8642
周日	-8643
和水	-8644
哈欠	-8645
喂养	-8646
喜怒	-8647
喝醉	-8648
嗓子	-8649
器官	-8650
四名	-8651
四肢	-8652
回去	-8653
回收	-8654
圆圈	-8655
圈圈	-8656
圈子	-8657
在有	-8658
在木	-8659
在浅	-8660
在湿	-8661
地平	-8662
坚硬	-8663
垂直	-8664
埃尔	-8665
堆在	-8666
填满	-8667
墙外	-8668
士尼	-8669
士顿	-8670
夏季	-8671
多云	-8672
大腿	-8673
天黑	-8674
失去	-8675
失措	-8676
失踪	-8677
头来	-8678
奇异	-8679
奖项	-8680
奥巴	-8681
妹妹	-8682
子女	-8683
宝石	-8684
宠爱	-8685
客人	-8686
家和	-8687
家在	-8688
寒冬	-8689
对决	-8690
对质	-8691
导演	-8692
小学	-8693
小巷	-8694
小树	-8695
小浪	-8696
小船	-8697
小费	-8698
小镇	-8699
尖尖	-8700
尖牙	-8701
尽管	-8702
尿布	-8703
层楼	-8704
屠宰	-8705
岛上	-8706
岩层	-8707
州立	-8708
工艺	-8709
左侧	-8710
巨浪	-8711
巴西	-8712
巴黎	-8713
巷子	-8714
布拉	-8715
布根	-8716
帅哥	-8717
希望	-8718
帮忙	-8719
干旱	-8720
平淡	-8721
并且	-8722
床边	-8723
店主	-8724
度过	-8725
弹琴	-8726
弹簧	-8727
当她	-8728
彩弹	-8729
很小	-8730
很甜	-8731
很难	-8732
很高	-8733
得多	-8734
徘徊	-8735
快车	-8736
忽略	-8737
思熟	-8738
性感	-8739
怪异	-8740
恶劣	-8741
惊慌	-8742
想咬	-8743
慷慨	-8744
成为	-8745
或者	-8746
战士	-8747
手有	-8748
手用	-8749
手脚	-8750
打在	-8751
打字	-8752
执法	-8753
执行	-8754
把车	-8755
抓球	-8756
投影	-8757
投票	-8758
抢夺	-8759
报告	-8760
抱负	-8761
拉扯	-8762
拉斯	-8763
拉起	-8764
拖到	-8765
拯救	-8766
拿起	-8767
挂上	-8768
指出	-8769
指导	-8770
指纹	-8771
损坏	-8772
掉进	-8773
推下	-8774
描绘	-8775
描述	-8776
搭车	-8777
摆布	-8778
摇着	-8779
操控	-8780
收拾	-8781
攻击	-8782
放到	-8783
放着	-8784
教授	-8785
敞篷	-8786
文书	-8787
文字	-8788
旅馆	-8789
无头	-8790
无常	-8791
无私	-8792
日出	-8793
旧楼	-8794
时刻	-8795
时的	-8796
时都	-8797
时钟	-8798
是个	-8799
晚间	-8800
景观	-8801
暑期	-8802
暴动	-8803
有多	-8804
有大	-8805
有树	-8806
期待	-8807
木块	-8808
木屋	-8809
木桥	-8810
木炭	-8811
木箱	-8812
木门	-8813
杉矶	-8814
来做	-8815
来的	-8816
杰克	-8817
柏林	-8818
某处	-8819
标有	-8820
树和	-8821
树条	-8822
树桩	-8823
桑拿	-8824
梯上	-8825
植被	-8826
楼上	-8827
模拟	-8828
欢欣	-8829
正常	-8830
正的	-8831
正确	-8832
正要	-8833
步骤	-8834
武士	-8835
残忍	-8836
残疾	-8837
毛茸	-8838
水手	-8839
水杯	-8840
沉浸	-8841
沉重	-8842
沙砾	-8843
沙里	-8844
沙龙	-8845
沟里	-8846
河中	-8847
泥地	-8848
注册	-8849
泳装	-8850
洗了	-8851
流水	-8852
浮上	-8853
深夜	-8854
渔民	-8855
渔船	-8856
游轮	-8857
湖的	-8858
湿透	-8859
滑入	-8860
滚筒	-8861
灯塔	-8862
灯柱	-8863
灯泡	-8864
点亮	-8865
烟囱	-8866
烟火	-8867
煤气	-8868
照明	-8869
照看	-8870
熟食	-8871
爱国	-8872
爱情	-8873
爵士	-8874
牌上	-8875
特别	-8876
狂野	-8877
狗和	-8878
猩猩	-8879
球跑	-8880
球门	-8881
甚至	-8882
生命	-8883
生在	-8884
生的	-8885
用具	-8886
用木	-8887
电池	-8888
电钻	-8889
画上	-8890
画前	-8891
画布	-8892
画成	-8893
画的	-8894
痛苦	-8895
瘦瘦	-8896
白包	-8897
白种	-8898
的墙	-8899
的店	-8900
的穿	-8901
的话	-8902
的锅	-8903
盖子	-8904
直直	-8905
相连	-8906
眼睁	-8907
眼神	-8908
眼罩	-8909
着她	-8910
着脚	-8911
石灰	-8912
石膏	-8913
砖瓦	-8914
砖街	-8915
硬币	-8916
确实	-8917
碎片	-8918
磨磨	-8919
福特	-8920
程碑	-8921
稍稍	-8922
空姐	-8923
穿好	-8924
笔和	-8925
等我	-8926
签字	-8927
管理	-8928
管里	-8929
箱前	-8930
粗野	-8931
精神	-8932
红柿	-8933
红桶	-8934
红楼	-8935
红黑	-8936
纪录	-8937
纸杯	-8938
线的	-8939
细心	-8940
织布	-8941
绘制	-8942
给品	-8943
继续	-8944
网前	-8945
网里	-8946
罗德	-8947
罗斯	-8948
美容	-8949
美的	-8950
翻倒	-8951
耐克	-8952
耳膜	-8953
耳边	-8954
背疼	-8955
胡拉	-8956
胡普	-8957
胡闹	-8958
胸围	-8959
能够	-8960
脚印	-8961
脚步	-8962
脚踢	-8963
脱鞋	-8964
航海	-8965
艘船	-8966
芥末	-8967
花了	-8968
花店	-8969
花点	-8970
花的	-8971
花盆	-8972
若干	-8973
草草	-8974
荧光	-8975
荫下	-8976
菜肴	-8977
菠萝	-8978
营业	-8979
蓝绿	-8980
蓝船	-8981
蓝队	-8982
螺丝	-8983
街舞	-8984
表示	-8985
袍的	-8986
被打	-8987
装上	-8988
装载	-8989
要从	-8990
要求	-8991
角度	-8992
解决	-8993
警示	-8994
订购	-8995
讲课	-8996
访问	-8997
语吗	-8998
语言	-8999
课上	-9000
贫穷	-9001
贴在	-9002
走道	-9003
超级	-9004
跑进	-9005
跟踪	-9006
跨越	-9007
跳向	-9008
跳水	-9009
跳蚤	-9010
踢到	-9011
踢脚	-9012
踩着	-9013
蹦床	-9014
车从	-9015
车窗	-9016
轻轻	-9017
过山	-9018
过来	-9019
迎接	-9020
运送	-9021
这样	-9022
这次	-9023
进球	-9024
迪斯	-9025
追击	-9026
追牛	-9027
退房	-9028
逃离	-9029
逮捕	-9030
遇到	-9031
邮局	-9032
酒瓶	-9033
重要	-9034
野战	-9035
野生	-9036
针纹	-9037
铁匠	-9038
铲土	-9039
铺平	-9040
链条	-9041
长号	-9042
长桌	-9043
长腿	-9044
长途	-9045
闪光	-9046
闭上	-9047
防毒	-9048
阻拦	-9049
阻挡	-9050
院的	-9051
随随	-9052
雪盖	-9053
雪糕	-9054
雪铲	-9055
零售	-9056
青蛙	-9057
面纱	-9058
鞋的	-9059
领头	-9060
飞越	-9061
飞镖	-9062
餐巾	-9063
马尾	-9064
骑士	-9065
高山	-9066
高架	-9067
魅力	-9068
鱼类	-9069
黄金	-9070
黑领	-9071
黑鸟	-9072
鼓后	-9073
Kay	-9074
Leg	-9075
ark	-9076
art	-9077
ast	-9078
com	-9079
ers	-9080
uck	-9081
▁七个	-9082
▁今晚	-9083
▁体育	-9084
▁六位	-9085
▁几辆	-9086
▁台上	-9087
▁夜间	-9088
▁她在	-9089
▁宝宝	-9090
▁山地	-9091
▁已婚	-9092
▁戴蓝	-9093
▁护士	-9094
▁旅游	-9095
▁朋友	-9096
▁歌手	-9097
▁没有	-9098
▁河水	-9099
▁演出	-9100
▁男的	-9101
▁登山	-9102
▁白色	-9103
▁看来	-9104
▁短发	-9105
▁紧急	-9106
▁美丽	-9107
▁舞蹈	-9108
▁蓝衣	-9109
▁街道	-9110
▁赛车	-9111
▁身处	-9112
▁这名	-9113
▁远足	-9114
▁酒保	-9115
▁雄性	-9116
▁雪橇	-9117
▁面包	-9118
▁高中	-9119
一个吻	-9120
一个带	-9121
一具水	-9122
一只腿	-9123
一名女	-9124
一座大	-9125
一座山	-9126
一条红	-9127
一条腿	-9128
一条街	-9129
一样的	-9130
一篮子	-9131
一边在	-9132
三角形	-9133
上展示	-9134
上看着	-9135
上衣和	-9136
上表演	-9137
上跳舞	-9138
下水道	-9139
不知道	-9140
不高兴	-9141
与两名	-9142
丘陵上	-9143
两个穿	-9144
两人则	-9145
两匹马	-9146
两棵树	-9147
个月去	-9148
中休息	-9149
为一群	-9150
乐团在	-9151
了一堆	-9152
了一辆	-9153
了他的	-9154
交通中	-9155
亮绿色	-9156
人力车	-9157
什么的	-9158
从树上	-9159
从蓝色	-9160
仓库里	-9161
他的女	-9162
他的脚	-9163
他的面	-9164
休息在	-9165
似乎是	-9166
低头看	-9167
倒在地	-9168
假扮成	-9169
做东西	-9170
做特技	-9171
做翻转	-9172
像男人	-9173
充斥着	-9174
六个人	-9175
其中一	-9176
军官在	-9177
冰场上	-9178
准备投	-9179
出来时	-9180
击球手	-9181
划一条	-9182
则坐在	-9183
则盯着	-9184
前跳舞	-9185
办公桌	-9186
勃根第	-9187
升起的	-9188
华盛顿	-9189
卖东西	-9190
卡其子	-9191
却坐在	-9192
去购物	-9193
参观了	-9194
双胞胎	-9195
右手边	-9196
吃午餐	-9197
吃热狗	-9198
吃蛋糕	-9199
吃顿饭	-9200
吉他的	-9201
吊床上	-9202
后翻转	-9203
向前看	-9204
向右看	-9205
向外看	-9206
听耳机	-9207
吹口琴	-9208
吹叶机	-9209
吹笛子	-9210
吹风机	-9211
和三名	-9212
和乐队	-9213
和女人	-9214
和女儿	-9215
和女的	-9216
和放松	-9217
和涂鸦	-9218
和粉色	-9219
和观众	-9220
和跳跃	-9221
哈斯基	-9222
唱着一	-9223
商店外	-9224
喜欢吃	-9225
喝酒时	-9226
喷洒水	-9227
嗓子疼	-9228
回头看	-9229
围巾和	-9230
围成一	-9231
在一台	-9232
在一堵	-9233
在一幅	-9234
在一排	-9235
在上涨	-9236
在下面	-9237
在人们	-9238
在公共	-9239
在前台	-9240
在前景	-9241
在城里	-9242
在大学	-9243
在大楼	-9244
在幕后	-9245
在水下	-9246
在街边	-9247
在酒店	-9248
地上的	-9249
地平线	-9250
地铁里	-9251
坐在白	-9252
坐在蓝	-9253
坐着时	-9254
垃圾车	-9255
士兵的	-9256
大城市	-9257
大自然	-9258
大部分	-9259
夹克在	-9260
奥巴马	-9261
女人从	-9262
她们的	-9263
她的头	-9264
她面前	-9265
妈妈的	-9266
姑娘在	-9267
子旁边	-9268
子里的	-9269
宁静的	-9270
家人在	-9271
家具上	-9272
家门口	-9273
寄生虫	-9274
对手在	-9275
对立队	-9276
小货车	-9277
少女在	-9278
屏障上	-9279
展示着	-9280
岩石山	-9281
工程师	-9282
巨石上	-9283
帆船上	-9284
帐篷的	-9285
带着绿	-9286
广场的	-9287
废弃的	-9288
度假村	-9289
弹他的	-9290
录音室	-9291
往上看	-9292
很新鲜	-9293
很无聊	-9294
得很高	-9295
快乐的	-9296
忽略了	-9297
思熟虑	-9298
感兴趣	-9299
戴着白	-9300
扑克牌	-9301
打个盹	-9302
打开了	-9303
打键盘	-9304
扔下来	-9305
托德勒	-9306
扩音器	-9307
找东西	-9308
把木头	-9309
抽雪茄	-9310
拉下来	-9311
拍照时	-9312
拐杖的	-9313
拿着网	-9314
指着他	-9315
挡住了	-9316
排球员	-9317
排球队	-9318
探险家	-9319
摄影棚	-9320
摇摆时	-9321
摇摆着	-9322
播放器	-9323
救生员	-9324
斯特罗	-9325
新鲜鱼	-9326
旁看着	-9327
旧楼前	-9328
时举起	-9329
晒太阳	-9330
晚上用	-9331
暴风雨	-9332
有三名	-9333
有两人	-9334
有两名	-9335
有几条	-9336
有橙色	-9337
有蓝色	-9338
有迹象	-9339
服装在	-9340
朝镜头	-9341
木栅栏	-9342
本垒打	-9343
机旁边	-9344
杆子上	-9345
杯饮料	-9346
柜台的	-9347
标志下	-9348
标志的	-9349
树前的	-9350
树后面	-9351
格子帽	-9352
桌边的	-9353
桶子上	-9354
检查了	-9355
棒球棒	-9356
森林中	-9357
模糊的	-9358
正在把	-9359
正坐在	-9360
正走向	-9361
毛巾上	-9362
毛茸茸	-9363
毯子下	-9364
水管里	-9365
水面的	-9366
水龙头	-9367
沙城堡	-9368
沙子的	-9369
河岸上	-9370
沾满了	-9371
波士顿	-9372
泥坑里	-9373
泳衣和	-9374
洗衣店	-9375
洛杉矶	-9376
浅色的	-9377
海岸上	-9378
海报前	-9379
深绿色	-9380
清理了	-9381
滑雪杆	-9382
漫步时	-9383
漫长的	-9384
炎热的	-9385
照亮的	-9386
照耀着	-9387
爬上山	-9388
牛仔裙	-9389
牧羊犬	-9390
物品的	-9391
独身的	-9392
玩具的	-9393
玩垒球	-9394
玩杂耍	-9395
玩泡泡	-9396
玩滚轮	-9397
玩网球	-9398
玩跳棋	-9399
玻璃瓶	-9400
球员从	-9401
球场的	-9402
球队在	-9403
瓶子和	-9404
瓶子的	-9405
瓶子里	-9406
用一根	-9407
用橙色	-9408
用玩具	-9409
用相机	-9410
用蓝色	-9411
用雨伞	-9412
用黄色	-9413
电线杆	-9414
电话杆	-9415
男子则	-9416
男孩的	-9417
画布上	-9418
白人在	-9419
白条纹	-9420
白色大	-9421
白裤子	-9422
的一侧	-9423
的一栋	-9424
的一棵	-9425
的一组	-9426
的两名	-9427
的事情	-9428
的人被	-9429
的人都	-9430
的图像	-9431
的地毯	-9432
的外观	-9433
的太阳	-9434
的小组	-9435
的工具	-9436
的手势	-9437
的手指	-9438
的手提	-9439
的手表	-9440
的旗帜	-9441
的杂耍	-9442
的标签	-9443
的树下	-9444
的树桩	-9445
的海报	-9446
的涂鸦	-9447
的演讲	-9448
的灰狗	-9449
的焦点	-9450
的瓶子	-9451
的箱子	-9452
的织物	-9453
的背后	-9454
的胡子	-9455
的街边	-9456
的观众	-9457
的赛车	-9458
的陪伴	-9459
的鞋子	-9460
的音乐	-9461
的顶峰	-9462
的颜色	-9463
监视下	-9464
盘子上	-9465
盯着看	-9466
直升机	-9467
看一本	-9468
看一看	-9469
看他的	-9470
看望了	-9471
看着像	-9472
看艺术	-9473
看远处	-9474
真正的	-9475
眼睁睁	-9476
眼镜的	-9477
着一栋	-9478
着眼睛	-9479
碗食物	-9480
礼服和	-9481
祖父母	-9482
离地面	-9483
秋千中	-9484
空荡荡	-9485
穿灰色	-9486
穿着皮	-9487
穿着绿	-9488
穿着高	-9489
站在他	-9490
笑得像	-9491
箱子的	-9492
终点站	-9493
编织的	-9494
美人鱼	-9495
翻转的	-9496
老女人	-9497
老妇人	-9498
而一些	-9499
而一位	-9500
而对手	-9501
耍把戏	-9502
肚子疼	-9503
肩上扛	-9504
肩并肩	-9505
肮脏的	-9506
背上的	-9507
背包上	-9508
背景上	-9509
背面是	-9510
脚放在	-9511
脱衣衫	-9512
脸上的	-9513
舞会上	-9514
舞台的	-9515
花园的	-9516
英尺高	-9517
草丛中	-9518
草场上	-9519
荒凉的	-9520
蓝短裤	-9521
藏起来	-9522
行人和	-9523
衣绳上	-9524
补给品	-9525
袜子和	-9526
被发现	-9527
被安排	-9528
被看到	-9529
装的人	-9530
西红柿	-9531
覆盖了	-9532
观众群	-9533
警察在	-9534
讲电话	-9535
设置了	-9536
试图给	-9537
贝雷帽	-9538
走在石	-9539
走廊里	-9540
起居室	-9541
起飞了	-9542
足球的	-9543
跑者在	-9544
路中间	-9545
路过者	-9546
跳到另	-9547
跳高了	-9548
踢一个	-9549
身穿蓝	-9550
身穿黑	-9551
身边的	-9552
车前面	-9553
车经过	-9554
边玩耍	-9555
运动场	-9556
迪士尼	-9557
追一个	-9558
里的人	-9559
里程碑	-9560
里面的	-9561
金狗在	-9562
锯木板	-9563
长头发	-9564
队球员	-9565
防晒衣	-9566
阴影中	-9567
隔间里	-9568
集中在	-9569
集装箱	-9570
雇员在	-9571
雪天使	-9572
雪衣的	-9573
面写着	-9574
面前的	-9575
面包店	-9576
面对面	-9577
面有个	-9578
面罩的	-9579
靴子和	-9580
额头上	-9581
食品站	-9582
马尾辫	-9583
马车在	-9584
马车里	-9585
骑牛者	-9586
骑马时	-9587
鲜花的	-9588
黑板上	-9589
鼻子上	-9590
鼻子里	-9591
aker	-9592
▁一个土	-9593
▁一个由	-9594
▁一个高	-9595
▁一小群	-9596
▁一组在	-9597
▁一群大	-9598
▁三个戴	-9599
▁三名穿	-9600
▁两匹马	-9601
▁人群中	-9602
▁他们在	-9603
▁他很吵	-9604
▁他很没	-9605
▁他明年	-9606
▁你会说	-9607
▁你能把	-9608
▁俯视着	-9609
▁六个人	-9610
▁厨房里	-9611
▁四个穿	-9612
▁四分卫	-9613
▁在一条	-9614
▁在室内	-9615
▁大学生	-9616
▁她喜怒	-9617
▁她明天	-9618
▁小孩子	-9619
▁小狗在	-9620
▁建筑物	-9621
▁当人们	-9622
▁我背疼	-9623
▁房间里	-9624
▁手机上	-9625
▁棕色马	-9626
▁沙滩上	-9627
▁滑板上	-9628
▁火车站	-9629
▁照片上	-9630
▁球员在	-9631
▁男人从	-9632
▁男人穿	-9633
▁男孩把	-9634
▁白头发	-9635
▁穿着绿	-9636
▁穿短裤	-9637
▁粉红色	-9638
▁网球手	-9639
▁街道上	-9640
▁观众在	-9641
▁身穿红	-9642
▁这家伙	-9643
▁飞行员	-9644
▁骑摩托	-9645
一个人有	-9646
一个微笑	-9647
一个木制	-9648
一个没有	-9649
一个穿绿	-9650
一个站着	-9651
一些空气	-9652
一些食物	-9653
一件物品	-9654
一位绅士	-9655
一具水体	-9656
一台机器	-9657
一堆垃圾	-9658
一头母牛	-9659
一对情侣	-9660
一小群人	-9661
一条绳子	-9662
一栋建筑	-9663
一栋房子	-9664
一辆推车	-9665
一辆车上	-9666
一辆黑色	-9667
三只狗在	-9668
上面贴着	-9669
不同年龄	-9670
世界国家	-9671
两名儿童	-9672
中国餐馆	-9673
举着国旗	-9674
举行仪式	-9675
举起拇指	-9676
之间行走	-9677
乐于助人	-9678
乐队伴奏	-9679
亚洲人在	-9680
亮黄色的	-9681
人和一件	-9682
人物站在	-9683
人行道下	-9684
从一个大	-9685
从后面看	-9686
从斜坡上	-9687
他们的狗	-9688
令人兴奋	-9689
仰望天空	-9690
休息一下	-9691
休息休息	-9692
传统长袍	-9693
伸出舌头	-9694
伸展伸展	-9695
作出反应	-9696
俯视着一	-9697
俱乐部里	-9698
做点什么	-9699
停在街上	-9700
停车场的	-9701
儿童一起	-9702
公交车上	-9703
其中一名	-9704
写在一张	-9705
农村地区	-9706
冰淇淋车	-9707
准备开始	-9708
准备抓住	-9709
准备比赛	-9710
切成小块	-9711
到另一个	-9712
匹棕色马	-9713
卡其短裤	-9714
卡车停在	-9715
卡车前面	-9716
厨房准备	-9717
厨房工作	-9718
参加派对	-9719
另一只手	-9720
另外两名	-9721
同时拿着	-9722
名男子在	-9723
后面还有	-9724
向后倾斜	-9725
向摄像机	-9726
和一只大	-9727
和他的狗	-9728
和平迹象	-9729
和摩托车	-9730
和背景里	-9731
和骑马者	-9732
和黑狗在	-9733
咖啡桌上	-9734
唱着一个	-9735
唱诗班在	-9736
喷泉玩耍	-9737
嘴里装着	-9738
因为他们	-9739
围成一圈	-9740
围栏附近	-9741
在一本书	-9742
在他身边	-9743
在他面前	-9744
在城市里	-9745
在外面玩	-9746
在大腿上	-9747
在斜坡上	-9748
在树林里	-9749
地等待着	-9750
地面上的	-9751
场比赛中	-9752
坐在公园	-9753
坐在红色	-9754
外面画画	-9755
夫妇坐在	-9756
女士正在	-9757
女士站在	-9758
妇女一起	-9759
婴儿玩耍	-9760
对手球员	-9761
对着一个	-9762
小丑化妆	-9763
小孩的手	-9764
少年男孩	-9765
展示如何	-9766
工作室里	-9767
带着一只	-9768
带着他的	-9769
带着钱包	-9770
带着黄色	-9771
帽子穿着	-9772
年轻男子	-9773
幻灯片上	-9774
幼儿正在	-9775
庆祝他的	-9776
建了一座	-9777
建筑工程	-9778
开车经过	-9779
彩色衣服	-9780
彼此相邻	-9781
徒步者在	-9782
得克萨斯	-9783
得非常高	-9784
恤的妇女	-9785
惊慌失措	-9786
成年男性	-9787
戴太阳镜	-9788
戴护目镜	-9789
戴着红色	-9790
戴着蓝色	-9791
户外餐厅	-9792
手在空中	-9793
打高尔夫	-9794
扔橄榄球	-9795
拇指举起	-9796
拖拉机上	-9797
拖着一辆	-9798
拿着啤酒	-9799
拿着粉色	-9800
拿着罐子	-9801
拿着鲜花	-9802
指着一个	-9803
挡风玻璃	-9804
挥舞秋千	-9805
排队等候	-9806
推到街上	-9807
携带行李	-9808
摄像机上	-9809
摆着一个	-9810
摆着姿势	-9811
摇摇晃晃	-9812
摔跤比赛	-9813
摩托车在	-9814
摩托骑手	-9815
操场设备	-9816
攀岩墙上	-9817
教堂外面	-9818
文书工作	-9819
旁边的人	-9820
时睡着了	-9821
明亮橙色	-9822
是蓝色的	-9823
曲棍球队	-9824
有些人在	-9825
有几个人	-9826
有色人种	-9827
服务员在	-9828
服装跳舞	-9829
木质平台	-9830
条纹毛衣	-9831
某个地方	-9832
树荫下的	-9833
桌子旁边	-9834
检查一辆	-9835
棕发女人	-9836
棕帽子的	-9837
棕色的马	-9838
棕色衬衫	-9839
橙色衬衫	-9840
欢欣鼓舞	-9841
正在休息	-9842
正在发生	-9843
正在尝试	-9844
正在拍照	-9845
正在接受	-9846
正在欣赏	-9847
正在空中	-9848
正在等待	-9849
正在观察	-9850
正在通过	-9851
正规服装	-9852
比基尼的	-9853
比赛开始	-9854
毛衣和蓝	-9855
水中玩耍	-9856
水里喷水	-9857
汽车旁边	-9858
汽车经过	-9859
沙滩边的	-9860
河上划船	-9861
沿着街道	-9862
沿街行走	-9863
海滩排球	-9864
海滩附近	-9865
深思熟虑	-9866
游泳池的	-9867
游泳池边	-9868
游泳者在	-9869
滑向一个	-9870
滑雪板人	-9871
滚轮比赛	-9872
潜水员在	-9873
潜水板上	-9874
灌木丛里	-9875
烤架上做	-9876
牛仔短裤	-9877
玩水龙头	-9878
玩牌游戏	-9879
玩萨克斯	-9880
生日蛋糕	-9881
用摄像头	-9882
用照相机	-9883
男人旁边	-9884
男孩一起	-9885
男性正在	-9886
画了一幅	-9887
白色建筑	-9888
白色的白	-9889
白色衣服	-9890
白裙子的	-9891
的人带着	-9892
的人躺在	-9893
的停车场	-9894
的妇女正	-9895
的妇女用	-9896
的小巷里	-9897
的小提琴	-9898
的屋顶上	-9899
的山坡上	-9900
的岩石上	-9901
的树干上	-9902
的树荫下	-9903
的楼梯上	-9904
的汽车上	-9905
的沙发上	-9906
的老妇人	-9907
的舞台上	-9908
的舞者在	-9909
的院子里	-9910
盯着他们	-9911
相互竞争	-9912
看着一只	-9913
看着一辆	-9914
看着婴儿	-9915
瞄准目标	-9916
石头建筑	-9917
石头楼梯	-9918
砖楼外面	-9919
砖楼旁边	-9920
硬木地板	-9921
穿着毛衣	-9922
穿着非常	-9923
穿着黑白	-9924
穿过一座	-9925
穿黑裤子	-9926
站在一群	-9927
站在两个	-9928
站在山上	-9929
站着站着	-9930
站着聊天	-9931
竞争对手	-9932
笑着拿着	-9933
等待交通	-9934
等待地铁	-9935
红色夹克	-9936
纪念碑上	-9937
纸杯蛋糕	-9938
终极飞盘	-9939
绿色植物	-9940
翻滚拖鞋	-9941
老年男子	-9942
而一个人	-9943
而人们却	-9944
背上有个	-9945
背背背包	-9946
脸上一副	-9947
脸上戴着	-9948
自动售货	-9949
自行车和	-9950
舞者正在	-9951
船甲板上	-9952
花点时间	-9953
草地山上	-9954
莫霍克人	-9955
蓝牛仔裤	-9956
蓝的天空	-9957
蓝色汽车	-9958
蓝色背包	-9959
街上的人	-9960
街上跳舞	-9961
街头节日	-9962
街头集市	-9963
街机里玩	-9964
街舞演员	-9965
衬衫正在	-9966
衬衫的老	-9967
装满水的	-9968
装的人在	-9969
装饰装饰	-9970
贝雷帽和	-9971
走向一个	-9972
起居室的	-9973
足球赛上	-9974
跑步者在	-9975
跑者正在	-9976
跑进水里	-9977
跳上跳下	-9978
跳下岩石	-9979
跳下楼梯	-9980
跳下秋千	-9981
跳到一个	-9982
跳来跳去	-9983
跳过木头	-9984
跳过酒吧	-9985
跳进大海	-9986
身穿白衣	-9987
身穿红色	-9988
躺在街上	-9989
转过身来	-9990
还有一个	-9991
进行手术	-9992
那里得到	-9993
金发男孩	-9994
金属物体	-9995
防毒面具	-9996
附近工作	-9997
附近玩耍	-9998
雪上滑雪	-9999
雪中走过	-10000
靠在一栋	-10001
靠在一辆	-10002
靠着一个	-10003
靠着一辆	-10004
靠近水边	-10005
飞过水面	-10006
食品市场	-10007
餐厅吃饭	-10008
骑着白马	-10009
高加索人	-10010
高草地上	-10011
黄色衬衫	-10012
黄衬衫的	-10013
黑人儿童	-10014
黑发女人	-10015
Legos	-10016
▁一个亚裔	-10017
▁一个可爱	-10018
▁一个头发	-10019
▁一个戴白	-10020
▁一个拥有	-10021
▁一个棒球	-10022
▁一个牛仔	-10023
▁一个穿长	-10024
▁一个警察	-10025
▁一个超重	-10026
▁一个身戴	-10027
▁一位印度	-10028
▁一位母亲	-10029
▁一只晒黑	-10030
▁一只灰色	-10031
▁一只黄狗	-10032
▁一名印度	-10033
▁一名白人	-10034
▁一名警卫	-10035
▁一名身戴	-10036
▁一名黑人	-10037
▁一群中东	-10038
▁一群四人	-10039
▁一群男人	-10040
▁一群穿黑	-10041
▁一群非洲	-10042
▁一辆卡车	-10043
▁一辆汽车	-10044
▁一辆黄色	-10045
▁三人坐在	-10046
▁三名工人	-10047
▁三名年轻	-10048
▁两个亚裔	-10049
▁两个人乘	-10050
▁两个年长	-10051
▁两个戴着	-10052
▁两个白人	-10053
▁两个穿红	-10054
▁两个黑发	-10055
▁两人正在	-10056
▁两位女性	-10057
▁两只灰狗	-10058
▁两只雌鸟	-10059
▁两只黑狗	-10060
▁两名工人	-10061
▁人们坐着	-10062
▁人们走过	-10063
▁今天气温	-10064
▁他对别人	-10065
▁他很无私	-10066
▁他很残忍	-10067
▁他很粗鲁	-10068
▁他很胆小	-10069
▁几个孩子	-10070
▁四名身着	-10071
▁四名身穿	-10072
▁在海滩上	-10073
▁大棕色狗	-10074
▁女人坐在	-10075
▁女孩们在	-10076
▁她很健忘	-10077
▁她很友好	-10078
▁她很大方	-10079
▁她很安静	-10080
▁她很活泼	-10081
▁她很自私	-10082
▁她很诚实	-10083
▁她昨天买	-10084
▁妇女正在	-10085
▁孩子们和	-10086
▁工人正在	-10087
▁年轻女人	-10088
▁我们上周	-10089
▁我嗓子疼	-10090
▁我很伤心	-10091
▁我很冷静	-10092
▁我很生气	-10093
▁我肚子疼	-10094
▁戴帽子和	-10095
▁有三个人	-10096
▁有两个人	-10097
▁有个小孩	-10098
▁消防员在	-10099
▁滑雪者在	-10100
▁男人坐在	-10101
▁男人看着	-10102
▁男孩坐在	-10103
▁穿着婚纱	-10104
▁穿短裤和	-10105
▁穿蓝裙子	-10106
▁穿黑裤子	-10107
▁老年妇女	-10108
▁背着背包	-10109
▁街上有个	-10110
▁身着灰色	-10111
▁身着黑白	-10112
▁身穿灰色	-10113
▁身穿黑白	-10114
▁音乐家在	-10115
▁骑摩托车	-10116
▁黑人男性	-10117
一个小女孩	-10118
一个男人的	-10119
一个男孩在	-10120
一个穿红衣	-10121
一只手拿着	-10122
一块大石头	-10123
一块石头上	-10124
一条小船上	-10125
一栋大楼前	-10126
一群人站在	-10127
一辆购物车	-10128
两个女人在	-10129
之间的一条	-10130
了一个网球	-10131
亚洲人站在	-10132
人穿着蓝色	-10133
人群面前的	-10134
人行道上玩	-10135
从后面看到	-10136
他们的手臂	-10137
他们的照片	-10138
他的手机上	-10139
使用计算机	-10140
冰球运动员	-10141
凉鞋的男人	-10142
则在背景中	-10143
制服的家伙	-10144
医院的床上	-10145
即将到来的	-10146
厨房里做饭	-10147
去了博物馆	-10148
变得越来越	-10149
另一支球队	-10150
可塑石街上	-10151
名男子正在	-10152
向人群挥手	-10153
和一个穿着	-10154
和一位女士	-10155
和他的儿子	-10156
和其他物品	-10157
和棕色的狗	-10158
哭泣的婴儿	-10159
商店窗户前	-10160
啦啦队员在	-10161
喷气式飞机	-10162
嘉年华比赛	-10163
嘉年华游戏	-10164
嘴里的东西	-10165
圣诞树前面	-10166
在一条街上	-10167
在户外市场	-10168
在街上表演	-10169
在音乐会上	-10170
坐在他面前	-10171
坐在公园的	-10172
坐在楼梯上	-10173
坐在码头上	-10174
坦克顶顶上	-10175
垒球运动员	-10176
城市环境中	-10177
城市的天线	-10178
夹克和帽子	-10179
夹克的孩子	-10180
女人正在看	-10181
女孩在外面	-10182
安全背心和	-10183
实验室大衣	-10184
对着摄影机	-10185
小女孩看着	-10186
帽子的孩子	-10187
年纪较大的	-10188
年龄较大的	-10189
建筑的侧面	-10190
弹吉他唱歌	-10191
弹吉他的人	-10192
弹红色吉他	-10193
弹贝斯吉他	-10194
当一个女人	-10195
当着他的面	-10196
微笑的男人	-10197
德国牧羊人	-10198
德国牧羊犬	-10199
成年人穿着	-10200
成年人站在	-10201
戴着帽子和	-10202
戴着粉红色	-10203
户外咖啡厅	-10204
户外楼梯上	-10205
手里握着一	-10206
拍她的照片	-10207
拥挤的市场	-10208
拥挤的户外	-10209
拿着一个大	-10210
拿着一大堆	-10211
拿着蓝色的	-10212
拿着足球球	-10213
拿着黄色的	-10214
操场设备上	-10215
旁边的一条	-10216
旁边的地上	-10217
旁边的男人	-10218
晚上在街上	-10219
有两个孩子	-10220
有两名妇女	-10221
有个小男孩	-10222
棕色椅子上	-10223
棕色沙发上	-10224
椅子上看着	-10225
楼梯旁边的	-10226
楼梯的顶端	-10227
正在做手术	-10228
毛衣的亚洲	-10229
水坑里玩耍	-10230
泥土里玩耍	-10231
派对上跳舞	-10232
浅蓝色衬衫	-10233
海洋附近的	-10234
海滩的岸边	-10235
游泳池里玩	-10236
游行中行走	-10237
游行中跳舞	-10238
滑雪运动员	-10239
漫长的一天	-10240
潜入游泳池	-10241
火车平台上	-10242
炉子上做饭	-10243
炎热的一天	-10244
热水浴缸里	-10245
狗在雪地里	-10246
玩沙滩排球	-10247
玩滚轮游戏	-10248
球帽的男人	-10249
用相机拍照	-10250
男子和一名	-10251
的人在一个	-10252
的女人笑着	-10253
的女人跪在	-10254
的小孩正在	-10255
的小男孩被	-10256
的建筑工人	-10257
的建筑物前	-10258
的棕色狗在	-10259
的男人拿着	-10260
的男人睡在	-10261
的男孩跳过	-10262
的男孩躺在	-10263
的老人正在	-10264
看着他们的	-10265
看着望远镜	-10266
看着窗外的	-10267
着一具水体	-10268
码头上看着	-10269
硬木地板上	-10270
礼服的女人	-10271
穿着比基尼	-10272
穿着白色的	-10273
穿着白裙子	-10274
穿着红衬衫	-10275
穿着绿色的	-10276
穿红色衣服	-10277
站在另一个	-10278
站在她身后	-10279
站在球场上	-10280
组成的小组	-10281
绑在绳子上	-10282
绿色的东西	-10283
绿色长椅上	-10284
美国国旗前	-10285
而一名妇女	-10286
脚手架工作	-10287
自动取款机	-10288
自行车附近	-10289
自行车骑手	-10290
艺术博物馆	-10291
草地上跳舞	-10292
草地里玩耍	-10293
衣服的男子	-10294
衬衫的亚洲	-10295
衬衫的家伙	-10296
足球制服的	-10297
跑向摄像头	-10298
跑在海滩上	-10299
跟一个男人	-10300
跳到沙滩上	-10301
跳在蹦床上	-10302
跳跃在一个	-10303
跳跃在空中	-10304
身着白衬衫	-10305
躺在地板上	-10306
轮胎轮椅上	-10307
迷你高尔夫	-10308
遮住他的脸	-10309
金发女人在	-10310
附近的一个	-10311
院子里玩耍	-10312
雪山下滑雪	-10313
靠在椅子上	-10314
面包车前面	-10315
食物和饮料	-10316
餐厅吃东西	-10317
骑着匹骑马	-10318
骑马的骑手	-10319
高尔夫球手	-10320
▁一个人坐着	-10321
▁一个人走过	-10322
▁一个人靠在	-10323
▁一个人驾驶	-10324
▁一个嘴里有	-10325
▁一个女人对	-10326
▁一个女人的	-10327
▁一个孤单的	-10328
▁一个戴墨镜	-10329
▁一个戴橙色	-10330
▁一个戴着绿	-10331
▁一个戴着蓝	-10332
▁一个戴着黑	-10333
▁一个男人被	-10334
▁一个男人要	-10335
▁一个男孩用	-10336
▁一个穿冬衣	-10337
▁一个穿泳裤	-10338
▁一个穿米色	-10339
▁一个穿粉红	-10340
▁一个穿黑裤	-10341
▁一个老男人	-10342
▁一些人正在	-10343
▁一些人站在	-10344
▁一位艺术家	-10345
▁一位黑头发	-10346
▁一只大黑狗	-10347
▁一只小黑狗	-10348
▁一只带着红	-10349
▁一只狗追着	-10350
▁一名年长的	-10351
▁一群人在看	-10352
▁一群人拿着	-10353
▁一群人躺在	-10354
▁一群人骑着	-10355
▁一辆穿红色	-10356
▁一辆赛车在	-10357
▁一辆黄色的	-10358
▁三个小男孩	-10359
▁两个人一起	-10360
▁两个人在看	-10361
▁两个人拿着	-10362
▁两个人背着	-10363
▁两个年轻人	-10364
▁两个穿短裤	-10365
▁两只大狗在	-10366
▁两只狗跑过	-10367
▁两名妇女在	-10368
▁两支足球队	-10369
▁人们在户外	-10370
▁今天又冷又	-10371
▁今天又热又	-10372
▁他正在打鼓	-10373
▁他正在洗车	-10374
▁几个人坐在	-10375
▁四个人穿着	-10376
▁四个男孩在	-10377
▁四名儿童在	-10378
▁坐在草地上	-10379
▁坐在长椅上	-10380
▁她喜怒无常	-10381
▁她很戏剧化	-10382
▁她很擅长吹	-10383
▁她很有抱负	-10384
▁她心地善良	-10385
▁她明天要去	-10386
▁孩子们坐在	-10387
▁年轻的亚洲	-10388
▁成人和儿童	-10389
▁我们上周末	-10390
▁我喜欢摄影	-10391
▁我喜欢滑雪	-10392
▁我喜欢航海	-10393
▁有些人坐在	-10394
▁母亲和女儿	-10395
▁父亲和儿子	-10396
▁白人男性在	-10397
▁穿红衬衫和	-10398
▁穿黑裙子的	-10399
▁这个人正在	-10400
▁这个图书馆	-10401
一个男人坐在	-10402
一个男人站在	-10403
一起走在街上	-10404
上衣和牛仔裤	-10405
上衣的女人在	-10406
乐队在舞台上	-10407
享受着他们的	-10408
人群面前演奏	-10409
他的土自行车	-10410
令人印象深刻	-10411
健身房打篮球	-10412
其中一人拿着	-10413
制服的人正在	-10414
制服的男孩在	-10415
制服的足球队	-10416
和一个成年人	-10417
和另一个男人	-10418
嘴里拿着一个	-10419
嘴里拿着一根	-10420
围巾的女人在	-10421
在一根柱子上	-10422
在城市街道上	-10423
在游泳池游泳	-10424
在舞台上表演	-10425
坐在彼此旁边	-10426
坐在桌边吃饭	-10427
坐在轮椅上的	-10428
墙上涂上涂鸦	-10429
大衣的女人在	-10430
大衣的小女孩	-10431
大衣的男人在	-10432
太阳镜的女人	-10433
夹克的小女孩	-10434
展示一些东西	-10435
帽子的男孩在	-10436
年伦敦奥运会	-10437
年轻的成年人	-10438
幻灯片的顶部	-10439
弹吉他的男人	-10440
恤的男人坐在	-10441
恤的男人正在	-10442
戴眼镜的男子	-10443
戴着红色帽子	-10444
护目镜的女孩	-10445
拿着一个盒子	-10446
旁边的桌子上	-10447
旁边的椅子上	-10448
旁边的海滩上	-10449
橄榄球比赛中	-10450
正在人行道上	-10451
正在穿过草地	-10452
水边的岩石上	-10453
水边跑来跑去	-10454
注意力集中在	-10455
用麦克风唱歌	-10456
白衬衫的男子	-10457
的一张桌子上	-10458
的小女孩站在	-10459
的年轻人正在	-10460
的骑自行车者	-10461
看着一个孩子	-10462
短裤的男孩在	-10463
穿着棕色衬衫	-10464
穿着红色礼服	-10465
穿着黑色背心	-10466
穿过城市街道	-10467
穿过林木地带	-10468
站在麦克风前	-10469
第三世界国家	-10470
红色和白色的	-10471
给一个小女孩	-10472
绿色和白色的	-10473
背景中有一个	-10474
蓝色和黄色的	-10475
衣服的女孩在	-10476
衬衫和白裤子	-10477
衬衫的女孩在	-10478
被一个成年人	-10479
裤子的男人在	-10480
西装的人站在	-10481
讨论一些事情	-10482
走过一条小路	-10483
青年男子站在	-10484
非裔美国人在	-10485
领带的男人在	-10486
麦克风里唱歌	-10487
▁一个人在一条	-10488
▁一个人在城市	-10489
▁一个人在水上	-10490
▁一个人在海洋	-10491
▁一个人在船上	-10492
▁一个人正在从	-10493
▁一个在滑板上	-10494
▁一个女人一边	-10495
▁一个女人睡在	-10496
▁一个孩子坐在	-10497
▁一个小孩坐在	-10498
▁一个小男孩把	-10499
▁一个年轻男人	-10500
▁一个拿着吉他	-10501
▁一个男人穿着	-10502
▁一个穿戴尼姆	-10503
▁一个穿着粉色	-10504
▁一个穿着黑白	-10505
▁一个穿短裤和	-10506
▁一个穿红裤子	-10507
▁一个老人站在	-10508
▁一个背着背包	-10509
▁一个身着灰色	-10510
▁一个金发美女	-10511
▁一个骑着红色	-10512
▁一位年轻女孩	-10513
▁一位金发碧眼	-10514
▁一名亚洲男子	-10515
▁一名建筑工人	-10516
▁一名男子穿着	-10517
▁一名男孩站在	-10518
▁一名老年妇女	-10519
▁一名身着红色	-10520
▁一名身穿红色	-10521
▁一对情侣坐在	-10522
▁一男一女穿着	-10523
▁一群人在街上	-10524
▁一群男人站在	-10525
▁一群穿着白色	-10526
▁一辆滑雪车在	-10527
▁三个小男孩在	-10528
▁两个人在一个	-10529
▁两个人在外面	-10530
▁两个人在水里	-10531
▁两个男孩站在	-10532
▁两名老年妇女	-10533
▁两支足球队在	-10534
▁人们走在一条	-10535
▁人们走过一个	-10536
▁他很没安全感	-10537
▁他正在做午饭	-10538
▁他正在做晚饭	-10539
▁他正在吹小号	-10540
▁他正在吹长笛	-10541
▁他正在洗衣服	-10542
▁在这张照片中	-10543
▁女人和男人在	-10544
▁我们去了一个	-10545
▁我们应该保护	-10546
▁我们要去剧院	-10547
▁我们要去医院	-10548
▁我们要去银行	-10549
▁我喜欢写故事	-10550
▁我喜欢看动作	-10551
▁摩托车赛车手	-10552
▁新娘和新郎在	-10553
▁有两个女孩在	-10554
▁棕色和白色的	-10555
▁穿红色夹克和	-10556
▁这位年轻女士	-10557
一条繁忙的街道	-10558
上衣的女人坐在	-10559
公共汽车站等候	-10560
冲浪者骑着波浪	-10561
和一个年轻女孩	-10562
和一个穿粉红色	-10563
唱着一个麦克风	-10564
在一大群人面前	-10565
在城市人行道上	-10566
坐在公园长椅上	-10567
城市里走来走去	-10568
夹克的女人正在	-10569
守门员试图阻止	-10570
帽子的男人坐在	-10571
帽子的男人站在	-10572
年轻人站在一个	-10573
推着一辆婴儿车	-10574
旁边的人行道上	-10575
服装的年轻女孩	-10576
条纹衬衫的男孩	-10577
棕色狗在草地上	-10578
滑板上表演特技	-10579
爬上一座陡峭的	-10580
用她的手机说话	-10581
的女人站在街上	-10582
的年轻女孩坐在	-10583
的年轻女孩站在	-10584
的男人正在看着	-10585
硬帽和安全背心	-10586
穿着蓝色牛仔裤	-10587
穿粉红色衬衫的	-10588
穿过拥挤的街道	-10589
穿过繁忙的街道	-10590
背心的男人站在	-10591
街对面走来走去	-10592
衣服的女人坐在	-10593
衣服的老年妇女	-10594
衬衫的年轻女孩	-10595
衬衫的男孩坐在	-10596
衬衫的男孩站在	-10597
裙子的女孩站在	-10598
西装的男人站在	-10599
运动衫和牛仔裤	-10600
骑摩托车的骑手	-10601
▁一个亚洲女人在	-10602
▁一个人在公园里	-10603
▁一个人在日落时	-10604
▁一个人在梯子上	-10605
▁一个人在雪地上	-10606
▁一个人拿着一个	-10607
▁一个女人在一家	-10608
▁一个女孩和一个	-10609
▁一个小女孩坐在	-10610
▁一个小女孩正在	-10611
▁一个年轻人站在	-10612
▁一个戴着黑帽子	-10613
▁一个戴黑帽子的	-10614
▁一个没有衬衫的	-10615
▁一个男人在一个	-10616
▁一个男人在一辆	-10617
▁一个穿黄色礼服	-10618
▁一个老人在街上	-10619
▁一个金发男孩在	-10620
▁一位女士和一位	-10621
▁一位老年妇女在	-10622
▁一只狗在沙滩上	-10623
▁一只狗在雪地里	-10624
▁一只白狗和一只	-10625
▁一名妇女和一名	-10626
▁一名年轻人站在	-10627
▁一名年轻女孩在	-10628
▁一名身着牛仔裤	-10629
▁一群人在海滩上	-10630
▁一群人看着一个	-10631
▁一群人聚集一堂	-10632
▁一辆骑自行车的	-10633
▁三个人在舞台上	-10634
▁两个人在海滩上	-10635
▁两个孩子在床上	-10636
▁他正在拉大提琴	-10637
▁四个男人和一个	-10638
▁她很擅长踢足球	-10639
▁我们要去博物馆	-10640
▁我们要去图书馆	-10641
▁我们要去电影院	-10642
▁我们需要修电脑	-10643
▁我喜欢徒步旅行	-10644
▁戴帽子的男人在	-10645
▁戴眼镜的女人在	-10646
▁穿牛仔裤的女人	-10647
▁穿白衬衫的男人	-10648
▁穿白衬衫的男子	-10649
▁穿红色夹克的人	-10650
▁穿红裙子的女人	-10651
▁穿绿衬衫的人在	-10652
▁穿蓝衬衫的男人	-10653
▁红衣足球运动员	-10654
▁这家餐厅的食物	-10655
人行道上走来走去	-10656
和蓝色夹克的男人	-10657
在一个美丽的一天	-10658
棒球帽的男人正在	-10659
球衣的足球运动员	-10660
白色冲浪板上冲浪	-10661
的人站在大楼前面	-10662
的女人坐在长椅上	-10663
的男人和一个穿着	-10664
的男人坐在长椅上	-10665
盛装盛装盛装盛装	-10666
繁忙的街道上行走	-10667
走在一条泥土路上	-10668
越快越好越快越好	-10669
骑着一辆土自行车	-10670
骑自行车的人正在	-10671
▁一个不穿衣服的人	-10672
▁一个人坐在桌子上	-10673
▁一个人坐在长凳上	-10674
▁一个人坐在长椅上	-10675
▁一个女人穿着黑色	-10676
▁一个女人骑自行车	-10677
▁一个戴眼镜的秃头	-10678
▁一个戴着黑帽子和	-10679
▁一个留胡子的男人	-10680
▁一个穿棕色夹克和	-10681
▁一个穿黄色和黑色	-10682
▁一个金发女孩穿着	-10683
▁一只嘴里塞着棍子	-10684
▁一只棕色狗和一只	-10685
▁一只狗在水里游泳	-10686
▁一只黑狗在草地上	-10687
▁两个足球运动员在	-10688
▁两个骑自行车的人	-10689
▁她很擅长打羽毛球	-10690
▁她很擅长拉小提琴	-10691
▁我们需要打扫厨房	-10692
▁我们需要打扫浴室	-10693
▁穿紫色衬衫的女人	-10694
▁穿红裙子的女人在	-10695
▁穿蓝衬衫的人正在	-10696
坦克顶部的年轻女子	-10697
狗在草地上跑来跑去	-10698
的男人和一个女人在	-10699
的男人在用手机说话	-10700
衬衫和黑裤子的男人	-10701
被涂鸦覆盖的建筑物	-10702
骑着一辆红色自行车	-10703
▁一个不穿衣服的人在	-10704
▁一个男人和两个女人	-10705
▁一个穿着条纹衬衫的	-10706
▁一个穿着黑色衣服的	-10707
▁一个金发碧眼的金发	-10708
▁一个骑摩托车的人在	-10709
▁一只白色和棕色的狗	-10710
▁一群人站在大楼外面	-10711
▁一群男人和女人坐在	-10712
▁一群骑自行车的人在	-10713
▁两只狗在草地上玩耍	-10714
▁我们需要买部新手机	-10715
▁穿蓝色夹克的女人在	-10716
▁一个穿棕色衬衫的男人	-10717
▁一个穿紫色衬衫的男人	-10718
▁一个穿红色衬衫的男人	-10719
▁一个穿红衬衫的小男孩	-10720
▁一个穿黄色衬衫的女人	-10721
▁一个穿黄色衬衫的男孩	-10722
▁一个穿黑衬衫和牛仔裤	-10723
▁一个身着白色坦克顶部	-10724
▁一只棕色的狗在草地上	-10725
▁两只棕色狗在雪地里玩	-10726
▁他是一位非常有经验的	-10727
▁一个女人和一个男人坐在	-10728
▁一个戴眼镜的男人和一个	-10729
▁一个穿白衬衫的男人正在	-10730
▁一个穿黑衣服的男人正在	-10731
▁两个男人和一个女人坐在	-10732
▁一个穿橙色衬衫的男人正在	-10733
▁一个穿粉红色裙子的小女孩	-10734
▁我们需要买台新笔记本电脑	-10735
▁一个戴眼镜的男人坐在桌子上	-10736
▁她是一位非常有才华的音乐家	-10737
08	-10738
14	-10739
24	-10740
25	-10741
40	-10742
96	-10743
?"	-10744
AA	-10745
AM	-10746
An	-10747
CE	-10748
DS	-10749
Ex	-10750
Gr	-10751
RO	-10752
SU	-10753
Sp	-10754
Ta	-10755
Th	-10756
VE	-10757
ag	-10758
ap	-10759
by	-10760
ca	-10761
do	-10762
et	-10763
fe	-10764
hn	-10765
ka	-10766
ks	-10767
mo	-10768
ny	-10769
ro	-10770
se	-10771
ue	-10772
ym	-10773
yo	-10774
”,	-10775
▁9	-10776
▁B	-10777
▁G	-10778
▁十	-10779
▁半	-10780
▁双	-10781
▁很	-10782
▁斯	-10783
▁机	-10784
▁此	-10785
▁每	-10786
▁沃	-10787
▁湿	-10788
▁用	-10789
▁胖	-10790
、1	-10791
」,	-10792
一列	-10793
一包	-10794
一帮	-10795
一束	-10796
一的	-10797
一箱	-10798
七点	-10799
三位	-10800
上午	-10801
上吃	-10802
上咬	-10803
上山	-10804
上身	-10805
下去	-10806
下楼	-10807
下水	-10808
下沉	-10809
下着	-10810
不准	-10811
不到	-10812
不安	-10813
不能	-10814
不见	-10815
与他	-10816
东亚	-10817
两位	-10818
两台	-10819
两头	-10820
两支	-10821
两点	-10822
严肃	-10823
严酷	-10824
个新	-10825
中型	-10826
中弹	-10827
中被	-10828
中转	-10829
中风	-10830
丰田	-10831
为荣	-10832
主义	-10833
举办	-10834
之下	-10835
之众	-10836
之路	-10837
乌合	-10838
乐手	-10839
乐观	-10840
乐高	-10841
乘车	-10842
乞讨	-10843
乡间	-10844
书店	-10845
书里	-10846
买家	-10847
乳头	-10848
乳胶	-10849
了大	-10850
了球	-10851
五个	-10852
井里	-10853
亚奇	-10854
亚特	-10855
交响	-10856
交织	-10857
交锋	-10858
亭里	-10859
亲手	-10860
亲近	-10861
人士	-10862
人用	-10863
人造	-10864
仇恨	-10865
介绍	-10866
从天	-10867
他正	-10868
他看	-10869
以便	-10870
们都	-10871
仰赖	-10872
仲裁	-10873
任天	-10874
仿佛	-10875
企图	-10876
休闲	-10877
会大	-10878
伞了	-10879
传给	-10880
伪装	-10881
伴在	-10882
伸伸	-10883
住所	-10884
作业	-10885
侦察	-10886
侧翼	-10887
保证	-10888
信片	-10889
候诊	-10890
做了	-10891
做功	-10892
储藏	-10893
僧侣	-10894
光滑	-10895
克莱	-10896
全副	-10897
全身	-10898
八点	-10899
公事	-10900
共用	-10901
共进	-10902
关注	-10903
关门	-10904
具体	-10905
内侧	-10906
内容	-10907
内部	-10908
再次	-10909
冒着	-10910
军队	-10911
冬帽	-10912
冰层	-10913
冰棒	-10914
冰雪	-10915
冰面	-10916
冲下	-10917
冲击	-10918
冲撞	-10919
冲进	-10920
准时	-10921
凉了	-10922
凉爽	-10923
凝视	-10924
几件	-10925
几何	-10926
几只	-10927
几座	-10928
几箱	-10929
出指	-10930
出生	-10931
击手	-10932
击打	-10933
击退	-10934
刀砍	-10935
分裂	-10936
划桨	-10937
则从	-10938
则被	-10939
创作	-10940
创意	-10941
利地	-10942
刮脸	-10943
刮风	-10944
到她	-10945
刺伤	-10946
刺穿	-10947
刻薄	-10948
剃头	-10949
前头	-10950
前往	-10951
前排	-10952
前读	-10953
前门	-10954
剑战	-10955
剪纸	-10956
力车	-10957
加州	-10958
动力	-10959
助理	-10960
北京	-10961
北极	-10962
半夜	-10963
卡尔	-10964
卧室	-10965
卫生	-10966
危险	-10967
卷起	-10968
卸下	-10969
压器	-10970
压扁	-10971
原始	-10972
去取	-10973
叉子	-10974
叉车	-10975
及其	-10976
友善	-10977
双眼	-10978
反向	-10979
反面	-10980
发明	-10981
受损	-10982
可怜	-10983
各出	-10984
合适	-10985
吊着	-10986
同学	-10987
同性	-10988
同情	-10989
名女	-10990
名是	-10991
后背	-10992
后被	-10993
向前	-10994
向外	-10995
向日	-10996
听到	-10997
听诊	-10998
吻合	-10999
呼呼	-11000
呼噜	-11001
咆哮	-11002
和一	-11003
和印	-11004
和四	-11005
和山	-11006
和皮	-11007
咬了	-11008
哭哭	-11009
商贩	-11010
啼啼	-11011
喜剧	-11012
喷涂	-11013
器材	-11014
器械	-11015
四人	-11016
四口	-11017
回击	-11018
回到	-11019
回答	-11020
围绕	-11021
固执	-11022
国外	-11023
国际	-11024
图象	-11025
土地	-11026
土坡	-11027
土壤	-11028
土路	-11029
圣帕	-11030
在外	-11031
在湖	-11032
在用	-11033
在红	-11034
在被	-11035
在雾	-11036
地球	-11037
坐落	-11038
坑船	-11039
坠毁	-11040
城外	-11041
基金	-11042
堆的	-11043
堡垒	-11044
塞满	-11045
墙旁	-11046
墨水	-11047
声响	-11048
复活	-11049
夏衣	-11050
外头	-11051
外表	-11052
外观	-11053
大了	-11054
大力	-11055
大大	-11056
大杆	-11057
大画	-11058
大雨	-11059
大黄	-11060
天上	-11061
头号	-11062
头在	-11063
奇幻	-11064
套房	-11065
套索	-11066
奥利	-11067
女友	-11068
女女	-11069
女装	-11070
她手	-11071
如果	-11072
孕妇	-11073
字段	-11074
字符	-11075
孙女	-11076
孤独	-11077
学后	-11078
宇航	-11079
官方	-11080
客车	-11081
家中	-11082
宽敞	-11083
宿舍	-11084
富翁	-11085
对他	-11086
对等	-11087
对讲	-11088
将头	-11089
尊重	-11090
小楼	-11091
小猫	-11092
小路	-11093
尔斯	-11094
就绪	-11095
尺寸	-11096
尼岛	-11097
尼龙	-11098
屋前	-11099
屏住	-11100
属于	-11101
山洞	-11102
巧妙	-11103
巴斯	-11104
带在	-11105
帮他	-11106
干干	-11107
平滑	-11108
年老	-11109
幼崽	-11110
庄稼	-11111
床垫	-11112
底底	-11113
底的	-11114
店看	-11115
座椅	-11116
庭院	-11117
建房	-11118
开口	-11119
开玩	-11120
开门	-11121
异国	-11122
张新	-11123
张照	-11124
弹黑	-11125
录影	-11126
彩票	-11127
待命	-11128
很忙	-11129
很柔	-11130
很棒	-11131
很深	-11132
得越	-11133
循环	-11134
微风	-11135
心形	-11136
心跳	-11137
忍者	-11138
志愿	-11139
忙于	-11140
性格	-11141
悬吊	-11142
悬着	-11143
想法	-11144
感人	-11145
感情	-11146
慢慢	-11147
成两	-11148
我是	-11149
戴上	-11150
所在	-11151
手册	-11152
手放	-11153
手柄	-11154
手空	-11155
手立	-11156
手肘	-11157
扑灭	-11158
打他	-11159
打印	-11160
打拳	-11161
打败	-11162
扶着	-11163
找人	-11164
找到	-11165
投资	-11166
抛掷	-11167
披着	-11168
拍子	-11169
拍手	-11170
拿出	-11171
指南	-11172
按摩	-11173
按键	-11174
挑剔	-11175
挑选	-11176
挖进	-11177
掉到	-11178
接力	-11179
接待	-11180
推荐	-11181
推过	-11182
推销	-11183
提前	-11184
提升	-11185
插在	-11186
插进	-11187
援助	-11188
搏斗	-11189
摄制	-11190
摄氏	-11191
摆个	-11192
摆姿	-11193
摆摆	-11194
摊旁	-11195
摔角	-11196
摸着	-11197
撞车	-11198
擦干	-11199
擦擦	-11200
支票	-11201
收听	-11202
放火	-11203
放牧	-11204
政府	-11205
救护	-11206
教徒	-11207
敬畏	-11208
敬酒	-11209
敲打	-11210
整个	-11211
文艺	-11212
斑斑	-11213
新灯	-11214
方块	-11215
旗子	-11216
旗球	-11217
无线	-11218
无论	-11219
日记	-11220
旧式	-11221
时把	-11222
明尼	-11223
昏时	-11224
晃去	-11225
普通	-11226
智能	-11227
暴力	-11228
有条	-11229
有水	-11230
有点	-11231
有球	-11232
朗特	-11233
望去	-11234
木匠	-11235
木材	-11236
木柱	-11237
木桩	-11238
术馆	-11239
朵花	-11240
机的	-11241
村民	-11242
条件	-11243
条腿	-11244
来了	-11245
杯里	-11246
松散	-11247
果园	-11248
枪口	-11249
枪的	-11250
架的	-11251
架起	-11252
柔软	-11253
柜里	-11254
校园	-11255
样子	-11256
桃子	-11257
桌外	-11258
档案	-11259
桨上	-11260
桶上	-11261
梳子	-11262
棒棒	-11263
棕黑	-11264
模具	-11265
模范	-11266
横行	-11267
橙子	-11268
欧元	-11269
正爬	-11270
死亡	-11271
死去	-11272
殖民	-11273
比尔	-11274
毛线	-11275
水喷	-11276
水壶	-11277
水平	-11278
水枪	-11279
水滑	-11280
水生	-11281
水路	-11282
池里	-11283
汽水	-11284
汽油	-11285
没穿	-11286
河前	-11287
沾满	-11288
沿路	-11289
波克	-11290
泥泥	-11291
泥里	-11292
注视	-11293
泰国	-11294
洋装	-11295
洗发	-11296
洪水	-11297
流中	-11298
流着	-11299
测器	-11300
浪浪	-11301
浮体	-11302
海豚	-11303
海面	-11304
海龟	-11305
涂有	-11306
消息	-11307
淋湿	-11308
深雪	-11309
混乱	-11310
混在	-11311
淹没	-11312
添加	-11313
清澈	-11314
清真	-11315
清除	-11316
渡过	-11317
温和	-11318
渴望	-11319
游到	-11320
游向	-11321
游过	-11322
湖人	-11323
湖前	-11324
湿沙	-11325
湿衣	-11326
滑坡	-11327
滚车	-11328
满地	-11329
满怀	-11330
满桌	-11331
滨海	-11332
潜伏	-11333
激动	-11334
火中	-11335
火前	-11336
火堆	-11337
火灾	-11338
灰帽	-11339
灰白	-11340
灰鸟	-11341
炉里	-11342
炸毁	-11343
点上	-11344
烟斗	-11345
烟草	-11346
烤鸡	-11347
热天	-11348
热身	-11349
煤渣	-11350
熊猫	-11351
爪子	-11352
爬下	-11353
爬在	-11354
爬来	-11355
爬行	-11356
爱抚	-11357
片和	-11358
牌前	-11359
牙医	-11360
牙套	-11361
物质	-11362
牲畜	-11363
特殊	-11364
特色	-11365
特许	-11366
状况	-11367
状态	-11368
狗屎	-11369
狗玩	-11370
独奏	-11371
独行	-11372
狮子	-11373
猎犬	-11374
猎鹰	-11375
玩红	-11376
玩铜	-11377
玩马	-11378
环形	-11379
环游	-11380
环顾	-11381
班上	-11382
球坑	-11383
甘蔗	-11384
用伞	-11385
用刀	-11386
用嘴	-11387
用电	-11388
用黑	-11389
电器	-11390
男童	-11391
画像	-11392
画墙	-11393
画面	-11394
疯子	-11395
登记	-11396
白沙	-11397
白粉	-11398
白雪	-11399
的侵	-11400
的吻	-11401
的旧	-11402
的看	-11403
的肉	-11404
的草	-11405
的血	-11406
的重	-11407
的针	-11408
的钱	-11409
的铁	-11410
的银	-11411
的高	-11412
监听	-11413
盔甲	-11414
直立	-11415
相遇	-11416
盾牌	-11417
看成	-11418
眼线	-11419
着烟	-11420
着球	-11421
着着	-11422
瞬间	-11423
石上	-11424
砂砾	-11425
砍树	-11426
砖地	-11427
砖铺	-11428
破布	-11429
确保	-11430
碰到	-11431
碾压	-11432
磨碎	-11433
礼貌	-11434
祖母	-11435
神秘	-11436
祷告	-11437
福德	-11438
离家	-11439
种花	-11440
称重	-11441
程序	-11442
空洞	-11443
穿了	-11444
穿在	-11445
穿破	-11446
穿衣	-11447
突出	-11448
突破	-11449
竖起	-11450
竞选	-11451
童在	-11452
童话	-11453
等奖	-11454
等她	-11455
筑墙	-11456
筛选	-11457
管上	-11458
箱上	-11459
精彩	-11460
精细	-11461
素食	-11462
紧跟	-11463
累赘	-11464
红带	-11465
红漆	-11466
红牛	-11467
红的	-11468
红绿	-11469
纱布	-11470
纸条	-11471
纸袋	-11472
纺织	-11473
细节	-11474
织织	-11475
终端	-11476
经营	-11477
经销	-11478
结了	-11479
维京	-11480
绿灯	-11481
绿袋	-11482
缠在	-11483
网络	-11484
罚单	-11485
美军	-11486
翻了	-11487
考古	-11488
而其	-11489
而另	-11490
而她	-11491
聆听	-11492
联系	-11493
肚皮	-11494
肩袋	-11495
背靠	-11496
脏水	-11497
脚下	-11498
脚在	-11499
脚踝	-11500
脱了	-11501
脸被	-11502
脸都	-11503
腿被	-11504
膝袜	-11505
膨胀	-11506
臀部	-11507
舒服	-11508
舔着	-11509
航班	-11510
艺妓	-11511
节奏	-11512
花环	-11513
荷马	-11514
蓝包	-11515
薯条	-11516
蘑菇	-11517
虫子	-11518
蜥蜴	-11519
血迹	-11520
行军	-11521
行证	-11522
街走	-11523
衣柜	-11524
被割	-11525
被送	-11526
裁缝	-11527
装作	-11528
装在	-11529
装货	-11530
装进	-11531
裙和	-11532
裹在	-11533
西方	-11534
要上	-11535
要和	-11536
观赏	-11537
解释	-11538
警服	-11539
警犬	-11540
记号	-11541
记得	-11542
记者	-11543
讲座	-11544
讲讲	-11545
讲逻	-11546
诺斯	-11547
读到	-11548
读着	-11549
读过	-11550
课前	-11551
调音	-11552
谦逊	-11553
贫瘠	-11554
贴有	-11555
贴纸	-11556
赛克	-11557
赤裸	-11558
走时	-11559
起跑	-11560
越野	-11561
跑狗	-11562
跨国	-11563
路工	-11564
路径	-11565
跳坡	-11566
跳起	-11567
踢出	-11568
蹄子	-11569
车主	-11570
转动	-11571
轻型	-11572
载体	-11573
辣椒	-11574
辩护	-11575
边界	-11576
达到	-11577
达州	-11578
达马	-11579
过敏	-11580
运河	-11581
这位	-11582
这是	-11583
这项	-11584
迪尔	-11585
迷路	-11586
迷雾	-11587
退伍	-11588
通向	-11589
道具	-11590
遥控	-11591
邮件	-11592
郁金	-11593
郊区	-11594
部门	-11595
都市	-11596
酒和	-11597
采集	-11598
里吹	-11599
里和	-11600
里抽	-11601
里看	-11602
野营	-11603
金子	-11604
钩子	-11605
钻头	-11606
钻孔	-11607
铁塔	-11608
铜像	-11609
铲铲	-11610
锥壳	-11611
锯锯	-11612
长们	-11613
长得	-11614
长棍	-11615
长相	-11616
长矛	-11617
门道	-11618
闲聊	-11619
闻着	-11620
队服	-11621
队长	-11622
防火	-11623
阳伞	-11624
阶段	-11625
附在	-11626
陆军	-11627
雪林	-11628
雪花	-11629
露着	-11630
静静	-11631
靠墙	-11632
鞋店	-11633
鞍上	-11634
韩国	-11635
顶和	-11636
顶层	-11637
顶端	-11638
预测	-11639
预订	-11640
领域	-11641
颈部	-11642
风扇	-11643
风衣	-11644
飞跃	-11645
食指	-11646
食用	-11647
饭菜	-11648
香水	-11649
马具	-11650
马夫	-11651
马特	-11652
马龙	-11653
驾车	-11654
骑警	-11655
骡子	-11656
高举	-11657
高岩	-11658
高的	-11659
鱼市	-11660
鲑鱼	-11661
鲜艳	-11662
鲜鲜	-11663
鸟群	-11664
麦片	-11665
黄船	-11666
黄花	-11667
黄袋	-11668
黑头	-11669
黑马	-11670
黑黑	-11671
鼓里	-11672
鼻孔	-11673
齐全	-11674
齐聚	-11675
012	-11676
Car	-11677
Doo	-11678
Lou	-11679
Mar	-11680
SUV	-11681
Sou	-11682
Wii	-11683
Yam	-11684
aha	-11685
arm	-11686
onJ	-11687
ris	-11688
uma	-11689
▁11	-11690
▁12	-11691
▁一匹	-11692
▁一台	-11693
▁一间	-11694
▁一队	-11695
▁专业	-11696
▁东方	-11697
▁两条	-11698
▁两艘	-11699
▁人有	-11700
▁你到	-11701
▁八名	-11702
▁公园	-11703
▁农民	-11704
▁准备	-11705
▁医生	-11706
▁医院	-11707
▁单人	-11708
▁卖主	-11709
▁四只	-11710
▁多个	-11711
▁多位	-11712
▁夜晚	-11713
▁大狗	-11714
▁夫妇	-11715
▁头上	-11716
▁女子	-11717
▁她对	-11718
▁妈妈	-11719
▁婚礼	-11720
▁市场	-11721
▁年幼	-11722
▁幼童	-11723
▁微笑	-11724
▁投手	-11725
▁抗争	-11726
▁抗议	-11727
▁摇滚	-11728
▁教授	-11729
▁数十	-11730
▁新郎	-11731
▁月亮	-11732
▁有四	-11733
▁栅栏	-11734
▁比赛	-11735
▁水艇	-11736
▁渔夫	-11737
▁游戏	-11738
▁游泳	-11739
▁现在	-11740
▁由于	-11741
▁秃头	-11742
▁穿成	-11743
▁穿花	-11744
▁紫色	-11745
▁脸上	-11746
▁花园	-11747
▁若干	-11748
▁蓝队	-11749
▁裁判	-11750
▁购物	-11751
▁赤脚	-11752
▁这件	-11753
▁这座	-11754
▁这所	-11755
▁阳光	-11756
▁雌性	-11757
▁骑手	-11758
一个碗	-11759
一个空	-11760
一块大	-11761
一堵墙	-11762
一大片	-11763
一家人	-11764
一家小	-11765
一小块	-11766
一张脸	-11767
一张长	-11768
一支烟	-11769
一方面	-11770
一条河	-11771
一条被	-11772
一条路	-11773
一条鱼	-11774
一栋旧	-11775
一栋有	-11776
一根黑	-11777
一系列	-11778
一艘船	-11779
一起看	-11780
一辆大	-11781
一辆货	-11782
一边做	-11783
一边吃	-11784
一边听	-11785
一边把	-11786
一边用	-11787
上方的	-11788
上火车	-11789
上面是	-11790
下有个	-11791
下楼梯	-11792
下雪了	-11793
下面看	-11794
不快乐	-11795
与一位	-11796
与一群	-11797
与他人	-11798
与另外	-11799
与身着	-11800
专注在	-11801
东西上	-11802
个小丑	-11803
个穿着	-11804
中国菜	-11805
中跳跃	-11806
中转站	-11807
为主题	-11808
为考试	-11809
乐团和	-11810
乒乓球	-11811
乘客在	-11812
书架前	-11813
买一些	-11814
了一口	-11815
了一名	-11816
了一把	-11817
了一拳	-11818
了一次	-11819
互相看	-11820
亚洲的	-11821
享受清	-11822
人提供	-11823
从他的	-11824
从斜坡	-11825
从桥上	-11826
从空中	-11827
从街上	-11828
从锅里	-11829
从雪中	-11830
仔细地	-11831
他们最	-11832
他的大	-11833
他的手	-11834
他的枪	-11835
他的胃	-11836
仪式上	-11837
仲裁人	-11838
价格是	-11839
任天堂	-11840
企业家	-11841
休息时	-11842
伸手拿	-11843
似乎很	-11844
似乎有	-11845
体育队	-11846
使用的	-11847
俄克拉	-11848
保险箱	-11849
修一下	-11850
修理工	-11851
倒了一	-11852
假发和	-11853
做体操	-11854
做傻脸	-11855
做准备	-11856
做功课	-11857
做各种	-11858
做手术	-11859
做演讲	-11860
做陶器	-11861
做面包	-11862
做面孔	-11863
儿童与	-11864
儿童则	-11865
儿童的	-11866
充气的	-11867
光亮的	-11868
入口外	-11869
公交站	-11870
公寓楼	-11871
典型的	-11872
冒出来	-11873
农场的	-11874
冰冻的	-11875
凝视着	-11876
出指控	-11877
出现在	-11878
列车上	-11879
利地说	-11880
到处乱	-11881
制造了	-11882
前完成	-11883
前拍摄	-11884
前排队	-11885
剪头发	-11886
动物的	-11887
包装纸	-11888
包起来	-11889
匹小马	-11890
医生和	-11891
单轮车	-11892
卡其斯	-11893
卡车和	-11894
卡车旁	-11895
卡车里	-11896
历史性	-11897
去山里	-11898
去远足	-11899
参赛者	-11900
友好的	-11901
双臂和	-11902
反射服	-11903
发光棒	-11904
变压器	-11905
口罩和	-11906
右边的	-11907
号车道	-11908
司机在	-11909
吃玉米	-11910
吃香蕉	-11911
同性恋	-11912
同情心	-11913
同龄人	-11914
名身戴	-11915
后休息	-11916
后背上	-11917
后面看	-11918
向不同	-11919
向几个	-11920
向地面	-11921
向日葵	-11922
听诊器	-11923
吸引了	-11924
告诉我	-11925
呼拉圈	-11926
和一支	-11927
和两辆	-11928
和人们	-11929
和各种	-11930
和妇女	-11931
和建筑	-11932
和捕手	-11933
和教练	-11934
和栅栏	-11935
和水管	-11936
和滑倒	-11937
和白狗	-11938
和穿着	-11939
和穿红	-11940
和糖果	-11941
和翻滚	-11942
和衣服	-11943
和金属	-11944
和露营	-11945
和黑衣	-11946
和黑黑	-11947
咖啡的	-11948
唱卡拉	-11949
商店看	-11950
喂一只	-11951
喜欢读	-11952
喝着大	-11953
喷泉的	-11954
喷雾罐	-11955
因为他	-11956
团体在	-11957
国旗前	-11958
圈子里	-11959
土丘上	-11960
在下雪	-11961
在中空	-11962
在人群	-11963
在内的	-11964
在后台	-11965
在喷泉	-11966
在地面	-11967
在夜间	-11968
在头上	-11969
在室内	-11970
在山上	-11971
在工作	-11972
在平静	-11973
在树前	-11974
在楼梯	-11975
在水上	-11976
在河里	-11977
在海浪	-11978
在湖里	-11979
在码头	-11980
在红色	-11981
在草地	-11982
在这个	-11983
在远处	-11984
在野外	-11985
在闪烁	-11986
在雨天	-11987
地下室	-11988
场滑冰	-11989
坐在他	-11990
坐在绿	-11991
坐地铁	-11992
坑船员	-11993
坚持住	-11994
垃圾场	-11995
垃圾的	-11996
埃尔莫	-11997
城市中	-11998
基金会	-11999
塑料杯	-12000
壁炉前	-12001
壁画前	-12002
士兵和	-12003
复兴节	-12004
复杂的	-12005
复活节	-12006
外国的	-12007
外面用	-12008
多色球	-12009
大利亚	-12010
大喷泉	-12011
大屏幕	-12012
大岩石	-12013
大帽子	-12014
大海中	-12015
大爆炸	-12016
大理石	-12017
大群人	-12018
大门前	-12019
头发上	-12020
头奶牛	-12021
头部在	-12022
头靠在	-12023
女人戴	-12024
女学生	-12025
女孩从	-12026
女孩把	-12027
她朋友	-12028
好像在	-12029
好像是	-12030
妇女用	-12031
姿势上	-12032
婴儿被	-12033
字符串	-12034
学开车	-12035
学龄前	-12036
孩子从	-12037
室内的	-12038
宫外面	-12039
家外面	-12040
容器里	-12041
对情侣	-12042
将另一	-12043
将钓鱼	-12044
小东西	-12045
小卡车	-12046
小孩子	-12047
小屋里	-12048
尖叫着	-12049
就可以	-12050
山丘上	-12051
岩石脸	-12052
工作台	-12053
工作的	-12054
工具在	-12055
市场中	-12056
市场买	-12057
市场卖	-12058
市场看	-12059
带着大	-12060
带着狗	-12061
带着蓝	-12062
带耳机	-12063
带雨伞	-12064
平原上	-12065
平板上	-12066
平行的	-12067
平衡了	-12068
并拍照	-12069
幼儿的	-12070
幼童在	-12071
庆典上	-12072
废金属	-12073
度过了	-12074
建一座	-12075
建房子	-12076
建筑上	-12077
建筑中	-12078
开始从	-12079
开玩笑	-12080
弄清楚	-12081
弗里斯	-12082
弹低音	-12083
弹着一	-12084
弹黑色	-12085
录影带	-12086
录音机	-12087
很大的	-12088
很愉快	-12089
很有趣	-12090
很柔和	-12091
很滑稽	-12092
徒步棍	-12093
得到了	-12094
得很好	-12095
快速道	-12096
怎么样	-12097
急切地	-12098
恤和蓝	-12099
恤衫和	-12100
悬崖下	-12101
悬挂着	-12102
情绪化	-12103
慢跑者	-12104
戒指上	-12105
戒指里	-12106
或站在	-12107
户外看	-12108
所有的	-12109
手上有	-12110
手举高	-12111
手套和	-12112
手折着	-12113
手术室	-12114
手正在	-12115
手电筒	-12116
手空拳	-12117
手站在	-12118
手臂上	-12119
打哈欠	-12120
打字机	-12121
打扫鱼	-12122
打桌球	-12123
打破了	-12124
扔东西	-12125
把头发	-12126
把自己	-12127
抓一只	-12128
抓红球	-12129
投资者	-12130
抱着一	-12131
拉布拉	-12132
拉斯维	-12133
拉起来	-12134
拍张照	-12135
拍篮球	-12136
拐角处	-12137
拳击场	-12138
拿东西	-12139
拿着鱼	-12140
拿着黄	-12141
拿着鼓	-12142
拿食物	-12143
指甲油	-12144
挖石头	-12145
捕手和	-12146
接近他	-12147
控制器	-12148
控制权	-12149
推一个	-12150
推推推	-12151
搅拌机	-12152
摄氏度	-12153
摘樱桃	-12154
撞上了	-12155
擦干净	-12156
擦窗户	-12157
攀登山	-12158
放学后	-12159
教孩子	-12160
散步和	-12161
文件夹	-12162
新工作	-12163
旁坐着	-12164
旅行时	-12165
旅行者	-12166
旅行车	-12167
无人烟	-12168
日子在	-12169
日落前	-12170
时准备	-12171
时坐着	-12172
时摆出	-12173
时进行	-12174
明信片	-12175
是女性	-12176
显示器	-12177
晚点了	-12178
晚饭后	-12179
景色的	-12180
暴风雪	-12181
更大的	-12182
最好的	-12183
有一张	-12184
有一辆	-12185
有两只	-12186
有个穿	-12187
有大量	-12188
有树木	-12189
有树线	-12190
有竞争	-12191
有绿色	-12192
朝他们	-12193
木地板	-12194
来晃去	-12195
来检查	-12196
杯子的	-12197
板子上	-12198
柜台前	-12199
栅栏前	-12200
标志前	-12201
树上有	-12202
树上的	-12203
树下的	-12204
树丛中	-12205
树林的	-12206
树桩上	-12207
桥上的	-12208
梳头发	-12209
棒棒糖	-12210
棒球服	-12211
棒球棍	-12212
椅子前	-12213
楼梯前	-12214
橄榄绿	-12215
橙色墙	-12216
正在听	-12217
正在给	-12218
正坐着	-12219
正沿着	-12220
正走出	-12221
比赛上	-12222
比赛时	-12223
毛毛狗	-12224
毯子的	-12225
气球和	-12226
气球的	-12227
水上的	-12228
水果的	-12229
水槽上	-12230
水泥上	-12231
水深处	-12232
水身旁	-12233
水里跑	-12234
汽车在	-12235
沙丘的	-12236
沙坑里	-12237
沙沙中	-12238
沥青上	-12239
河上的	-12240
沿河边	-12241
波浪上	-12242
泥地上	-12243
注意到	-12244
洗澡时	-12245
洗衣垫	-12246
浅水里	-12247
浴室里	-12248
海上的	-12249
海浪的	-12250
海滩球	-12251
海滩边	-12252
清晰的	-12253
清真寺	-12254
温暖的	-12255
游艇上	-12256
游行时	-12257
湿头发	-12258
溪流中	-12259
溪流里	-12260
滑下去	-12261
滑下雪	-12262
滑雪帽	-12263
滑雪胜	-12264
满屋子	-12265
演讲者	-12266
潜水器	-12267
潜水衣	-12268
火车在	-12269
火车的	-12270
灰色的	-12271
点燃了	-12272
点燃的	-12273
烘干机	-12274
烤烤肉	-12275
烤热狗	-12276
烤肉的	-12277
烤面包	-12278
烤食物	-12279
煮咖啡	-12280
熨衣服	-12281
爬上冰	-12282
爱好者	-12283
父亲的	-12284
牛仔靴	-12285
物体上	-12286
狗正在	-12287
狗跳跃	-12288
玉米饼	-12289
玩共生	-12290
玩具在	-12291
玩泳池	-12292
玩石头	-12293
玩耍时	-12294
玩轮胎	-12295
玩黄色	-12296
玻璃门	-12297
珠子的	-12298
球衣和	-12299
理发了	-12300
用左手	-12301
用扫帚	-12302
用拖把	-12303
用标志	-12304
用梯子	-12305
用橡皮	-12306
用水泥	-12307
用涂鸦	-12308
用粉红	-12309
用粘土	-12310
用蜡笔	-12311
用铲子	-12312
田径上	-12313
田径和	-12314
田里的	-12315
田野中	-12316
由一位	-12317
电梯里	-12318
电脑和	-12319
男女都	-12320
男子的	-12321
男子被	-12322
画一幅	-12323
画壁画	-12324
画彩色	-12325
疯狂地	-12326
的一堵	-12327
的一样	-12328
的一辆	-12329
的享受	-12330
的人以	-12331
的人们	-12332
的人对	-12333
的人将	-12334
的人是	-12335
的光束	-12336
的公牛	-12337
的厨师	-12338
的反应	-12339
的吉他	-12340
的嘴唇	-12341
的国旗	-12342
的士兵	-12343
的婚礼	-12344
的少女	-12345
的山羊	-12346
的广告	-12347
的废墟	-12348
的彩色	-12349
的快乐	-12350
的户外	-12351
的抗议	-12352
的方式	-12353
的时间	-12354
的木板	-12355
的机会	-12356
的柱子	-12357
的气球	-12358
的水道	-12359
的瀑布	-12360
的灯光	-12361
的狗和	-12362
的玻璃	-12363
的球队	-12364
的田野	-12365
的眼神	-12366
的礼物	-12367
的繁忙	-12368
的罐子	-12369
的老头	-12370
的耳朵	-12371
的肩膀	-12372
的腿上	-12373
的船的	-12374
的蒙面	-12375
的街区	-12376
的袋子	-12377
的角色	-12378
的角落	-12379
的赞助	-12380
的赤脚	-12381
的车手	-12382
的车速	-12383
的车道	-12384
的镜头	-12385
的问题	-12386
的附近	-12387
的顾客	-12388
的飞盘	-12389
的骑手	-12390
盏新灯	-12391
相互对	-12392
看不到	-12393
看似是	-12394
看来是	-12395
看比赛	-12396
看球时	-12397
看着球	-12398
看雕塑	-12399
着一堵	-12400
着一棵	-12401
着他的	-12402
着火了	-12403
短头发	-12404
石板上	-12405
石路上	-12406
码头的	-12407
砖头上	-12408
砖楼前	-12409
硬帽子	-12410
碗里的	-12411
积极且	-12412
稻草帽	-12413
空地里	-12414
空房里	-12415
穿棕色	-12416
穿着长	-12417
穿粉红	-12418
穿衣服	-12419
穿黑白	-12420
站在红	-12421
站帮助	-12422
站着看	-12423
笑着笑	-12424
笑脸人	-12425
第三人	-12426
第二个	-12427
第四个	-12428
等候区	-12429
等待和	-12430
箱子上	-12431
箱子和	-12432
篮子在	-12433
篮子的	-12434
米老鼠	-12435
粘土锅	-12436
红丝带	-12437
红伞下	-12438
红砖楼	-12439
红裤子	-12440
纪录片	-12441
纸板盒	-12442
练体操	-12443
经典的	-12444
经销商	-12445
结束时	-12446
给她的	-12447
给男人	-12448
给自己	-12449
给顾客	-12450
绿眼镜	-12451
绿色和	-12452
罐子上	-12453
羊毛衣	-12454
美术馆	-12455
翻了个	-12456
老师在	-12457
老式的	-12458
而不是	-12459
而他却	-12460
而另一	-12461
而成人	-12462
而有人	-12463
聊天时	-12464
聚光灯	-12465
肌肉男	-12466
背背包	-12467
胸口有	-12468
脏水里	-12469
脚坐在	-12470
脚趾甲	-12471
自助餐	-12472
舞台前	-12473
航道上	-12474
船只上	-12475
色衣的	-12476
节假日	-12477
节日的	-12478
花岗裙	-12479
花朵的	-12480
茂密的	-12481
落下的	-12482
葡萄树	-12483
董事会	-12484
蓝水中	-12485
蓝队的	-12486
蓝领带	-12487
蔬菜的	-12488
行驶时	-12489
街中间	-12490
街角的	-12491
街道的	-12492
衬衫上	-12493
袋子上	-12494
袋子在	-12495
袋子的	-12496
袋子里	-12497
被别人	-12498
被困在	-12499
被埋在	-12500
被拍照	-12501
被拦住	-12502
被泥土	-12503
被画成	-12504
被蒙上	-12505
覆盖山	-12506
观众在	-12507
计程车	-12508
讲逻辑	-12509
设施里	-12510
设计了	-12511
该地区	-12512
读了一	-12513
读她的	-12514
购物区	-12515
赛跑者	-12516
赛车场	-12517
赞助的	-12518
赤脚在	-12519
走出了	-12520
走出去	-12521
走在大	-12522
走开了	-12523
走着一	-12524
足球服	-12525
足迹上	-12526
跑者被	-12527
跟一只	-12528
跟一群	-12529
路过时	-12530
跳下水	-12531
跳来抓	-12532
跳舞和	-12533
跳舞在	-12534
跳跃和	-12535
跳跃着	-12536
跳跃者	-12537
躺着的	-12538
车后面	-12539
车库里	-12540
车正在	-12541
车轮上	-12542
车间里	-12543
轮子上	-12544
轻轻地	-12545
过一个	-12546
运动裤	-12547
运动车	-12548
追一只	-12549
追鸽子	-12550
道行走	-12551
遮住了	-12552
遮盖的	-12553
那里买	-12554
郁金香	-12555
郊区的	-12556
都带着	-12557
里亚奇	-12558
里玩着	-12559
里的花	-12560
金属杆	-12561
金属碗	-12562
钓网球	-12563
钓鱼杆	-12564
钓鱼网	-12565
钢琴上	-12566
钱包和	-12567
钱包里	-12568
铲子和	-12569
铲子玩	-12570
锤子和	-12571
键盘上	-12572
镜头上	-12573
长得像	-12574
门廊的	-12575
闪烁着	-12576
队正在	-12577
防护服	-12578
防水布	-12579
雕像的	-12580
雨中的	-12581
雨衣的	-12582
雪里跑	-12583
鞋子和	-12584
顶部的	-12585
领导人	-12586
飘浮着	-12587
飞下来	-12588
飞起来	-12589
食品店	-12590
食物和	-12591
饮用水	-12592
马鞍上	-12593
驱动器	-12594
骄傲地	-12595
骑滑板	-12596
骑牛的	-12597
骑的是	-12598
骑车者	-12599
鲜花和	-12600
鸡蛋和	-12601
黄夹克	-12602
黄狗在	-12603
黑人在	-12604
黑女人	-12605
黑毛衣	-12606
黑水里	-12607
黑衬衫	-12608
Elmo	-12609
John	-12610
StSt	-12611
Teal	-12612
ames	-12613
▁一个光	-12614
▁一个头	-12615
▁一个想	-12616
▁一个瘦	-12617
▁一个胖	-12618
▁一个蓝	-12619
▁一位戴	-12620
▁一只瘦	-12621
▁一只穿	-12622
▁一只红	-12623
▁一只鸟	-12624
▁一名男	-12625
▁一头驴	-12626
▁一家人	-12627
▁一对老	-12628
▁一群七	-12629
▁一辆土	-12630
▁一辆穿	-12631
▁七个人	-12632
▁两个有	-12633
▁两个老	-12634
▁两只大	-12635
▁人们用	-12636
▁人们看	-12637
▁今天是	-12638
▁他通常	-12639
▁体育场	-12640
▁儿童从	-12641
▁公交车	-12642
▁四只狗	-12643
▁圣诞节	-12644
▁在公园	-12645
▁在城市	-12646
▁在山上	-12647
▁在黄色	-12648
▁地铁上	-12649
▁坐在黑	-12650
▁女人把	-12651
▁她穿着	-12652
▁妇女和	-12653
▁妇女在	-12654
▁学生们	-12655
▁家人在	-12656
▁我很累	-12657
▁戴冬帽	-12658
▁戴红色	-12659
▁戴草帽	-12660
▁戴面罩	-12661
▁投手在	-12662
▁攀岩者	-12663
▁教室里	-12664
▁新生儿	-12665
▁晚上在	-12666
▁有两只	-12667
▁有人把	-12668
▁有雨伞	-12669
▁树林里	-12670
▁歌手在	-12671
▁水里有	-12672
▁游泳者	-12673
▁滑冰者	-12674
▁牧羊犬	-12675
▁狗喜欢	-12676
▁狗站在	-12677
▁男人是	-12678
▁男孩子	-12679
▁白狗在	-12680
▁码头上	-12681
▁科学家	-12682
▁穿凉鞋	-12683
▁穿多色	-12684
▁穿长裙	-12685
▁老师在	-12686
▁舞台上	-12687
▁船上的	-12688
▁草地上	-12689
▁蓝色的	-12690
▁请给我	-12691
▁近距离	-12692
▁这些人	-12693
▁这女人	-12694
▁这孩子	-12695
▁那个人	-12696
▁长头发	-12697
▁降落伞	-12698
▁雨停了	-12699
▁风很大	-12700
▁餐厅的	-12701
▁餐厅里	-12702
▁驾驶员	-12703
▁黄昏时	-12704
▁黄色的	-12705
一个坐着	-12706
一个年轻	-12707
一个年长	-12708
一个正在	-12709
一个活动	-12710
一个物体	-12711
一个球队	-12712
一个结构	-12713
一个绿色	-12714
一个老人	-12715
一个装置	-12716
一个队友	-12717
一些有趣	-12718
一些水果	-12719
一只橙色	-12720
一只胳膊	-12721
一名年轻	-12722
一名成员	-12723
一名拿着	-12724
一名持有	-12725
一名男孩	-12726
一块金属	-12727
一大群人	-12728
一家餐厅	-12729
一本杂志	-12730
一条小径	-12731
一条栏杆	-12732
一条皮带	-12733
一棵大树	-12734
一棵小树	-12735
一棵树旁	-12736
一棵落下	-12737
一群穿着	-12738
一艘大船	-12739
一艘帆船	-12740
一袋垃圾	-12741
一起做饭	-12742
一起喝酒	-12743
一起看着	-12744
一起聊天	-12745
一起装扮	-12746
一辆装有	-12747
一辆银色	-12748
一边看书	-12749
一边靠着	-12750
三个男人	-12751
三脚架上	-12752
上的人在	-12753
上的图像	-12754
上的照片	-12755
上衣和白	-12756
上面挂着	-12757
上面装着	-12758
不同颜色	-12759
不穿衬衫	-12760
与其他人	-12761
与另一个	-12762
两个小时	-12763
两个朋友	-12764
两名警察	-12765
两根手指	-12766
两边都有	-12767
个男人在	-12768
中国灯笼	-12769
为了一个	-12770
主题公园	-12771
乌合之众	-12772
乐队伙伴	-12773
买一些新	-12774
了一条新	-12775
争夺球的	-12776
互相对峙	-12777
互相对质	-12778
亚裔男子	-12779
交响乐团	-12780
享受一个	-12781
享受午餐	-12782
享受彼此	-12783
人们站在	-12784
人们走过	-12785
人群观察	-12786
人行道旁	-12787
从卡车上	-12788
从楼梯上	-12789
从烤箱里	-12790
从绳子上	-12791
仔细观察	-12792
他们的手	-12793
他的脸颊	-12794
他的音乐	-12795
他的鼻子	-12796
付费电话	-12797
会议桌旁	-12798
伸向一个	-12799
体育比赛	-12800
作为游行	-12801
使用一个	-12802
便利商店	-12803
修剪树枝	-12804
做了一个	-12805
做后翻转	-12806
做手工艺	-12807
做日光浴	-12808
儿童玩耍	-12809
兄弟姐妹	-12810
充气木筏	-12811
充气玩具	-12812
充满活力	-12813
兔子耳朵	-12814
全副武装	-12815
公寓楼前	-12816
公路工人	-12817
共同努力	-12818
其他人的	-12819
其他人看	-12820
其他几个	-12821
养家养家	-12822
军事人员	-12823
冬夹克和	-12824
冰上滑冰	-12825
准备就绪	-12826
准备接受	-12827
准备表演	-12828
准备迎接	-12829
出去散步	-12830
出售各种	-12831
分享笑容	-12832
划过水面	-12833
别人的手	-12834
到达基地	-12835
制造陶器	-12836
前做一个	-12837
前摆姿势	-12838
办公桌旁	-12839
加拿大的	-12840
包括一个	-12841
包的女人	-12842
博物馆的	-12843
卡斯特罗	-12844
卡车旁边	-12845
即将投球	-12846
厨房里做	-12847
参加一些	-12848
双脚拖鞋	-12849
另一边的	-12850
另外两个	-12851
另外两只	-12852
只穿内裤	-12853
可能是在	-12854
台阶上的	-12855
右手拿着	-12856
各种各样	-12857
各种植物	-12858
各种食物	-12859
同时平衡	-12860
同时站在	-12861
后面看着	-12862
向一群人	-12863
吹泡泡泡	-12864
周围玩耍	-12865
呼拉胡普	-12866
和一条狗	-12867
和两只狗	-12868
和他儿子	-12869
和另一名	-12870
和女人在	-12871
和平标志	-12872
和成人在	-12873
和棕狗在	-12874
和男人在	-12875
和男孩在	-12876
和白狗在	-12877
和黑帽子	-12878
和黑裤子	-12879
咖啡厅里	-12880
咖啡店的	-12881
哭哭啼啼	-12882
商业西装	-12883
商店前门	-12884
喝着一杯	-12885
喝苏打水	-12886
喷泉附近	-12887
喷洒喷洒	-12888
嘉年华会	-12889
四周都是	-12890
图书馆里	-12891
圣诞树上	-12892
在一家小	-12893
在一条小	-12894
在一栋大	-12895
在他们的	-12896
在地铁上	-12897
在地面上	-12898
在婚礼上	-12899
在弹吉他	-12900
在摄影机	-12901
在比赛中	-12902
在游泳池	-12903
在田地上	-12904
在秋千上	-12905
在绳子上	-12906
在花园里	-12907
在蓝色的	-12908
在镜头前	-12909
在雪覆盖	-12910
地区行走	-12911
地板上玩	-12912
地板上的	-12913
地看着他	-12914
坐公交车	-12915
坐在一旁	-12916
坐在后面	-12917
坐在木制	-12918
坐在树上	-12919
坐在树下	-12920
坐在桌子	-12921
坐在水边	-12922
坐在水里	-12923
坐在车里	-12924
城市工人	-12925
城市广场	-12926
城市建筑	-12927
城市景象	-12928
塑料球里	-12929
墙上看着	-12930
墙边涂鸦	-12931
墙边说话	-12932
外的东西	-12933
外科外科	-12934
外面工作	-12935
外面抽烟	-12936
外面看着	-12937
外面聊天	-12938
夜里跳舞	-12939
大楼外的	-12940
大片水域	-12941
大衣和蓝	-12942
大衣的老	-12943
夹克坐在	-12944
女人的手	-12945
女孩在笑	-12946
女孩跳过	-12947
女孩面前	-12948
她的女儿	-12949
婚礼蛋糕	-12950
婴儿洗澡	-12951
婴儿秋千	-12952
学龄儿童	-12953
孩子在玩	-12954
孩子在看	-12955
安全眼镜	-12956
完成一个	-12957
完成比赛	-12958
实验室里	-12959
家庭坐在	-12960
对摄像头	-12961
对方旁边	-12962
对着镜头	-12963
对立队的	-12964
寻找食物	-12965
小丑鼻子	-12966
小孩坐在	-12967
屏住呼吸	-12968
屏障后面	-12969
展示了一	-12970
展示各种	-12971
展示她的	-12972
山地背景	-12973
岩石顶上	-12974
工人坐在	-12975
工作场所	-12976
市场上卖	-12977
帐篷旁边	-12978
帐篷里的	-12979
带着一堆	-12980
带着墨镜	-12981
带着手机	-12982
带着背包	-12983
带着行李	-12984
帽子和蓝	-12985
帽子坐在	-12986
帽子站着	-12987
平衡光束	-12988
年长女人	-12989
年长绅士	-12990
年龄较大	-12991
广告广告	-12992
庆祝活动	-12993
店的窗户	-12994
建筑工作	-12995
建筑设备	-12996
建筑车辆	-12997
建造一个	-12998
开着一辆	-12999
引擎盖上	-13000
弗里斯比	-13001
张开双臂	-13002
弹萨克斯	-13003
彩色条纹	-13004
得到空气	-13005
德克萨斯	-13006
恤的男子	-13007
悬崖上爬	-13008
悬崖边缘	-13009
成人站在	-13010
成年男子	-13011
戴头盔和	-13012
戴眼镜和	-13013
戴着一个	-13014
戴着手表	-13015
戴着棕色	-13016
戴着橙色	-13017
戴着白色	-13018
戴着耳机	-13019
戴着草帽	-13020
戴着项圈	-13021
户外吃饭	-13022
户外运动	-13023
房子前面	-13024
房子旁边	-13025
所看到的	-13026
手伸出来	-13027
手和一个	-13028
手工艺品	-13029
手臂围着	-13030
打另一个	-13031
打扮得像	-13032
扔在空中	-13033
扔进水里	-13034
把她的头	-13035
把手伸向	-13036
把手伸进	-13037
抓着一个	-13038
投出一个	-13039
投掷物体	-13040
抬头看着	-13041
抽一支烟	-13042
抽烟一边	-13043
拉丁美洲	-13044
拍下一个	-13045
拍到照片	-13046
拖拉机在	-13047
拖着一个	-13048
拥抱对方	-13049
拥抱男人	-13050
拿着一桶	-13051
拿着一盘	-13052
拿着桶子	-13053
拿着玩具	-13054
拿着球棒	-13055
拿着瓶子	-13056
拿着白色	-13057
拿着紫色	-13058
拿着红伞	-13059
拿着绳子	-13060
拿着黄色	-13061
拿着鼻子	-13062
持有一个	-13063
挂上衣服	-13064
挂着衣服	-13065
指挥一个	-13066
挥舞着一	-13067
捕捉到一	-13068
掉下来了	-13069
排球比赛	-13070
推着她的	-13071
提出指控	-13072
摄影师在	-13073
摆着一张	-13074
操作一台	-13075
操作橙色	-13076
攀岩者在	-13077
放在地上	-13078
新婚夫妇	-13079
新鲜水果	-13080
方的空中	-13081
旁边一个	-13082
旁边的小	-13083
旁边站在	-13084
旁边还有	-13085
无衬衣的	-13086
早上八点	-13087
时代广场	-13088
时抓住球	-13089
时笑着笑	-13090
明亮色彩	-13091
是白色的	-13092
暖和起来	-13093
曲棍球场	-13094
曲棍球棒	-13095
有一个新	-13096
有个女孩	-13097
有同情心	-13098
有条纹的	-13099
有栅栏的	-13100
有趣的脸	-13101
朋克摇滚	-13102
木板路边	-13103
木林地带	-13104
机器旁边	-13105
栅栏后面	-13106
树林中的	-13107
树林中间	-13108
树林里的	-13109
桌子上的	-13110
桥上钓鱼	-13111
梯子上修	-13112
棒球帽的	-13113
棕榈树下	-13114
棕色夹克	-13115
棕色草地	-13116
森林地带	-13117
森林附近	-13118
椅子上的	-13119
植物浇水	-13120
植物面前	-13121
橙色硬帽	-13122
橙色背包	-13123
正从街上	-13124
正在一条	-13125
正在举行	-13126
正在平衡	-13127
正在建造	-13128
正在攀岩	-13129
正在施工	-13130
正在练习	-13131
正在表演	-13132
正在调查	-13133
正在走路	-13134
正在躺下	-13135
正式服装	-13136
毛绒动物	-13137
民族服装	-13138
气球的人	-13139
水泥卡车	-13140
水泥墙上	-13141
沙地上挖	-13142
河里游泳	-13143
沿着斜坡	-13144
沿着绿色	-13145
沿着草地	-13146
泡泡浴里	-13147
泳衣的人	-13148
洗衣店的	-13149
洗衣房里	-13150
流利地说	-13151
涂上彩色	-13152
深色颜色	-13153
深蓝帽子	-13154
混合饮料	-13155
滑下一个	-13156
滑板滑下	-13157
滑行滑行	-13158
滑雪下雪	-13159
滑雪车手	-13160
滚动行李	-13161
满是雪的	-13162
满身泥巴	-13163
潜入水中	-13164
潜水装备	-13165
澳大利亚	-13166
火车轨上	-13167
灯光照亮	-13168
灰发男子	-13169
灰色头发	-13170
炉上做饭	-13171
烧烤炉上	-13172
爬上山丘	-13173
爬上梯子	-13174
爬上楼梯	-13175
爬上石头	-13176
爬来爬去	-13177
爬过一个	-13178
牛仔小丑	-13179
狂欢节上	-13180
狗的照片	-13181
狗的皮带	-13182
玩单簧管	-13183
玩多米诺	-13184
玩大提琴	-13185
玩班卓琴	-13186
现场表演	-13187
玻璃楼前	-13188
班级学生	-13189
球场上的	-13190
瓷砖地板	-13191
用他们的	-13192
用木头和	-13193
田里玩耍	-13194
电视上看	-13195
电视屏幕	-13196
男人坐着	-13197
男人面前	-13198
男女正在	-13199
男孩在看	-13200
画着一个	-13201
白制服的	-13202
白椅子上	-13203
白沙滩上	-13204
白色帐篷	-13205
白色栅栏	-13206
白衣球员	-13207
百货商店	-13208
的一个人	-13209
的一幅画	-13210
的人交谈	-13211
的人似乎	-13212
的人戴着	-13213
的冰淇淋	-13214
的地毯上	-13215
的大厅里	-13216
的女子在	-13217
的女孩被	-13218
的孩子们	-13219
的小孩向	-13220
的帐篷里	-13221
的帮助下	-13222
的建筑里	-13223
的摊位上	-13224
的服装和	-13225
的栅栏里	-13226
的标志前	-13227
的比赛中	-13228
的毕业生	-13229
的河流上	-13230
的火车很	-13231
的膝盖上	-13232
的西班牙	-13233
的购物车	-13234
的铁轨上	-13235
的长胡子	-13236
的麦克风	-13237
皮夹克的	-13238
盯着距离	-13239
直升机上	-13240
直升机在	-13241
看书的人	-13242
看到一个	-13243
看着下面	-13244
看着两个	-13245
看着他手	-13246
看着外面	-13247
看着她们	-13248
看着手机	-13249
看着相机	-13250
短短短短	-13251
矿坑船员	-13252
码头钓鱼	-13253
硬币操作	-13254
碗里混合	-13255
礼服跳舞	-13256
社交活动	-13257
空中飞翔	-13258
穿白衬衫	-13259
穿着大衣	-13260
穿着头盔	-13261
穿着婚纱	-13262
穿着彩色	-13263
穿着正式	-13264
穿着白袍	-13265
穿着粉色	-13266
穿着衣服	-13267
穿着防暴	-13268
穿着随随	-13269
穿过一些	-13270
穿过城镇	-13271
穿过沙漠	-13272
穿过砖楼	-13273
穿过障碍	-13274
穿过雪地	-13275
站在一排	-13276
站在他们	-13277
站在前面	-13278
站在外边	-13279
站在旁边	-13280
站在街边	-13281
站在门口	-13282
站着的人	-13283
竞技场的	-13284
笑得满脸	-13285
笑着拍照	-13286
笑着看着	-13287
第一垒打	-13288
第三个人	-13289
篮球赛中	-13290
篮球队的	-13291
粉色头发	-13292
粉色帽子	-13293
紫色衣服	-13294
红发女子	-13295
红白雨伞	-13296
红色物体	-13297
红色赛车	-13298
纪念碑前	-13299
线上工作	-13300
结婚蛋糕	-13301
绕着赛道	-13302
给一群人	-13303
维修工人	-13304
绿色玩具	-13305
绿色蔬菜	-13306
绿色金属	-13307
绿草坪上	-13308
网球场上	-13309
翻翻拖鞋	-13310
而另一只	-13311
而另一名	-13312
而旁观者	-13313
而第三个	-13314
耳朵里有	-13315
肩膀上有	-13316
脚踏车的	-13317
脱衣衬衫	-13318
自行车旁	-13319
舞池跳舞	-13320
舞者穿着	-13321
航空公司	-13322
船旁边的	-13323
艺术作品	-13324
草原上的	-13325
草地上玩	-13326
草地中间	-13327
荒无人烟	-13328
萨克斯磷	-13329
蒙面汗衫	-13330
蓝色建筑	-13331
蓝色绿色	-13332
蓝色衬衫	-13333
蓝衬衫的	-13334
蛋糕上吹	-13335
行走带着	-13336
街上奔跑	-13337
街上玩耍	-13338
街角表演	-13339
街边工作	-13340
衣的女人	-13341
表演某种	-13342
表现出了	-13343
装着一个	-13344
裙子的老	-13345
裤子的人	-13346
裸体男子	-13347
警察正在	-13348
讨论一个	-13349
讲台后面	-13350
设备工作	-13351
试图赶上	-13352
贫困地区	-13353
购买水果	-13354
购买物品	-13355
购买食品	-13356
购物车里	-13357
贴上标签	-13358
赤手空拳	-13359
赤脚妇女	-13360
走下一条	-13361
走在一起	-13362
▁	-13363
一	-13364
在	-13365
的	-13366
个	-13367
人	-13368
着	-13369
。	-13370
上	-13371
男	-13372
女	-13373
穿	-13374
色	-13375
子	-13376
孩	-13377
和	-13378
,	-13379
两	-13380
里	-13381
车	-13382
球	-13383
坐	-13384
站	-13385
名	-13386
行	-13387
面	-13388
有	-13389
正	-13390
小	-13391
他	-13392
黑	-13393
白	-13394
衫	-13395
年	-13396
看	-13397
衬	-13398
中	-13399
红	-13400
走	-13401
手	-13402
狗	-13403
衣	-13404
头	-13405
地	-13406
群	-13407
大	-13408
只	-13409
身	-13410
蓝	-13411
边	-13412
玩	-13413
服	-13414
水	-13415
骑	-13416
们	-13417
轻	-13418
跳	-13419
街	-13420
前	-13421
外	-13422
过	-13423
戴	-13424
下	-13425
发	-13426
拿	-13427
道	-13428
来	-13429
跑	-13430
自	-13431
长	-13432
妇	-13433
动	-13434
用	-13435
装	-13436
旁	-13437
雪	-13438
工	-13439
帽	-13440
了	-13441
三	-13442
场	-13443
儿	-13444
机	-13445
克	-13446
起	-13447
员	-13448
时	-13449
带	-13450
条	-13451
位	-13452
背	-13453
赛	-13454
滑	-13455
绿	-13456
裤	-13457
她	-13458
物	-13459
板	-13460
乐	-13461
棕	-13462
对	-13463
路	-13464
去	-13465
辆	-13466
游	-13467
海	-13468
镜	-13469
黄	-13470
公	-13471
家	-13472
舞	-13473
打	-13474
笑	-13475
运	-13476
很	-13477
天	-13478
另	-13479
草	-13480
后	-13481
从	-13482
西	-13483
我	-13484
作	-13485
马	-13486
演	-13487
老	-13488
空	-13489
士	-13490
到	-13491
是	-13492
者	-13493
队	-13494
台	-13495
树	-13496
金	-13497
多	-13498
而	-13499
照	-13500
滩	-13501
足	-13502
桌	-13503
被	-13504
市	-13505
楼	-13506
山	-13507
牛	-13508
比	-13509
电	-13510
夹	-13511
表	-13512
木	-13513
泳	-13514
备	-13515
成	-13516
近	-13517
片	-13518
顶	-13519
粉	-13520
耍	-13521
童	-13522
沙	-13523
这	-13524
围	-13525
向	-13526
东	-13527
裙	-13528
些	-13529
间	-13530
石	-13531
包	-13532
房	-13533
建	-13534
把	-13535
橙	-13536
椅	-13537
性	-13538
话	-13539
观	-13540
制	-13541
眼	-13542
园	-13543
洲	-13544
风	-13545
开	-13546
墙	-13547
出	-13548
花	-13549
进	-13550
短	-13551
亚	-13552
吉	-13553
店	-13554
筑	-13555
做	-13556
景	-13557
拍	-13558
几	-13559
像	-13560
仔	-13561
其	-13562
高	-13563
准	-13564
部	-13565
弹	-13566
心	-13567
国	-13568
画	-13569
具	-13570
灰	-13571
附	-13572
张	-13573
说	-13574
吃	-13575
餐	-13576
四	-13577
城	-13578
酒	-13579
、	-13580
船	-13581
浪	-13582
户	-13583
拉	-13584
生	-13585
相	-13586
器	-13587
体	-13588
微	-13589
图	-13590
土	-13591
托	-13592
摄	-13593
飞	-13594
阳	-13595
摩	-13596
要	-13597
非	-13598
网	-13599
食	-13600
商	-13601
步	-13602
满	-13603
音	-13604
婴	-13605
会	-13606
为	-13607
美	-13608
试	-13609
泥	-13610
毛	-13611
池	-13612
纹	-13613
脸	-13614
夫	-13615
火	-13616
光	-13617
学	-13618
棒	-13619
躺	-13620
彩	-13621
集	-13622
品	-13623
欢	-13624
等	-13625
与	-13626
冰	-13627
书	-13628
岩	-13629
铁	-13630
篮	-13631
戏	-13632
放	-13633
梯	-13634
门	-13635
举	-13636
气	-13637
排	-13638
标	-13639
忙	-13640
唱	-13641
交	-13642
新	-13643
冲	-13644
爬	-13645
林	-13646
方	-13647
脚	-13648
鞋	-13649
不	-13650
滚	-13651
聚	-13652
棍	-13653
厅	-13654
明	-13655
田	-13656
亮	-13657
沿	-13658
T	-13659
栏	-13660
汽	-13661
太	-13662
盔	-13663
轮	-13664
麦	-13665
室	-13666
常	-13667
纸	-13668
卡	-13669
睡	-13670
口	-13671
嘴	-13672
歌	-13673
抱	-13674
加	-13675
跃	-13676
术	-13677
喷	-13678
影	-13679
摆	-13680
架	-13681
同	-13682
得	-13683
本	-13684
盘	-13685
受	-13686
喝	-13687
窗	-13688
喜	-13689
踢	-13690
指	-13691
点	-13692
靠	-13693
厨	-13694
给	-13695
皮	-13696
周	-13697
紫	-13698
"	-13699
通	-13700
师	-13701
伞	-13702
恤	-13703
饭	-13704
座	-13705
志	-13706
雨	-13707
推	-13708
料	-13709
袋	-13710
许	-13711
院	-13712
胡	-13713
展	-13714
平	-13715
参	-13716
日	-13717
都	-13718
套	-13719
晚	-13720
亲	-13721
停	-13722
区	-13723
馆	-13724
野	-13725
鱼	-13726
a	-13727
件	-13728
拥	-13729
种	-13730
布	-13731
涂	-13732
奏	-13733
察	-13734
盖	-13735
住	-13736
e	-13737
修	-13738
琴	-13739
紧	-13740
警	-13741
巾	-13742
洗	-13743
领	-13744
块	-13745
将	-13746
当	-13747
众	-13748
线	-13749
防	-13750
根	-13751
落	-13752
互	-13753
享	-13754
示	-13755
艺	-13756
青	-13757
杯	-13758
灯	-13759
砖	-13760
斯	-13761
姿	-13762
持	-13763
教	-13764
设	-13765
o	-13766
友	-13767
谈	-13768
远	-13769
势	-13770
视	-13771
河	-13772
保	-13773
卖	-13774
坡	-13775
奥	-13776
扔	-13777
烤	-13778
目	-13779
礼	-13780
绳	-13781
倒	-13782
型	-13783
可	-13784
提	-13785
跟	-13786
共	-13787
待	-13788
查	-13789
写	-13790
理	-13791
挥	-13792
事	-13793
格	-13794
击	-13795
堆	-13796
旗	-13797
烟	-13798
接	-13799
握	-13800
曲	-13801
组	-13802
脑	-13803
鼓	-13804
凳	-13805
雕	-13806
双	-13807
处	-13808
技	-13809
幼	-13810
抓	-13811
护	-13812
果	-13813
活	-13814
客	-13815
栅	-13816
栋	-13817
拖	-13818
练	-13819
转	-13820
挂	-13821
聊	-13822
记	-13823
安	-13824
报	-13825
内	-13826
伸	-13827
结	-13828
买	-13829
繁	-13830
购	-13831
杆	-13832
检	-13833
特	-13834
或	-13835
挤	-13836
军	-13837
则	-13838
吹	-13839
床	-13840
泡	-13841
之	-13842
使	-13843
字	-13844
属	-13845
巨	-13846
杂	-13847
箱	-13848
投	-13849
塑	-13850
快	-13851
湖	-13852
笔	-13853
经	-13854
十	-13855
基	-13856
样	-13857
臂	-13858
3	-13859
印	-13860
屋	-13861
扫	-13862
朋	-13863
望	-13864
追	-13865
r	-13866
式	-13867
桶	-13868
似	-13869
管	-13870
读	-13871
全	-13872
松	-13873
码	-13874
旧	-13875
没	-13876
角	-13877
助	-13878
坦	-13879
帮	-13880
尔	-13881
广	-13882
驶	-13883
咖	-13884
离	-13885
腿	-13886
啡	-13887
好	-13888
热	-13889
操	-13890
清	-13891
需	-13892
2	-13893
独	-13894
竞	-13895
分	-13896
牌	-13897
n	-13898
乎	-13899
巴	-13900
干	-13901
息	-13902
母	-13903
菜	-13904
裔	-13905
波	-13906
伙	-13907
无	-13908
翻	-13909
直	-13910
候	-13911
耳	-13912
以	-13913
情	-13914
少	-13915
悬	-13916
秋	-13917
习	-13918
休	-13919
咪	-13920
尼	-13921
讲	-13922
听	-13923
扮	-13924
业	-13925
五	-13926
入	-13927
力	-13928
壁	-13929
摇	-13930
支	-13931
桥	-13932
消	-13933
i	-13934
堂	-13935
毯	-13936
墨	-13937
构	-13938
硬	-13939
钓	-13940
露	-13941
号	-13942
某	-13943
泉	-13944
1	-13945
单	-13946
圈	-13947
并	-13948
能	-13949
切	-13950
所	-13951
漂	-13952
你	-13953
匹	-13954
篷	-13955
攀	-13956
现	-13957
肩	-13958
湿	-13959
龄	-13960
5	-13961
数	-13962
吧	-13963
散	-13964
深	-13965
羊	-13966
圾	-13967
垃	-13968
形	-13969
旅	-13970
朝	-13971
流	-13972
节	-13973
叶	-13974
呼	-13975
斜	-13976
货	-13977
那	-13978
丽	-13979
划	-13980
度	-13981
庭	-13982
想	-13983
蛋	-13984
计	-13985
娘	-13986
徒	-13987
浅	-13988
浮	-13989
饮	-13990
鸟	-13991
重	-13992
鸦	-13993
主	-13994
乘	-13995
售	-13996
环	-13997
罩	-13998
覆	-13999
么	-14000
射	-14001
抽	-14002
由	-14003
4	-14004
媚	-14005
岸	-14006
斗	-14007
森	-14008
袍	-14009
轨	-14010
造	-14011
千	-14012
婚	-14013
弯	-14014
洋	-14015
育	-14016
鲜	-14017
啦	-14018
圣	-14019
摔	-14020
武	-14021
l	-14022
混	-14023
饰	-14024
半	-14025
己	-14026
棵	-14027
瓶	-14028
跪	-14029
团	-14030
帐	-14031
暗	-14032
置	-14033
钱	-14034
摊	-14035
潜	-14036
项	-14037
s	-14038
充	-14039
冬	-14040
吻	-14041
派	-14042
医	-14043
告	-14044
牙	-14045
碗	-14046
刚	-14047
各	-14048
就	-14049
招	-14050
盯	-14051
议	-14052
崖	-14053
柱	-14054
浴	-14055
班	-14056
绅	-14057
象	-14058
找	-14059
父	-14060
糕	-14061
织	-14062
丘	-14063
啤	-14064
实	-14065
应	-14066
枪	-14067
绑	-14068
铲	-14069
合	-14070
夜	-14071
幕	-14072
民	-14073
争	-14074
假	-14075
意	-14076
米	-14077
健	-14078
农	-14079
别	-14080
午	-14081
吊	-14082
圆	-14083
迷	-14084
叫	-14085
战	-14086
更	-14087
法	-14088
淋	-14089
艇	-14090
障	-14091
肉	-14092
蔬	-14093
该	-14094
什	-14095
兵	-14096
感	-14097
越	-14098
还	-14099
驾	-14100
丛	-14101
务	-14102
左	-14103
袖	-14104
选	-14105
奔	-14106
容	-14107
文	-14108
油	-14109
论	-14110
传	-14111
完	-14112
朵	-14113
洞	-14114
课	-14115
A	-14116
今	-14117
冷	-14118
华	-14119
屏	-14120
携	-14121
破	-14122
立	-14123
睛	-14124
阶	-14125
丝	-14126
回	-14127
拳	-14128
科	-14129
第	-14130
艘	-14131
诞	-14132
却	-14133
挖	-14134
显	-14135
爱	-14136
跤	-14137
利	-14138
幅	-14139
柜	-14140
榄	-14141
橄	-14142
速	-14143
u	-14144
兴	-14145
化	-14146
掉	-14147
玻	-14148
璃	-14149
膀	-14150
踏	-14151
银	-14152
?	-14153
t	-14154
漆	-14155
猫	-14156
连	-14157
靴	-14158
垫	-14159
寻	-14160
模	-14161
淇	-14162
铺	-14163
右	-14164
救	-14165
约	-14166
萨	-14167
赤	-14168
阴	-14169
俯	-14170
凉	-14171
原	-14172
反	-14173
宝	-14174
洒	-14175
类	-14176
绕	-14177
钢	-14178
便	-14179
烧	-14180
衡	-14181
6	-14182
S	-14183
信	-14184
塞	-14185
官	-14186
廊	-14187
德	-14188
秃	-14189
统	-14190
蹈	-14191
链	-14192
m	-14193
产	-14194
坑	-14195
岁	-14196
罐	-14197
蹲	-14198
透	-14199
刷	-14200
始	-14201
底	-14202
往	-14203
漫	-14204
验	-14205
侧	-14206
办	-14207
吸	-14208
收	-14209
植	-14210
横	-14211
胎	-14212
营	-14213
顾	-14214
0	-14215
总	-14216
擅	-14217
最	-14218
于	-14219
取	-14220
坪	-14221
声	-14222
奋	-14223
尾	-14224
摸	-14225
橇	-14226
甲	-14227
留	-14228
膝	-14229
闪	-14230
香	-14231
凝	-14232
列	-14233
登	-14234
盒	-14235
碍	-14236
觉	-14237
超	-14238
c	-14239
刀	-14240
它	-14241
校	-14242
即	-14243
哭	-14244
奇	-14245
碎	-14246
舟	-14247
调	-14248
丑	-14249
卫	-14250
幻	-14251
捕	-14252
腰	-14253
讨	-14254
郎	-14255
鸡	-14256
伤	-14257
侣	-14258
剪	-14259
慢	-14260
擦	-14261
星	-14262
村	-14263
纪	-14264
降	-14265
静	-14266
卷	-14267
司	-14268
守	-14269
杖	-14270
渔	-14271
炉	-14272
程	-14273
脏	-14274
配	-14275
专	-14276
刻	-14277
奶	-14278
抗	-14279
此	-14280
甜	-14281
裸	-14282
B	-14283
D	-14284
p	-14285
低	-14286
妈	-14287
云	-14288
伴	-14289
供	-14290
因	-14291
堵	-14292
彼	-14293
监	-14294
销	-14295
颜	-14296
域	-14297
层	-14298
次	-14299
注	-14300
缘	-14301
缝	-14302
雾	-14303
乱	-14304
关	-14305
咬	-14306
巷	-14307
录	-14308
扶	-14309
拐	-14310
移	-14311
索	-14312
蒙	-14313
锯	-14314
古	-14315
帜	-14316
整	-14317
期	-14318
束	-14319
签	-14320
脱	-14321
裁	-14322
贴	-14323
顿	-14324
V	-14325
d	-14326
变	-14327
垒	-14328
庆	-14329
旋	-14330
牧	-14331
距	-14332
M	-14333
y	-14334
塔	-14335
娃	-14336
尖	-14337
搭	-14338
族	-14339
治	-14340
胸	-14341
达	-14342
锅	-14343
h	-14344
k	-14345
折	-14346
括	-14347
枝	-14348
狂	-14349
糖	-14350
趣	-14351
遮	-14352
闭	-14353
早	-14354
每	-14355
饼	-14356
鼻	-14357
博	-14358
堡	-14359
尘	-14360
暴	-14361
李	-14362
端	-14363
联	-14364
荡	-14365
袜	-14366
让	-14367
七	-14368
代	-14369
六	-14370
判	-14371
姑	-14372
引	-14373
撞	-14374
耀	-14375
剧	-14376
叠	-14377
塘	-14378
孔	-14379
库	-14380
漠	-14381
牵	-14382
祝	-14383
考	-14384
阅	-14385
隧	-14386
倾	-14387
八	-14388
又	-14389
抬	-14390
焊	-14391
笛	-14392
编	-14393
雄	-14394
龙	-14395
C	-14396
E	-14397
吗	-14398
喇	-14399
怪	-14400
扣	-14401
捡	-14402
棋	-14403
纽	-14404
缸	-14405
航	-14406
蜡	-14407
赶	-14408
迪	-14409
锤	-14410
雌	-14411
g	-14412
何	-14413
叭	-14414
喂	-14415
寒	-14416
径	-14417
泣	-14418
溪	-14419
然	-14420
筒	-14421
见	-14422
键	-14423
.	-14424
P	-14425
割	-14426
压	-14427
如	-14428
怀	-14429
批	-14430
温	-14431
蕾	-14432
语	-14433
迹	-14434
闲	-14435
仰	-14436
创	-14437
哥	-14438
夏	-14439
妆	-14440
念	-14441
挡	-14442
控	-14443
瓜	-14444
砍	-14445
细	-14446
芭	-14447
英	-14448
量	-14449
镇	-14450
首	-14451
L	-14452
刮	-14453
升	-14454
境	-14455
尝	-14456
州	-14457
急	-14458
故	-14459
筏	-14460
跨	-14461
采	-14462
阿	-14463
随	-14464
骨	-14465
;	-14466
b	-14467
剃	-14468
努	-14469
味	-14470
填	-14471
峰	-14472
播	-14473
止	-14474
瀑	-14475
灌	-14476
珠	-14477
逐	-14478
钉	-14479
驼	-14480
弦	-14481
月	-14482
末	-14483
澡	-14484
磨	-14485
笼	-14486
罗	-14487
羽	-14488
舌	-14489
获	-14490
览	-14491
费	-14492
世	-14493
叉	-14494
复	-14495
定	-14496
封	-14497
未	-14498
测	-14499
溜	-14500
激	-14501
翔	-14502
训	-14503
蹦	-14504
较	-14505
送	-14506
题	-14507
O	-14508
姆	-14509
废	-14510
掌	-14511
晒	-14512
熟	-14513
盛	-14514
精	-14515
纫	-14516
肤	-14517
脖	-14518
贝	-14519
针	-14520
闻	-14521
阻	-14522
险	-14523
骆	-14524
J	-14525
·	-14526
亭	-14527
偷	-14528
奖	-14529
密	-14530
导	-14531
施	-14532
枕	-14533
械	-14534
死	-14535
汗	-14536
界	-14537
票	-14538
莫	-14539
触	-14540
谷	-14541
质	-14542
软	-14543
钻	-14544
锥	-14545
陡	-14546
也	-14547
仪	-14548
任	-14549
典	-14550
冒	-14551
决	-14552
剑	-14553
南	-14554
厂	-14555
坠	-14556
峭	-14557
才	-14558
捉	-14559
昨	-14560
晃	-14561
暖	-14562
榈	-14563
欧	-14564
沫	-14565
炸	-14566
烛	-14567
研	-14568
积	-14569
胶	-14570
载	-14571
须	-14572
“	-14573
”	-14574
二	-14575
令	-14576
先	-14577
兰	-14578
副	-14579
季	-14580
尽	-14581
探	-14582
斑	-14583
普	-14584
极	-14585
沉	-14586
淡	-14587
炫	-14588
熊	-14589
瓷	-14590
神	-14591
纱	-14592
终	-14593
维	-14594
解	-14595
踩	-14596
鸭	-14597
(	-14598
)	-14599
-	-14600
G	-14601
K	-14602
R	-14603
乡	-14604
历	-14605
喊	-14606
困	-14607
失	-14608
妻	-14609
披	-14610
洁	-14611
状	-14612
疼	-14613
粗	-14614
苹	-14615
裹	-14616
豆	-14617
躲	-14618
8	-14619
伦	-14620
但	-14621
俱	-14622
养	-14623
威	-14624
居	-14625
已	-14626
帆	-14627
帚	-14628
抚	-14629
拇	-14630
按	-14631
材	-14632
汁	-14633
猪	-14634
疗	-14635
病	-14636
百	-14637
社	-14638
算	-14639
系	-14640
肚	-14641
规	-14642
邻	-14643
问	-14644
鸽	-14645
9	-14646
H	-14647
份	-14648
冠	-14649
功	-14650
嘉	-14651
宽	-14652
弄	-14653
摘	-14654
易	-14655
桨	-14656
槽	-14657
橡	-14658
残	-14659
泼	-14660
燃	-14661
玉	-14662
章	-14663
糊	-14664
胜	-14665
苏	-14666
邮	-14667
霍	-14668
麻	-14669
7	-14670
F	-14671
价	-14672
刺	-14673
勺	-14674
断	-14675
昏	-14676
欣	-14677
液	-14678
犬	-14679
瘦	-14680
租	-14681
筝	-14682
绵	-14683
耐	-14684
茶	-14685
萄	-14686
葡	-14687
虫	-14688
阔	-14689
驴	-14690
齿	-14691
!	-14692
付	-14693
兜	-14694
册	-14695
净	-14696
哈	-14697
响	-14698
弓	-14699
弟	-14700
戒	-14701
敦	-14702
朗	-14703
梁	-14704
棚	-14705
汉	-14706
爆	-14707
祷	-14708
职	-14709
肥	-14710
肮	-14711
茄	-14712
薄	-14713
诗	-14714
败	-14715
赏	-14716
锁	-14717
零	-14718
雷	-14719
丰	-14720
伯	-14721
傲	-14722
及	-14723
孤	-14724
富	-14725
寓	-14726
惊	-14727
扇	-14728
抢	-14729
搬	-14730
炼	-14731
爸	-14732
狭	-14733
碑	-14734
碧	-14735
绘	-14736
舔	-14737
藏	-14738
访	-14739
请	-14740
适	-14741
逛	-14742
陶	-14743
骄	-14744
W	-14745
X	-14746
w	-14747
丁	-14748
且	-14749
串	-14750
免	-14751
命	-14752
善	-14753
尚	-14754
尸	-14755
局	-14756
巧	-14757
异	-14758
政	-14759
猎	-14760
碰	-14761
糟	-14762
级	-14763
胖	-14764
良	-14765
蕉	-14766
补	-14767
酷	-14768
锻	-14769
陆	-14770
I	-14771
x	-14772
井	-14773
劳	-14774
厚	-14775
吵	-14776
坚	-14777
娱	-14778
席	-14779
恐	-14780
悲	-14781
拌	-14782
挑	-14783
搅	-14784
框	-14785
款	-14786
沟	-14787
真	-14788
祈	-14789
竿	-14790
纳	-14791
荒	-14792
薯	-14793
蝙	-14794
蝠	-14795
褐	-14796
豪	-14797
贫	-14798
锈	-14799
齐	-14800
乌	-14801
企	-14802
优	-14803
傻	-14804
冻	-14805
厢	-14806
史	-14807
坏	-14808
埋	-14809
宴	-14810
惑	-14811
斧	-14812
柴	-14813
梳	-14814
段	-14815
泰	-14816
燥	-14817
究	-14818
粘	-14819
缠	-14820
虹	-14821
蜜	-14822
血	-14823
途	-14824
铜	-14825
除	-14826
雅	-14827
鹅	-14828
U	-14829
佩	-14830
侠	-14831
兔	-14832
剂	-14833
勤	-14834
哨	-14835
固	-14836
宠	-14837
帘	-14838
归	-14839
忘	-14840
执	-14841
敲	-14842
案	-14843
烈	-14844
焦	-14845
煎	-14846
疯	-14847
知	-14848
福	-14849
股	-14850
荫	-14851
药	-14852
虑	-14853
蜂	-14854
言	-14855
诺	-14856
贩	-14857
退	-14858
逃	-14859
钟	-14860
难	-14861
颊	-14862
额	-14863
魔	-14864
鼠	-14865
N	-14866
f	-14867
v	-14868
卓	-14869
妹	-14870
宗	-14871
害	-14872
尺	-14873
怒	-14874
择	-14875
擎	-14876
桃	-14877
汤	-14878
浏	-14879
炬	-14880
烂	-14881
煮	-14882
瞄	-14883
确	-14884
竹	-14885
箭	-14886
苍	-14887
虎	-14888
螺	-14889
鹰	-14890
鹿	-14891
《	-14892
》	-14893
临	-14894
乳	-14895
伽	-14896
勒	-14897
匆	-14898
呢	-14899
唇	-14900
墟	-14901
婆	-14902
宁	-14903
岗	-14904
峡	-14905
帕	-14906
幸	-14907
弃	-14908
思	-14909
恶	-14910
愉	-14911
抹	-14912
拦	-14913
桩	-14914
沃	-14915
泽	-14916
港	-14917
烹	-14918
瑜	-14919
瓦	-14920
皂	-14921
盟	-14922
矮	-14923
祖	-14924
稻	-14925
糙	-14926
舒	-14927
订	-14928
负	-14929
赌	-14930
迎	-14931
阵	-14932
雇	-14933
飘	-14934
万	-14935
仓	-14936
匠	-14937
卧	-14938
埃	-14939
壳	-14940
夺	-14941
姐	-14942
屠	-14943
差	-14944
希	-14945
庄	-14946
怎	-14947
扎	-14948
拜	-14949
拱	-14950
换	-14951
掷	-14952
插	-14953
援	-14954
椰	-14955
橘	-14956
欲	-14957
毕	-14958
沼	-14959
灭	-14960
玛	-14961
盗	-14962
眉	-14963
稽	-14964
窄	-14965
簧	-14966
翅	-14967
翰	-14968
肖	-14969
胳	-14970
膊	-14971
莱	-14972
蝴	-14973
蝶	-14974
证	-14975
诚	-14976
诡	-14977
豹	-14978
赞	-14979
遇	-14980
隔	-14981
预	-14982
频	-14983
饪	-14984
骸	-14985
鸥	-14986
Y	-14987
伊	-14988
伍	-14989
例	-14990
俄	-14991
偶	-14992
元	-14993
匙	-14994
卸	-14995
塌	-14996
夷	-14997
强	-14998
扑	-14999
描	-15000
搞	-15001
撒	-15002
改	-15003
敏	-15004
敢	-15005
敬	-15006
春	-15007
权	-15008
杰	-15009
染	-15010
柠	-15011
檬	-15012
毁	-15013
求	-15014
浸	-15015
渡	-15016
炎	-15017
炮	-15018
猴	-15019
盹	-15020
睁	-15021
矿	-15022
砾	-15023
秀	-15024
私	-15025
稍	-15026
穆	-15027
突	-15028
筷	-15029
翼	-15030
耕	-15031
胆	-15032
芒	-15033
著	-15034
趾	-15035
踪	-15036
辫	-15037
避	-15038
钥	-15039
错	-15040
雀	-15041
鲁	-15042
&	-15043
z	-15044
严	-15045
兄	-15046
再	-15047
况	-15048
嘲	-15049
壶	-15050
娜	-15051
屁	-15052
巡	-15053
庙	-15054
康	-15055
忍	-15056
怕	-15057
愿	-15058
慰	-15059
挨	-15060
捆	-15061
授	-15062
掘	-15063
旷	-15064
映	-15065
暂	-15066
柔	-15067
棉	-15068
楚	-15069
泊	-15070
浇	-15071
潮	-15072
煤	-15073
爪	-15074
番	-15075
痒	-15076
皇	-15077
督	-15078
符	-15079
累	-15080
绷	-15081
至	-15082
苦	-15083
萝	-15084
董	-15085
谦	-15086
赢	-15087
辣	-15088
逻	-15089
邦	-15090
酪	-15091
铅	-15092
革	-15093
鬼	-15094
丈	-15095
佛	-15096
勇	-15097
北	-15098
墓	-15099
壕	-15100
宫	-15101
寺	-15102
岛	-15103
弗	-15104
徽	-15105
愤	-15106
戈	-15107
攻	-15108
敞	-15109
杀	-15110
栓	-15111
樱	-15112
沾	-15113
涉	-15114
涤	-15115
源	-15116
猩	-15117
玫	-15118
瑰	-15119
疲	-15120
盆	-15121
瞰	-15122
碌	-15123
穴	-15124
窥	-15125
竖	-15126
绪	-15127
缆	-15128
肌	-15129
腕	-15130
茸	-15131
荷	-15132
蒸	-15133
虚	-15134
蛇	-15135
诊	-15136
责	-15137
躬	-15138
轿	-15139
输	-15140
辛	-15141
铃	-15142
锋	-15143
陪	-15144
鞠	-15145
颈	-15146
丢	-15147
丧	-15148
京	-15149
勃	-15150
卜	-15151
嗅	-15152
嚼	-15153
坞	-15154
孕	-15155
宣	-15156
寄	-15157
尿	-15158
川	-15159
廓	-15160
恩	-15161
扬	-15162
抖	-15163
抛	-15164
拼	-15165
挣	-15166
损	-15167
晴	-15168
智	-15169
汇	-15170
沮	-15171
洛	-15172
涨	-15173
滨	-15174
烘	-15175
燕	-15176
犹	-15177
狮	-15178
甘	-15179
砸	-15180
碟	-15181
祥	-15182
称	-15183
篱	-15184
绒	-15185
继	-15186
肠	-15187
膏	-15188
致	-15189
舱	-15190
范	-15191
莓	-15192
评	-15193
谁	-15194
蹄	-15195
迈	-15196
迫	-15197
醒	-15198
钩	-15199
闹	-15200
页	-15201
义	-15202
乞	-15203
伟	-15204
倦	-15205
储	-15206
僵	-15207
剥	-15208
协	-15209
厕	-15210
吓	-15211
啼	-15212
央	-15213
媒	-15214
嬉	-15215
峙	-15216
序	-15217
御	-15218
忽	-15219
态	-15220
怖	-15221
悦	-15222
愚	-15223
懒	-15224
截	-15225
扛	-15226
扩	-15227
扭	-15228
担	-15229
撑	-15230
撕	-15231
晨	-15232
柄	-15233
档	-15234
梭	-15235
毒	-15236
烁	-15237
王	-15238
痛	-15239
碾	-15240
秘	-15241
答	-15242
籍	-15243
续	-15244
缩	-15245
肢	-15246
膜	-15247
般	-15248
菲	-15249
藻	-15250
蛛	-15251
蜘	-15252
蝇	-15253
螃	-15254
蟹	-15255
裂	-15256
认	-15257
讯	-15258
诉	-15259
词	-15260
误	-15261
谱	-15262
貌	-15263
返	-15264
遗	-15265
郊	-15266
酱	-15267
释	-15268
钮	-15269
镖	-15270
镯	-15271
颗	-15272
驱	-15273
骡	-15274
髦	-15275
鳄	-15276
黎	-15277
龟	-15278
・	-15279
丹	-15280
仍	-15281
仙	-15282
仿	-15283
伏	-15284
侵	-15285
兽	-15286
危	-15287
吐	-15288
垂	-15289
垄	-15290
妒	-15291
嫉	-15292
存	-15293
屉	-15294
崇	-15295
币	-15296
帅	-15297
恋	-15298
戳	-15299
拔	-15300
拯	-15301
昆	-15302
晰	-15303
桑	-15304
梅	-15305
椒	-15306
槟	-15307
沥	-15308
洪	-15309
淌	-15310
添	-15311
湾	-15312
滴	-15313
灵	-15314
炭	-15315
烦	-15316
焰	-15317
爽	-15318
瓣	-15319
略	-15320
笆	-15321
纯	-15322
罚	-15323
聪	-15324
胃	-15325
胞	-15326
脉	-15327
舍	-15328
芥	-15329
芬	-15330
荣	-15331
莎	-15332
蒂	-15333
蓬	-15334
蛙	-15335
蠢	-15336
袭	-15337
豚	-15338
赖	-15339
迅	-15340
迟	-15341
述	-15342
逊	-15343
递	-15344
遍	-15345
遥	-15346
邪	-15347
郁	-15348
醉	-15349
陵	-15350
霉	-15351
霜	-15352
顺	-15353
颠	-15354
魅	-15355
:	-15356
Q	-15357
「	-15358
」	-15359
乒	-15360
乓	-15361
乔	-15362
九	-15363
亡	-15364
介	-15365
伪	-15366
值	-15367
党	-15368
兹	-15369
冥	-15370
凯	-15371
劣	-15372
占	-15373
吞	-15374
哪	-15375
嗓	-15376
囱	-15377
够	-15378
奈	-15379
妓	-15380
孙	-15381
宅	-15382
宰	-15383
宾	-15384
寸	-15385
尊	-15386
屎	-15387
延	-15388
征	-15389
徊	-15390
徘	-15391
必	-15392
悠	-15393
慌	-15394
慨	-15395
慷	-15396
扁	-15397
扯	-15398
承	-15399
拆	-15400
拟	-15401
拾	-15402
据	-15403
措	-15404
斥	-15405
旱	-15406
暑	-15407
杉	-15408
柏	-15409
柿	-15410
欠	-15411
永	-15412
泵	-15413
渣	-15414
熨	-15415
爵	-15416
率	-15417
瑞	-15418
甚	-15419
畜	-15420
疑	-15421
疾	-15422
症	-15423
盾	-15424
矛	-15425
矶	-15426
砂	-15427
磷	-15428
稀	-15429
穷	-15430
简	-15431
素	-15432
肘	-15433
肯	-15434
肴	-15435
臀	-15436
艾	-15437
若	-15438
荧	-15439
莉	-15440
菠	-15441
蔽	-15442
虾	-15443
蚤	-15444
蛤	-15445
识	-15446
资	-15447
逮	-15448
隐	-15449
隙	-15450
鞍	-15451
韩	-15452
驯	-15453
骤	-15454
Z	-15455
q	-15456
久	-15457
仇	-15458
仲	-15459
伐	-15460
侦	-15461
俩	-15462
僧	-15463
凑	-15464
剔	-15465
勾	-15466
县	-15467
召	-15468
启	-15469
咆	-15470
哦	-15471
哮	-15472
噜	-15473
坊	-15474
培	-15475
壤	-15476
妙	-15477
宇	-15478
宜	-15479
宿	-15480
履	-15481
崎	-15482
崽	-15483
府	-15484
廷	-15485
弱	-15486
循	-15487
忧	-15488
怜	-15489
恨	-15490
抵	-15491
振	-15492
捐	-15493
掀	-15494
掠	-15495
掩	-15496
搏	-15497
效	-15498
既	-15499
杜	-15500
枯	-15501
殊	-15502
殖	-15503
殿	-15504
氏	-15505
氛	-15506
济	-15507
浓	-15508
淹	-15509
渴	-15510
漏	-15511
澈	-15512
澳	-15513
灾	-15514
牲	-15515
狱	-15516
珍	-15517
畏	-15518
瘠	-15519
皱	-15520
盏	-15521
省	-15522
瞬	-15523
祭	-15524
禁	-15525
稼	-15526
筛	-15527
篇	-15528
粪	-15529
粮	-15530
纵	-15531
纺	-15532
绍	-15533
络	-15534
绞	-15535
绩	-15536
羞	-15537
翁	-15538
聆	-15539
肃	-15540
胀	-15541
脊	-15542
腹	-15543
腾	-15544
膨	-15545
艳	-15546
芝	-15547
苗	-15548
茂	-15549
荐	-15550
菇	-15551
葬	-15552
葵	-15553
蔗	-15554
蘑	-15555
蜥	-15556
蜴	-15557
融	-15558
谋	-15559
财	-15560
贵	-15561
赘	-15562
赚	-15563
赠	-15564
踝	-15565
轴	-15566
辉	-15567
辑	-15568
辩	-15569
遭	-15570
铝	-15571
阁	-15572
际	-15573
限	-15574
饿	-15575
鲑	-15576
鲸	-15577
默	-15578
%	-15579
丙	-15580
乏	-15581
予	-15582
仑	-15583
估	-15584
促	-15585
俊	-15586
偏	-15587
允	-15588
冈	-15589
减	-15590
凶	-15591
刑	-15592
剩	-15593
劫	-15594
勉	-15595
匕	-15596
匪	-15597
卉	-15598
卑	-15599
卢	-15600
厦	-15601
叔	-15602
叮	-15603
叹	-15604
否	-15605
咙	-15606
咳	-15607
唐	-15608
唤	-15609
喉	-15610
嗽	-15611
噬	-15612
址	-15613
均	-15614
堤	-15615
堪	-15616
增	-15617
夸	-15618
妞	-15619
妮	-15620
姜	-15621
嫌	-15622
嫩	-15623
寿	-15624
尬	-15625
尴	-15626
岳	-15627
幽	-15628
庞	-15629
律	-15630
忠	-15631
恒	-15632
恼	-15633
悚	-15634
惧	-15635
惩	-15636
惫	-15637
惯	-15638
慕	-15639
扰	-15640
扳	-15641
拨	-15642
捏	-15643
捷	-15644
搜	-15645
摧	-15646
撤	-15647
昂	-15648
晶	-15649
曼	-15650
替	-15651
杠	-15652
枚	-15653
栗	-15654
概	-15655
橱	-15656
歇	-15657
殴	-15658
氧	-15659
汀	-15660
污	-15661
泛	-15662
津	-15663
浆	-15664
润	-15665
溅	-15666
潘	-15667
灿	-15668
烫	-15669
烷	-15670
熏	-15671
熔	-15672
爷	-15673
犁	-15674
犯	-15675
狼	-15676
猛	-15677
猜	-15678
献	-15679
甩	-15680
申	-15681
疏	-15682
眠	-15683
眨	-15684
础	-15685
磁	-15686
祸	-15687
禽	-15688
稠	-15689
稣	-15690
稳	-15691
窃	-15692
窟	-15693
笨	-15694
纠	-15695
绝	-15696
缓	-15697
缚	-15698
缺	-15699
罢	-15700
罪	-15701
署	-15702
耶	-15703
肋	-15704
腐	-15705
臭	-15706
舰	-15707
芯	-15708
苔	-15709
茅	-15710
葱	-15711
蚊	-15712
蜗	-15713
讶	-15714
询	-15715
谜	-15716
谢	-15717
贸	-15718
赋	-15719
跋	-15720
跌	-15721
蹭	-15722
轰	-15723
辨	-15724
逼	-15725
邀	-15726
酋	-15727
酸	-15728
锡	-15729
闯	-15730
闷	-15731
陀	-15732
陈	-15733
陋	-15734
陌	-15735
陷	-15736
隆	-15737
震	-15738
颁	-15739
颂	-15740
饥	-15741
饱	-15742
饵	-15743
馅	-15744
驰	-15745
骼	-15746
鲨	-15747
鹉	-15748
鹦	-15749
'	-15750
j	-15751
丐	-15752
乃	-15753
亥	-15754
亵	-15755
余	-15756
佣	-15757
佬	-15758
佳	-15759
侈	-15760
侍	-15761
依	-15762
倡	-15763
傀	-15764
傍	-15765
儡	-15766
兆	-15767
冕	-15768
冶	-15769
凡	-15770
凤	-15771
凭	-15772
凰	-15773
刹	-15774
募	-15775
卒	-15776
卵	-15777
厌	-15778
厩	-15779
含	-15780
吼	-15781
咀	-15782
咨	-15783
咸	-15784
咽	-15785
哑	-15786
哲	-15787
啊	-15788
啸	-15789
喱	-15790
嘛	-15791
噪	-15792
嚏	-15793
囊	-15794
圃	-15795
坎	-15796
坛	-15797
坟	-15798
堕	-15799
墅	-15800
壮	-15801
夕	-15802
奎	-15803
奢	-15804
奴	-15805
奸	-15806
妄	-15807
妖	-15808
委	-15809
娅	-15810
娩	-15811
婪	-15812
孵	-15813
尤	-15814
屈	-15815
届	-15816
屑	-15817
岖	-15818
崩	-15819
巫	-15820
帝	-15821
廉	-15822
弧	-15823
怡	-15824
怯	-15825
恢	-15826
恭	-15827
悉	-15828
悍	-15829
惨	-15830
愧	-15831
慎	-15832
慧	-15833
憾	-15834
戟	-15835
戮	-15836
押	-15837
拂	-15838
拒	-15839
拘	-15840
拣	-15841
拭	-15842
拷	-15843
捍	-15844
捞	-15845
掐	-15846
揭	-15847
撼	-15848
擂	-15849
敌	-15850
旺	-15851
昔	-15852
晕	-15853
晤	-15854
暇	-15855
柯	-15856
栖	-15857
株	-15858
梦	-15859
梨	-15860
梵	-15861
棺	-15862
沛	-15863
沸	-15864
泄	-15865
泪	-15866
洽	-15867
浑	-15868
浦	-15869
涌	-15870
涕	-15871
淆	-15872
淫	-15873
渎	-15874
渠	-15875
溃	-15876
溶	-15877
滋	-15878
滥	-15879
灶	-15880
烬	-15881
焚	-15882
煌	-15883
熄	-15884
爹	-15885
版	-15886
牢	-15887
狐	-15888
狠	-15889
狸	-15890
珀	-15891
瓢	-15892
痴	-15893
痹	-15894
癌	-15895
癖	-15896
益	-15897
盐	-15898
盲	-15899
睫	-15900
睹	-15901
瞎	-15902
礁	-15903
秒	-15904
秩	-15905
秽	-15906
稚	-15907
窑	-15908
窝	-15909
筋	-15910
筹	-15911
簿	-15912
籽	-15913
粹	-15914
绣	-15915
绸	-15916
绽	-15917
缛	-15918
羔	-15919
羚	-15920
羡	-15921
耻	-15922
肆	-15923
肺	-15924
脆	-15925
脾	-15926
腔	-15927
膛	-15928
舵	-15929
艰	-15930
芙	-15931
茉	-15932
茎	-15933
茨	-15934
茵	-15935
虽	-15936
蚀	-15937
蛾	-15938
衷	-15939
觅	-15940
讼	-15941
详	-15942
诱	-15943
谍	-15944
谐	-15945
谨	-15946
貂	-15947
贡	-15948
贪	-15949
贷	-15950
贾	-15951
赁	-15952
赡	-15953
趴	-15954
践	-15955
踵	-15956
躁	-15957
躯	-15958
辅	-15959
辈	-15960
辐	-15961
辜	-15962
违	-15963
逗	-15964
逝	-15965
遣	-15966
遵	-15967
郡	-15968
酵	-15969
钞	-15970
铐	-15971
锦	-15972
镣	-15973
镰	-15974
镳	-15975
阀	-15976
阱	-15977
隶	-15978
霸	-15979
韦	-15980
颐	-15981
颤	-15982
饶	-15983
馨	-15984
驳	-15985
驻	-15986
骂	-15987
骗	-15988
骰	-15989
魂	-15990
鱿	-15991
鳕	-15992
鹫	-15993
麸	-15994
鼬	-15995
