</s>	0
<s>	0
<unk>	0
<pad>	0
▁a	-0
in	-1
ing	-2
▁s	-3
▁w	-4
▁t	-5
▁o	-6
an	-7
▁b	-8
he	-9
▁A	-10
re	-11
▁in	-12
it	-13
▁p	-14
▁m	-15
er	-16
▁c	-17
le	-18
is	-19
ro	-20
▁the	-21
ar	-22
nd	-23
▁g	-24
▁h	-25
▁f	-26
▁on	-27
▁d	-28
al	-29
la	-30
at	-31
▁is	-32
ir	-33
en	-34
▁man	-35
▁of	-36
om	-37
▁and	-38
▁st	-39
ck	-40
or	-41
ith	-42
▁with	-43
lo	-44
ld	-45
▁T	-46
et	-47
un	-48
▁to	-49
es	-50
on	-51
id	-52
▁wom	-53
▁wh	-54
▁sh	-55
▁do	-56
and	-57
rou	-58
ed	-59
▁are	-60
king	-61
op	-62
ra	-63
wo	-64
ear	-65
▁woman	-66
her	-67
ss	-68
ic	-69
▁pla	-70
▁bo	-71
ut	-72
▁at	-73
▁y	-74
all	-75
▁re	-76
irt	-77
▁l	-78
eop	-79
eople	-80
▁play	-81
▁Two	-82
ch	-83
ting	-84
oun	-85
ers	-86
▁wear	-87
▁an	-88
▁n	-89
▁wearing	-90
st	-91
ur	-92
▁sit	-93
▁r	-94
▁stand	-95
wn	-96
▁people	-97
ide	-98
ge	-99
ite	-100
ild	-101
▁shirt	-102
oung	-103
▁j	-104
gh	-105
▁ho	-106
ver	-107
▁lo	-108
ile	-109
▁ch	-110
▁ba	-111
▁co	-112
▁white	-113
el	-114
irl	-115
ad	-116
um	-117
▁young	-118
ot	-119
▁wal	-120
ue	-121
▁girl	-122
▁dog	-123
▁be	-124
lack	-125
▁fro	-126
▁his	-127
▁out	-128
▁black	-129
▁boy	-130
▁bl	-131
us	-132
il	-133
▁while	-134
▁wat	-135
▁th	-136
▁blue	-137
▁e	-138
am	-139
ce	-140
ts	-141
▁red	-142
▁grou	-143
▁sitting	-144
▁The	-145
ri	-146
▁playing	-147
up	-148
▁men	-149
▁hold	-150
▁ro	-151
▁standing	-152
▁stre	-153
ve	-154
ard	-155
oo	-156
▁child	-157
▁loo	-158
▁group	-159
▁street	-160
im	-161
▁down	-162
ree	-163
nt	-164
▁la	-165
as	-166
▁walking	-167
ke	-168
ow	-169
round	-170
▁sm	-171
▁her	-172
ul	-173
low	-174
ent	-175
▁S	-176
▁front	-177
ks	-178
▁ta	-179
▁holding	-180
▁he	-181
ress	-182
ion	-183
ct	-184
air	-185
▁ne	-186
▁gra	-187
▁water	-188
ie	-189
ay	-190
▁k	-191
side	-192
ach	-193
▁po	-194
▁car	-195
▁for	-196
bo	-197
▁dress	-198
ain	-199
ying	-200
▁by	-201
▁som	-202
tle	-203
ump	-204
▁bu	-205
▁Th	-206
▁up	-207
▁ra	-208
▁as	-209
hing	-210
igh	-211
reen	-212
se	-213
▁wor	-214
▁run	-215
ark	-216
▁back	-217
ack	-218
uit	-219
red	-220
ood	-221
▁jump	-222
▁An	-223
▁green	-224
▁M	-225
row	-226
▁sw	-227
▁women	-228
ittle	-229
▁one	-230
ap	-231
for	-232
▁sk	-233
one	-234
ble	-235
ind	-236
▁looking	-237
▁sn	-238
▁hat	-239
▁outside	-240
▁le	-241
form	-242
▁rid	-243
to	-244
▁bro	-245
▁Three	-246
ren	-247
▁v	-248
arge	-249
▁little	-250
rough	-251
▁side	-252
ther	-253
▁bi	-254
▁P	-255
▁large	-256
ball	-257
▁other	-258
▁through	-259
ellow	-260
▁snow	-261
▁or	-262
ly	-263
▁ball	-264
▁tra	-265
▁brown	-266
▁yellow	-267
▁sp	-268
▁two	-269
erson	-270
ian	-271
▁over	-272
lass	-273
ure	-274
che	-275
em	-276
ning	-277
▁from	-278
yc	-279
ng	-280
▁their	-281
▁fo	-282
xt	-283
▁into	-284
▁con	-285
▁W	-286
▁person	-287
▁ma	-288
very	-289
▁build	-290
▁hand	-291
ink	-292
▁next	-293
▁building	-294
lder	-295
alk	-296
▁children	-297
▁very	-298
ig	-299
▁some	-300
▁so	-301
▁small	-302
rowd	-303
▁go	-304
ight	-305
▁F	-306
▁near	-307
other	-308
▁jack	-309
▁dressed	-310
▁crowd	-311
ving	-312
▁jacket	-313
▁clo	-314
▁mo	-315
▁te	-316
ate	-317
▁grass	-318
ter	-319
board	-320
ground	-321
▁se	-322
dy	-323
▁wa	-324
walk	-325
age	-326
▁C	-327
▁riding	-328
▁running	-329
▁People	-330
ph	-331
▁off	-332
▁sc	-333
ange	-334
ling	-335
▁around	-336
cer	-337
▁another	-338
ield	-339
ep	-340
▁pa	-341
ycle	-342
ff	-343
ity	-344
ick	-345
ru	-346
▁field	-347
▁table	-348
▁sidewalk	-349
▁beach	-350
ine	-351
▁it	-352
▁cam	-353
lasses	-354
▁Man	-355
ist	-356
▁fa	-357
▁orange	-358
▁ar	-359
▁air	-360
▁li	-361
rying	-362
▁watch	-363
way	-364
ross	-365
▁I	-366
ount	-367
ture	-368
▁work	-369
▁sho	-370
▁stands	-371
te	-372
▁pink	-373
▁per	-374
▁sits	-375
▁jumping	-376
▁beh	-377
▁sun	-378
▁behind	-379
▁blo	-380
▁com	-381
ll	-382
iling	-383
▁un	-384
sh	-385
ice	-386
▁park	-387
ne	-388
get	-389
▁pic	-390
und	-391
▁perform	-392
ud	-393
ire	-394
▁read	-395
▁background	-396
pp	-397
▁dr	-398
ating	-399
ans	-400
▁cl	-401
by	-402
▁head	-403
▁tal	-404
▁top	-405
▁bike	-406
▁city	-407
ves	-408
▁rock	-409
▁wall	-410
ant	-411
cing	-412
▁H	-413
▁player	-414
uitar	-415
▁girls	-416
▁bus	-417
▁picture	-418
▁alo	-419
ame	-420
▁par	-421
▁guitar	-422
ill	-423
ool	-424
▁bic	-425
▁looks	-426
▁camer	-427
les	-428
ors	-429
▁sur	-430
▁shor	-431
▁dan	-432
▁that	-433
veral	-434
eat	-435
ountain	-436
▁hair	-437
▁clot	-438
ip	-439
ful	-440
ub	-441
ches	-442
▁has	-443
▁dogs	-444
do	-445
▁camera	-446
▁ph	-447
ive	-448
▁gu	-449
▁wood	-450
▁ac	-451
▁talking	-452
▁hel	-453
▁B	-454
ething	-455
▁something	-456
ccer	-457
▁walk	-458
▁mid	-459
▁older	-460
▁along	-461
▁food	-462
phone	-463
▁walks	-464
ants	-465
▁working	-466
kes	-467
▁soccer	-468
ol	-469
▁bri	-470
dle	-471
▁lady	-472
gether	-473
▁together	-474
our	-475
▁blond	-476
ket	-477
▁ha	-478
ore	-479
▁skate	-480
▁ad	-481
ction	-482
▁boys	-483
▁As	-484
▁gray	-485
qu	-486
▁uni	-487
▁ben	-488
gg	-489
ign	-490
▁game	-491
▁bicycle	-492
▁smiling	-493
▁him	-494
ation	-495
▁comp	-496
▁O	-497
▁us	-498
▁Asian	-499
▁them	-500
▁guy	-501
▁plays	-502
▁road	-503
are	-504
▁en	-505
▁uniform	-506
est	-507
pe	-508
umb	-509
▁pre	-510
imb	-511
▁He	-512
▁She	-513
▁holds	-514
▁je	-515
▁abo	-516
▁swim	-517
▁pro	-518
▁sand	-519
▁che	-520
ath	-521
▁Four	-522
▁Se	-523
▁und	-524
shirt	-525
▁climb	-526
▁skateboard	-527
ale	-528
mer	-529
▁fl	-530
▁bench	-531
▁br	-532
▁get	-533
▁pants	-534
▁glasses	-535
▁kid	-536
▁pain	-537
▁under	-538
gs	-539
ok	-540
▁coup	-541
▁stage	-542
▁shorts	-543
sing	-544
ies	-545
ward	-546
▁pur	-547
▁carrying	-548
▁dirt	-549
▁suit	-550
hes	-551
▁col	-552
rip	-553
▁We	-554
▁mountain	-555
led	-556
ell	-557
▁sing	-558
▁mus	-559
▁wait	-560
ha	-561
▁baby	-562
▁couple	-563
oto	-564
▁G	-565
▁bas	-566
▁tree	-567
▁face	-568
▁outdo	-569
▁base	-570
sta	-571
ry	-572
ull	-573
▁fem	-574
▁tan	-575
▁foot	-576
▁basket	-577
▁hor	-578
▁old	-579
▁Several	-580
ag	-581
▁bal	-582
▁long	-583
▁pool	-584
▁jumps	-585
▁taking	-586
▁boat	-587
▁shop	-588
▁each	-589
▁race	-590
▁sign	-591
uring	-592
▁mic	-593
▁chair	-594
▁dark	-595
▁day	-596
▁ex	-597
▁doing	-598
jo	-599
▁coat	-600
▁watching	-601
▁cat	-602
▁micro	-603
mp	-604
▁flo	-605
▁team	-606
▁wind	-607
▁across	-608
ugh	-609
▁Y	-610
uth	-611
ican	-612
▁photo	-613
▁ve	-614
▁spe	-615
▁jeans	-616
ence	-617
▁mot	-618
▁area	-619
▁middle	-620
ping	-621
▁de	-622
▁male	-623
▁att	-624
▁room	-625
ome	-626
ust	-627
▁hands	-628
▁tri	-629
ft	-630
▁music	-631
met	-632
ple	-633
▁enjo	-634
▁band	-635
▁strip	-636
▁who	-637
▁helmet	-638
ess	-639
▁op	-640
▁store	-641
▁motor	-642
▁ground	-643
▁bar	-644
▁new	-645
▁horse	-646
▁gat	-647
ous	-648
ired	-649
▁performing	-650
ey	-651
▁toy	-652
▁surf	-653
▁swing	-654
ee	-655
stru	-656
▁eating	-657
▁L	-658
▁sweat	-659
▁female	-660
▁being	-661
▁ten	-662
staur	-663
▁train	-664
▁restaur	-665
▁baseball	-666
▁football	-667
▁mouth	-668
ty	-669
▁Ch	-670
▁restaurant	-671
▁using	-672
▁Wom	-673
▁ca	-674
rel	-675
ment	-676
▁set	-677
▁arm	-678
▁she	-679
▁striped	-680
nis	-681
▁prep	-682
▁purple	-683
ner	-684
ming	-685
▁fis	-686
glasses	-687
ix	-688
cks	-689
▁am	-690
▁sl	-691
▁whe	-692
▁look	-693
▁window	-694
▁mar	-695
oking	-696
▁runs	-697
▁toward	-698
ade	-699
▁reading	-700
ak	-701
aper	-702
▁tennis	-703
▁ag	-704
▁tre	-705
iv	-706
▁adul	-707
▁cross	-708
struction	-709
haired	-710
▁Young	-711
▁ob	-712
▁flow	-713
▁past	-714
dd	-715
▁going	-716
▁basketball	-717
▁sunglasses	-718
ght	-719
▁three	-720
▁bot	-721
ching	-722
▁dis	-723
▁show	-724
ents	-725
▁color	-726
▁clothing	-727
fe	-728
▁its	-729
aring	-730
▁like	-731
▁during	-732
▁players	-733
▁microphone	-734
ort	-735
▁ri	-736
cean	-737
ance	-738
vered	-739
▁There	-740
▁pass	-741
▁sa	-742
▁can	-743
▁app	-744
▁cap	-745
▁bright	-746
rest	-747
▁fla	-748
▁ocean	-749
▁about	-750
leep	-751
▁watches	-752
▁motorc	-753
▁outf	-754
▁kids	-755
lderly	-756
▁again	-757
▁climbing	-758
▁me	-759
▁open	-760
ley	-761
man	-762
▁umb	-763
rella	-764
▁fire	-765
▁mark	-766
▁stick	-767
▁outfit	-768
▁against	-769
▁dancing	-770
▁umbrella	-771
ging	-772
▁cle	-773
ces	-774
▁was	-775
str	-776
vel	-777
▁bow	-778
▁rides	-779
▁smile	-780
▁elderly	-781
je	-782
ted	-783
▁al	-784
▁bag	-785
▁dri	-786
▁high	-787
▁throw	-788
▁book	-789
▁des	-790
▁hill	-791
lored	-792
▁trees	-793
use	-794
▁having	-795
▁One	-796
▁posing	-797
▁wooden	-798
ily	-799
▁gr	-800
▁all	-801
▁drin	-802
▁swimming	-803
▁outdoor	-804
ated	-805
▁covered	-806
▁getting	-807
ier	-808
▁they	-809
▁waiting	-810
end	-811
▁pol	-812
▁market	-813
▁night	-814
ast	-815
ruck	-816
stum	-817
▁floor	-818
▁colorful	-819
▁fe	-820
aning	-821
utting	-822
▁costum	-823
▁busy	-824
▁trying	-825
▁singing	-826
▁kit	-827
▁bear	-828
▁construction	-829
vers	-830
▁workers	-831
▁motorcycle	-832
ycl	-833
▁mat	-834
▁have	-835
ial	-836
ron	-837
▁pl	-838
▁fence	-839
ject	-840
▁ice	-841
ition	-842
▁cell	-843
▁shirts	-844
▁D	-845
iff	-846
▁This	-847
▁cart	-848
▁hu	-849
strum	-850
▁Woman	-851
▁light	-852
▁instrum	-853
▁ev	-854
less	-855
▁met	-856
▁compet	-857
▁others	-858
od	-859
chen	-860
▁path	-861
▁bat	-862
▁clothes	-863
able	-864
▁stair	-865
ler	-866
▁river	-867
▁han	-868
▁board	-869
▁kitchen	-870
gra	-871
▁Some	-872
▁line	-873
▁sleep	-874
▁laying	-875
ys	-876
pack	-877
▁Men	-878
▁pie	-879
▁truck	-880
br	-881
▁body	-882
▁hats	-883
▁ride	-884
▁paper	-885
▁full	-886
▁beard	-887
▁inside	-888
▁af	-889
cket	-890
▁art	-891
riend	-892
▁cour	-893
▁cellphone	-894
▁cre	-895
▁hard	-896
▁kick	-897
▁grassy	-898
▁making	-899
▁surround	-900
▁stud	-901
▁pus	-902
▁shou	-903
▁backpack	-904
ny	-905
▁"	-906
als	-907
▁brick	-908
▁takes	-909
▁track	-910
wing	-911
▁big	-912
▁bik	-913
▁laugh	-914
▁metal	-915
▁towards	-916
iz	-917
ckey	-918
▁fam	-919
▁step	-920
▁enjoying	-921
sc	-922
▁mach	-923
▁cow	-924
▁drum	-925
sp	-926
art	-927
ines	-928
▁painting	-929
ac	-930
ary	-931
▁ready	-932
ses	-933
▁cor	-934
▁tank	-935
▁friend	-936
▁photogra	-937
cor	-938
▁tr	-939
ding	-940
▁R	-941
tic	-942
▁hi	-943
▁sub	-944
iving	-945
▁rain	-946
▁gather	-947
ou	-948
▁Five	-949
▁sweater	-950
oot	-951
ious	-952
▁lake	-953
▁Child	-954
▁piece	-955
ime	-956
pla	-957
▁bre	-958
▁trick	-959
▁shopping	-960
ird	-961
ork	-962
▁above	-963
▁several	-964
ller	-965
room	-966
rican	-967
▁need	-968
▁class	-969
app	-970
aut	-971
▁fr	-972
▁box	-973
▁dra	-974
▁lot	-975
hered	-976
▁snowy	-977
ym	-978
▁E	-979
ium	-980
ons	-981
ved	-982
▁kne	-983
▁brid	-984
▁after	-985
merican	-986
ase	-987
▁we	-988
▁tur	-989
ening	-990
▁many	-991
▁dance	-992
▁stone	-993
▁colored	-994
▁2	-995
ched	-996
▁bes	-997
▁pra	-998
▁vest	-999
▁wave	-1000
▁house	-1001
▁wheel	-1002
we	-1003
▁onto	-1004
▁phone	-1005
▁crowded	-1006
▁uniforms	-1007
▁surrounded	-1008
co	-1009
auti	-1010
ones	-1011
autiful	-1012
▁worker	-1013
▁ele	-1014
elling	-1015
▁snowboard	-1016
▁cra	-1017
▁sha	-1018
▁comput	-1019
▁smiles	-1020
▁outdoors	-1021
uch	-1022
▁jo	-1023
▁lea	-1024
▁door	-1025
▁beside	-1026
▁family	-1027
▁drinking	-1028
emp	-1029
iew	-1030
ish	-1031
ists	-1032
▁lap	-1033
▁pul	-1034
▁gear	-1035
▁todd	-1036
▁adults	-1037
▁convers	-1038
▁no	-1039
▁pole	-1040
▁flowers	-1041
▁Af	-1042
▁poin	-1043
▁beautiful	-1044
ane	-1045
unch	-1046
▁pat	-1047
sel	-1048
▁hot	-1049
▁teen	-1050
▁ski	-1051
▁event	-1052
▁bridge	-1053
▁subway	-1054
▁fountain	-1055
▁gathered	-1056
▁preparing	-1057
ates	-1058
▁gym	-1059
▁hit	-1060
gging	-1061
iting	-1062
▁boot	-1063
▁good	-1064
▁leap	-1065
▁this	-1066
▁hanging	-1067
ich	-1068
ather	-1069
▁catch	-1070
▁fishing	-1071
▁ap	-1072
ffit	-1073
▁arms	-1074
▁stro	-1075
▁ballo	-1076
▁carri	-1077
▁skirt	-1078
▁African	-1079
aged	-1080
▁away	-1081
▁take	-1082
▁graffit	-1083
▁sleeping	-1084
▁ey	-1085
ears	-1086
▁win	-1087
ement	-1088
▁offic	-1089
▁object	-1090
▁costume	-1091
▁leaning	-1092
▁toddler	-1093
bble	-1094
hair	-1095
▁cur	-1096
▁Many	-1097
▁does	-1098
▁short	-1099
▁steps	-1100
▁attemp	-1101
▁forest	-1102
▁hockey	-1103
▁wr	-1104
▁vol	-1105
▁cont	-1106
▁guys	-1107
▁make	-1108
▁shoes	-1109
▁trail	-1110
▁machine	-1111
▁prepare	-1112
▁graffiti	-1113
▁fil	-1114
chool	-1115
▁rope	-1116
▁plaid	-1117
▁police	-1118
▁Children	-1119
▁N	-1120
ong	-1121
▁sky	-1122
▁list	-1123
▁pract	-1124
▁computer	-1125
lic	-1126
▁fix	-1127
▁four	-1128
▁adult	-1129
▁asian	-1130
▁party	-1131
cre	-1132
suit	-1133
▁equ	-1134
entle	-1135
▁J	-1136
ery	-1137
▁stairs	-1138
ash	-1139
eep	-1140
ally	-1141
▁pub	-1142
▁numb	-1143
▁stop	-1144
▁drink	-1145
▁sunny	-1146
be	-1147
ical	-1148
▁bet	-1149
▁lad	-1150
▁opp	-1151
ersey	-1152
▁view	-1153
▁glass	-1154
▁selling	-1155
▁setting	-1156
▁shirtless	-1157
arf	-1158
▁pe	-1159
▁cup	-1160
▁blow	-1161
▁fore	-1162
▁tall	-1163
▁jersey	-1164
av	-1165
ps	-1166
out	-1167
▁ent	-1168
ering	-1169
▁happ	-1170
yclist	-1171
▁rocks	-1172
▁gentle	-1173
▁should	-1174
▁volley	-1175
bee	-1176
day	-1177
▁bed	-1178
▁din	-1179
▁wet	-1180
▁pose	-1181
▁stat	-1182
▁racing	-1183
ring	-1184
▁sil	-1185
▁chas	-1186
▁cowbo	-1187
▁works	-1188
▁chairs	-1189
▁corner	-1190
▁putting	-1191
▁volleyball	-1192
ience	-1193
isbee	-1194
▁both	-1195
▁fruit	-1196
▁public	-1197
▁school	-1198
▁pushing	-1199
▁throwing	-1200
ats	-1201
hic	-1202
▁ce	-1203
ween	-1204
cture	-1205
▁ramp	-1206
▁slide	-1207
▁parade	-1208
▁between	-1209
▁cooking	-1210
▁sweatshirt	-1211
▁vi	-1212
▁kis	-1213
▁home	-1214
▁equip	-1215
▁plast	-1216
▁ladies	-1217
▁winter	-1218
▁American	-1219
▁laughing	-1220
os	-1221
hed	-1222
ctor	-1223
ined	-1224
▁gar	-1225
▁glo	-1226
▁dist	-1227
▁flag	-1228
▁pick	-1229
▁spea	-1230
▁time	-1231
▁someone	-1232
▁pictures	-1233
▁equipment	-1234
▁playground	-1235
▁instruments	-1236
▁but	-1237
▁squ	-1238
▁fish	-1239
▁rail	-1240
▁scen	-1241
▁vend	-1242
▁couch	-1243
▁vehic	-1244
▁bottle	-1245
▁displa	-1246
▁station	-1247
cking	-1248
▁veget	-1249
▁woods	-1250
▁plastic	-1251
ope	-1252
top	-1253
crete	-1254
▁bird	-1255
▁enjoy	-1256
▁poses	-1257
▁which	-1258
▁friends	-1259
▁concrete	-1260
de	-1261
▁K	-1262
ace	-1263
▁pit	-1264
▁roo	-1265
▁dock	-1266
▁gold	-1267
▁hood	-1268
▁stru	-1269
▁yard	-1270
phones	-1271
▁number	-1272
▁statue	-1273
bor	-1274
▁cig	-1275
iding	-1276
▁anim	-1277
▁midair	-1278
ffee	-1279
▁mas	-1280
▁net	-1281
ggles	-1282
▁shovel	-1283
ms	-1284
cert	-1285
▁emp	-1286
▁pad	-1287
▁ser	-1288
▁fall	-1289
▁bikes	-1290
▁bucket	-1291
▁cowboy	-1292
az	-1293
ert	-1294
ric	-1295
▁Bo	-1296
ests	-1297
ators	-1298
uff	-1299
▁Fr	-1300
▁tat	-1301
▁spor	-1302
▁stra	-1303
▁what	-1304
▁apron	-1305
▁cream	-1306
▁reads	-1307
▁attire	-1308
▁seated	-1309
els	-1310
▁St	-1311
▁ind	-1312
▁ite	-1313
▁just	-1314
▁left	-1315
▁newsp	-1316
▁coffee	-1317
▁distance	-1318
▁vegetable	-1319
cl	-1320
▁ed	-1321
head	-1322
rent	-1323
▁aud	-1324
▁ban	-1325
▁beer	-1326
▁blan	-1327
▁rela	-1328
▁inter	-1329
▁cutting	-1330
▁mountains	-1331
ns	-1332
ber	-1333
fet	-1334
ini	-1335
ned	-1336
▁cut	-1337
▁bags	-1338
ountry	-1339
▁break	-1340
▁cliff	-1341
▁elect	-1342
▁vests	-1343
▁where	-1344
▁concert	-1345
▁pulling	-1346
▁musician	-1347
▁buildings	-1348
ug	-1349
ban	-1350
lee	-1351
too	-1352
aret	-1353
▁bowl	-1354
▁plat	-1355
▁tent	-1356
aching	-1357
▁grill	-1358
▁rider	-1359
▁Little	-1360
▁cigaret	-1361
arm	-1362
hle	-1363
▁var	-1364
ights	-1365
▁Girl	-1366
▁court	-1367
▁paint	-1368
▁wrest	-1369
▁tattoo	-1370
▁appears	-1371
▁practic	-1372
ail	-1373
ony	-1374
pher	-1375
▁inf	-1376
▁pot	-1377
orses	-1378
▁bare	-1379
▁edge	-1380
▁drums	-1381
ctators	-1382
▁blanket	-1383
▁showing	-1384
▁crossing	-1385
▁instrument	-1386
ens	-1387
ins	-1388
port	-1389
▁Ind	-1390
▁buy	-1391
▁exp	-1392
▁few	-1393
▁fun	-1394
ading	-1395
▁Grou	-1396
▁land	-1397
▁post	-1398
▁right	-1399
▁scarf	-1400
▁driving	-1401
▁structure	-1402
▁pr	-1403
nding	-1404
▁roof	-1405
▁Women	-1406
▁bubble	-1407
▁filled	-1408
▁horses	-1409
▁leaves	-1410
▁nearby	-1411
▁performs	-1412
cal	-1413
ser	-1414
ival	-1415
look	-1416
▁mon	-1417
▁you	-1418
eling	-1419
lding	-1420
▁mart	-1421
▁pile	-1422
yclists	-1423
▁mother	-1424
▁Frisbee	-1425
▁carries	-1426
du	-1427
ven	-1428
ings	-1429
▁mul	-1430
▁flip	-1431
▁goal	-1432
▁athle	-1433
▁shore	-1434
▁bowling	-1435
key	-1436
▁Wh	-1437
▁kn	-1438
▁my	-1439
▁qu	-1440
ater	-1441
▁mov	-1442
▁res	-1443
▁cars	-1444
▁diff	-1445
▁viol	-1446
▁boots	-1447
▁parked	-1448
▁country	-1449
▁cigarette	-1450
th	-1451
ely	-1452
oks	-1453
ives	-1454
ways	-1455
pping	-1456
▁dire	-1457
▁lined	-1458
▁relax	-1459
▁Person	-1460
▁flower	-1461
▁vendor	-1462
▁display	-1463
▁goggles	-1464
▁photograph	-1465
▁snowboarder	-1466
na	-1467
set	-1468
cher	-1469
▁mud	-1470
▁ladd	-1471
▁shot	-1472
▁spla	-1473
▁talks	-1474
▁martial	-1475
▁painted	-1476
▁railing	-1477
▁vehicle	-1478
▁skateboarder	-1479
▁3	-1480
alm	-1481
ays	-1482
fore	-1483
ivid	-1484
pped	-1485
▁eyes	-1486
▁form	-1487
▁alley	-1488
▁lying	-1489
▁rocky	-1490
▁flying	-1491
▁roller	-1492
▁dresses	-1493
▁smoking	-1494
▁listening	-1495
▁newspaper	-1496
▁competition	-1497
io	-1498
enc	-1499
ise	-1500
men	-1501
ugg	-1502
ush	-1503
cord	-1504
ered	-1505
fety	-1506
▁mil	-1507
erent	-1508
iness	-1509
▁arts	-1510
▁Group	-1511
▁close	-1512
▁flags	-1513
▁happy	-1514
▁waves	-1515
ighting	-1516
▁before	-1517
▁safety	-1518
▁violin	-1519
▁bathing	-1520
▁jackets	-1521
▁kicking	-1522
▁younger	-1523
▁prepares	-1524
▁swinging	-1525
▁conversation	-1526
if	-1527
▁V	-1528
ige	-1529
ton	-1530
rown	-1531
▁ear	-1532
▁hik	-1533
▁put	-1534
▁sup	-1535
▁try	-1536
itary	-1537
▁bull	-1538
▁exam	-1539
▁gymn	-1540
▁made	-1541
▁pres	-1542
▁rode	-1543
▁gloves	-1544
▁parking	-1545
▁costumes	-1546
▁different	-1547
▁gentleman	-1548
▁practicing	-1549
▁spectators	-1550
cle	-1551
ike	-1552
nic	-1553
ized	-1554
▁Boy	-1555
▁dig	-1556
ctive	-1557
ining	-1558
▁cake	-1559
▁desk	-1560
▁help	-1561
▁uses	-1562
▁bunch	-1563
▁empty	-1564
▁there	-1565
▁ladder	-1566
▁onlook	-1567
▁writing	-1568
▁cleaning	-1569
▁vegetables	-1570
uck	-1571
▁rep	-1572
▁wed	-1573
▁coll	-1574
▁more	-1575
▁spra	-1576
eather	-1577
▁clean	-1578
▁items	-1579
▁scene	-1580
▁drinks	-1581
▁giving	-1582
▁laptop	-1583
▁bearded	-1584
▁staring	-1585
▁business	-1586
▁skateboarding	-1587
cu	-1588
ids	-1589
ales	-1590
ural	-1591
▁cla	-1592
▁ham	-1593
▁lit	-1594
▁not	-1595
▁row	-1596
cting	-1597
ividu	-1598
▁bath	-1599
▁coun	-1600
▁lawn	-1601
▁mask	-1602
▁meal	-1603
▁part	-1604
▁scoot	-1605
looking	-1606
▁bikini	-1607
▁surfer	-1608
▁balloon	-1609
▁various	-1610
▁audience	-1611
▁bicycles	-1612
▁surfboard	-1613
ette	-1614
▁tro	-1615
ative	-1616
▁gard	-1617
▁among	-1618
▁leaps	-1619
▁rodeo	-1620
▁splas	-1621
▁Indian	-1622
▁Someone	-1623
▁wedding	-1624
▁onlookers	-1625
bb	-1626
oe	-1627
eth	-1628
▁Con	-1629
▁fol	-1630
▁med	-1631
▁tow	-1632
▁tub	-1633
▁sold	-1634
▁vide	-1635
▁check	-1636
▁obser	-1637
▁silver	-1638
▁sports	-1639
▁sliding	-1640
▁washing	-1641
▁platform	-1642
▁pointing	-1643
▁gathering	-1644
lf	-1645
ars	-1646
cts	-1647
sed	-1648
▁im	-1649
▁int	-1650
▁kay	-1651
▁feet	-1652
▁neck	-1653
▁movie	-1654
▁suits	-1655
▁cement	-1656
▁facing	-1657
▁teenag	-1658
▁counter	-1659
▁streets	-1660
▁speaking	-1661
mo	-1662
ken	-1663
nel	-1664
ulp	-1665
▁mu	-1666
ited	-1667
▁mem	-1668
▁rais	-1669
▁trad	-1670
▁biker	-1671
▁match	-1672
▁produ	-1673
▁coming	-1674
▁waters	-1675
▁helmets	-1676
▁surfing	-1677
▁individu	-1678
▁classroom	-1679
▁competing	-1680
▁tradition	-1681
▁cr	-1682
cers	-1683
ught	-1684
▁Six	-1685
▁exc	-1686
▁tie	-1687
▁fing	-1688
▁gets	-1689
▁huge	-1690
▁incl	-1691
▁sculp	-1692
▁sweep	-1693
▁teams	-1694
▁artist	-1695
▁project	-1696
▁students	-1697
▁traditional	-1698
avy	-1699
mas	-1700
ror	-1701
▁ur	-1702
▁cir	-1703
▁fin	-1704
allow	-1705
athon	-1706
▁garb	-1707
▁life	-1708
▁rest	-1709
▁talk	-1710
▁purse	-1711
▁sings	-1712
▁tries	-1713
▁climbs	-1714
▁screen	-1715
▁chasing	-1716
aw	-1717
eng	-1718
ern	-1719
self	-1720
vert	-1721
▁gre	-1722
▁mir	-1723
▁vis	-1724
▁chef	-1725
▁cold	-1726
▁crou	-1727
▁bride	-1728
▁clown	-1729
▁place	-1730
▁animal	-1731
▁blowing	-1732
▁kissing	-1733
▁electric	-1734
▁military	-1735
▁da	-1736
ator	-1737
case	-1738
rist	-1739
▁son	-1740
ustom	-1741
▁card	-1742
▁kind	-1743
▁pull	-1744
▁same	-1745
▁sled	-1746
▁trun	-1747
▁books	-1748
▁cheer	-1749
▁always	-1750
▁sunset	-1751
▁fighting	-1752
▁stroller	-1753
ki	-1754
▁1	-1755
foot	-1756
ient	-1757
read	-1758
▁bur	-1759
▁gun	-1760
▁slo	-1761
▁sto	-1762
inese	-1763
▁sort	-1764
▁tire	-1765
ession	-1766
▁decor	-1767
▁skier	-1768
▁video	-1769
▁waits	-1770
▁fixing	-1771
▁females	-1772
▁walkway	-1773
▁kneeling	-1774
▁shoulder	-1775
ops	-1776
ides	-1777
▁end	-1778
▁ref	-1779
▁tun	-1780
▁wra	-1781
ticip	-1782
▁cand	-1783
▁indo	-1784
▁meat	-1785
▁shad	-1786
▁makes	-1787
ristmas	-1788
▁dinner	-1789
▁mirror	-1790
▁runner	-1791
▁waving	-1792
▁skating	-1793
▁barefoot	-1794
▁attempting	-1795
▁Do	-1796
▁ty	-1797
alle	-1798
▁five	-1799
▁golf	-1800
▁says	-1801
▁seen	-1802
▁balan	-1803
▁signs	-1804
▁hiking	-1805
▁office	-1806
▁officer	-1807
▁outfits	-1808
▁marathon	-1809
ib	-1810
aff	-1811
ang	-1812
ied	-1813
ram	-1814
cuss	-1815
iant	-1816
lebr	-1817
▁bra	-1818
▁eng	-1819
▁fur	-1820
▁gro	-1821
▁har	-1822
▁leg	-1823
▁padd	-1824
vertis	-1825
▁chain	-1826
▁celebr	-1827
▁course	-1828
▁father	-1829
▁lights	-1830
▁multic	-1831
▁tables	-1832
▁bubbles	-1833
▁scooter	-1834
▁weather	-1835
▁advertis	-1836
▁particip	-1837
▁overlooking	-1838
▁photographer	-1839
ho	-1840
ia	-1841
tes	-1842
ung	-1843
▁mag	-1844
lling	-1845
▁Work	-1846
▁bald	-1847
▁hole	-1848
▁meet	-1849
▁oper	-1850
▁plan	-1851
▁sell	-1852
▁stun	-1853
▁cover	-1854
▁leans	-1855
▁today	-1856
▁urban	-1857
▁follow	-1858
▁grocer	-1859
▁skiing	-1860
▁gymnast	-1861
▁helping	-1862
▁leather	-1863
▁balloons	-1864
▁brightly	-1865
ape	-1866
ped	-1867
▁In	-1868
▁Sm	-1869
vice	-1870
▁eat	-1871
acher	-1872
aches	-1873
▁pier	-1874
▁stad	-1875
▁tool	-1876
unette	-1877
▁alone	-1878
▁faces	-1879
▁prote	-1880
▁asleep	-1881
▁collar	-1882
▁discuss	-1883
▁microsc	-1884
▁musicians	-1885
▁umbrellas	-1886
▁foreground	-1887
▁Construction	-1888
ab	-1889
uc	-1890
ese	-1891
ffic	-1892
ners	-1893
▁mod	-1894
▁ped	-1895
arate	-1896
chair	-1897
▁legs	-1898
▁pian	-1899
▁site	-1900
▁soft	-1901
▁well	-1902
▁canoe	-1903
▁giant	-1904
▁plate	-1905
▁shows	-1906
▁custom	-1907
▁garden	-1908
▁repair	-1909
▁waterf	-1910
▁drawing	-1911
▁falling	-1912
▁stadium	-1913
▁sculpture	-1914
▁headphones	-1915
pl	-1916
za	-1917
ics	-1918
res	-1919
ult	-1920
lage	-1921
▁log	-1922
▁ste	-1923
▁way	-1924
▁chur	-1925
▁move	-1926
▁prin	-1927
▁star	-1928
▁tour	-1929
olored	-1930
▁piano	-1931
▁trash	-1932
▁wears	-1933
▁diving	-1934
▁sticks	-1935
▁swings	-1936
▁passing	-1937
▁sandals	-1938
ew	-1939
alf	-1940
amp	-1941
que	-1942
spe	-1943
ages	-1944
lesc	-1945
▁Can	-1946
▁fre	-1947
▁how	-1948
estri	-1949
▁hall	-1950
▁prof	-1951
▁toys	-1952
▁heads	-1953
▁stuff	-1954
cordion	-1955
▁string	-1956
▁doorway	-1957
▁musical	-1958
▁traffic	-1959
▁officers	-1960
▁accordion	-1961
▁multicolored	-1962
mb	-1963
▁U	-1964
▁z	-1965
band	-1966
bers	-1967
ital	-1968
tion	-1969
▁mix	-1970
▁smo	-1971
▁sus	-1972
enter	-1973
ughter	-1974
▁below	-1975
▁booth	-1976
▁dirty	-1977
▁leash	-1978
▁church	-1979
▁comple	-1980
▁includ	-1981
▁throws	-1982
▁Chinese	-1983
▁picking	-1984
▁shallow	-1985
▁teenage	-1986
▁reaching	-1987
▁performance	-1988
bs	-1989
ca	-1990
dge	-1991
ord	-1992
cial	-1993
orch	-1994
work	-1995
▁act	-1996
▁ass	-1997
▁cas	-1998
▁mom	-1999
▁sea	-2000
ature	-2001
▁They	-2002
▁fest	-2003
▁held	-2004
▁pack	-2005
▁pond	-2006
▁roll	-2007
▁laund	-2008
▁males	-2009
▁straw	-2010
▁travel	-2011
▁digging	-2012
▁present	-2013
zz	-2014
com	-2015
fts	-2016
ond	-2017
oon	-2018
ute	-2019
▁Gu	-2020
alls	-2021
back	-2022
lead	-2023
▁kha	-2024
▁nap	-2025
▁pet	-2026
▁van	-2027
osing	-2028
uddle	-2029
▁atop	-2030
▁last	-2031
▁seem	-2032
▁spot	-2033
▁tack	-2034
▁town	-2035
▁cloth	-2036
▁colle	-2037
▁gives	-2038
▁inspe	-2039
▁passes	-2040
▁singer	-2041
▁tunnel	-2042
▁upside	-2043
▁catches	-2044
▁hugging	-2045
▁catching	-2046
▁relaxing	-2047
▁studying	-2048
▁direction	-2049
▁microscope	-2050
nds	-2051
oph	-2052
pes	-2053
upp	-2054
▁yo	-2055
slee	-2056
▁lab	-2057
▁sax	-2058
▁spr	-2059
▁tou	-2060
stand	-2061
▁lift	-2062
▁shoe	-2063
▁balls	-2064
▁beige	-2065
▁block	-2066
▁lunch	-2067
▁round	-2068
▁stunt	-2069
▁suspe	-2070
▁plants	-2071
▁sleeps	-2072
▁dancers	-2073
▁jogging	-2074
▁leaping	-2075
▁brunette	-2076
▁sweeping	-2077
▁Christmas	-2078
kin	-2079
affo	-2080
ront	-2081
▁dun	-2082
▁eye	-2083
▁fan	-2084
▁hur	-2085
ached	-2086
light	-2087
table	-2088
▁cafe	-2089
▁hose	-2090
▁mess	-2091
▁pupp	-2092
▁went	-2093
selves	-2094
▁Black	-2095
▁coats	-2096
▁fight	-2097
▁flies	-2098
▁stret	-2099
▁teeth	-2100
▁desert	-2101
▁hammer	-2102
▁hoodie	-2103
▁picnic	-2104
▁scaffo	-2105
▁stream	-2106
▁telesc	-2107
▁tracks	-2108
▁trunks	-2109
▁resting	-2110
▁daughter	-2111
▁swimsuit	-2112
▁conversing	-2113
its	-2114
net	-2115
udy	-2116
cess	-2117
ular	-2118
brary	-2119
cross	-2120
ental	-2121
fight	-2122
neath	-2123
wards	-2124
▁balc	-2125
▁fair	-2126
▁fram	-2127
▁appro	-2128
▁guard	-2129
▁magaz	-2130
▁stack	-2131
▁closed	-2132
▁karate	-2133
▁points	-2134
▁racket	-2135
▁square	-2136
▁contain	-2137
▁suspend	-2138
▁splashing	-2139
▁telescope	-2140
▁wrestling	-2141
▁underneath	-2142
ina	-2143
ips	-2144
pan	-2145
lers	-2146
▁bel	-2147
▁low	-2148
▁ret	-2149
▁rob	-2150
allen	-2151
arrow	-2152
erman	-2153
nival	-2154
oline	-2155
▁Kids	-2156
▁cane	-2157
▁deep	-2158
▁goes	-2159
▁hula	-2160
▁curly	-2161
▁spray	-2162
▁tramp	-2163
▁center	-2164
▁moving	-2165
▁saxoph	-2166
▁underw	-2167
▁evening	-2168
▁library	-2169
▁passeng	-2170
▁without	-2171
▁including	-2172
▁shoulders	-2173
▁themselves	-2174
bla	-2175
ife	-2176
ino	-2177
let	-2178
ret	-2179
tor	-2180
ual	-2181
▁es	-2182
▁ke	-2183
ness	-2184
road	-2185
ster	-2186
▁Old	-2187
▁pin	-2188
▁see	-2189
▁ter	-2190
enced	-2191
fully	-2192
▁deck	-2193
▁tong	-2194
▁trip	-2195
▁turn	-2196
▁will	-2197
▁wine	-2198
▁wire	-2199
ashion	-2200
▁Small	-2201
▁fresh	-2202
▁hiker	-2203
▁kayak	-2204
▁mural	-2205
▁sheet	-2206
▁taken	-2207
▁crying	-2208
▁makeup	-2209
▁pulled	-2210
▁tricks	-2211
▁wooded	-2212
▁Workers	-2213
▁cyclist	-2214
▁produce	-2215
▁wetsuit	-2216
▁carnival	-2217
▁matching	-2218
▁opposing	-2219
▁bicyclist	-2220
▁crosswalk	-2221
▁profession	-2222
▁trampoline	-2223
▁individuals	-2224
aks	-2225
▁Te	-2226
▁ju	-2227
iers	-2228
▁cri	-2229
▁dry	-2230
▁fig	-2231
▁key	-2232
▁pos	-2233
eding	-2234
fting	-2235
▁brus	-2236
▁care	-2237
▁cook	-2238
▁knee	-2239
▁lone	-2240
▁nose	-2241
▁rece	-2242
▁infla	-2243
▁refle	-2244
▁third	-2245
▁dances	-2246
▁infant	-2247
▁sewing	-2248
▁stroll	-2249
▁athlete	-2250
▁excited	-2251
▁himself	-2252
▁meeting	-2253
▁members	-2254
▁pitcher	-2255
▁rolling	-2256
▁stuffed	-2257
▁surface	-2258
▁attempts	-2259
▁festival	-2260
▁performer	-2261
▁wheelchair	-2262
ara	-2263
eum	-2264
tom	-2265
yle	-2266
▁Co	-2267
cent	-2268
cted	-2269
oney	-2270
yard	-2271
▁our	-2272
▁rug	-2273
ummer	-2274
ustic	-2275
▁cond	-2276
▁hoop	-2277
▁lays	-2278
▁lear	-2279
▁ring	-2280
icycle	-2281
▁These	-2282
▁bever	-2283
▁heavy	-2284
▁slope	-2285
▁trans	-2286
leaders	-2287
riental	-2288
▁blouse	-2289
▁bottom	-2290
▁button	-2291
▁circle	-2292
▁museum	-2293
▁pushes	-2294
▁speaks	-2295
estrians	-2296
▁balcony	-2297
▁opening	-2298
▁softball	-2299
▁4	-2300
ipe	-2301
rol	-2302
apan	-2303
▁New	-2304
▁mop	-2305
▁pod	-2306
▁rub	-2307
▁wee	-2308
ident	-2309
▁bent	-2310
▁camp	-2311
▁cons	-2312
▁jugg	-2313
▁most	-2314
▁puts	-2315
▁shoo	-2316
▁skis	-2317
▁tile	-2318
illing	-2319
orning	-2320
▁boxes	-2321
▁clear	-2322
▁pulls	-2323
▁sandy	-2324
▁start	-2325
▁steep	-2326
artment	-2327
▁chases	-2328
▁design	-2329
▁device	-2330
▁formal	-2331
▁indoor	-2332
▁sprink	-2333
▁pouring	-2334
▁staircase	-2335
▁i	-2336
ger	-2337
ible	-2338
▁Guy	-2339
▁don	-2340
▁gaz	-2341
▁inv	-2342
▁vac	-2343
apers	-2344
place	-2345
plane	-2346
scape	-2347
▁carp	-2348
▁robe	-2349
atting	-2350
ipping	-2351
▁barbe	-2352
▁bread	-2353
▁paved	-2354
▁plane	-2355
▁stare	-2356
▁swims	-2357
▁cloudy	-2358
▁dancer	-2359
▁drives	-2360
▁enjoys	-2361
▁fallen	-2362
▁flight	-2363
▁podium	-2364
▁grocery	-2365
▁morning	-2366
▁patient	-2367
▁shaking	-2368
▁teacher	-2369
▁windows	-2370
▁covering	-2371
▁keyboard	-2372
▁overalls	-2373
▁customers	-2374
▁saxophone	-2375
ka	-2376
cus	-2377
gon	-2378
ift	-2379
oes	-2380
▁At	-2381
▁tw	-2382
ails	-2383
icem	-2384
ried	-2385
tend	-2386
▁den	-2387
▁pan	-2388
dress	-2389
▁curb	-2390
▁farm	-2391
▁gate	-2392
▁jean	-2393
▁lead	-2394
▁loun	-2395
▁nice	-2396
▁pair	-2397
▁refe	-2398
▁slee	-2399
▁stri	-2400
▁tele	-2401
uggage	-2402
vement	-2403
▁Japan	-2404
▁Older	-2405
▁birds	-2406
▁chalk	-2407
▁grind	-2408
▁kicks	-2409
▁local	-2410
▁mound	-2411
▁porch	-2412
▁robes	-2413
▁speak	-2414
▁stool	-2415
covered	-2416
▁appear	-2417
▁driver	-2418
▁figure	-2419
▁hikers	-2420
▁puddle	-2421
▁fingers	-2422
▁foreign	-2423
▁laundry	-2424
▁shaving	-2425
▁backyard	-2426
▁marching	-2427
▁gentlemen	-2428
▁teenagers	-2429
▁waterfall	-2430
▁bicyclists	-2431
▁5	-2432
bat	-2433
▁AT	-2434
▁So	-2435
lent	-2436
line	-2437
merg	-2438
test	-2439
▁bou	-2440
▁cho	-2441
▁lay	-2442
▁mer	-2443
▁sad	-2444
illow	-2445
osite	-2446
range	-2447
umpet	-2448
▁Here	-2449
▁dust	-2450
▁hosp	-2451
▁lies	-2452
▁lots	-2453
▁palm	-2454
▁polo	-2455
▁sale	-2456
▁stor	-2457
▁type	-2458
ertain	-2459
▁arena	-2460
▁groom	-2461
▁hangs	-2462
▁khaki	-2463
▁ledge	-2464
▁money	-2465
▁poles	-2466
▁sheep	-2467
▁walls	-2468
▁action	-2469
▁blocks	-2470
▁colors	-2471
▁dishes	-2472
▁golden	-2473
▁living	-2474
▁airport	-2475
▁animals	-2476
▁fashion	-2477
▁luggage	-2478
▁reaches	-2479
▁trumpet	-2480
▁wrapped	-2481
▁airplane	-2482
▁attached	-2483
▁checking	-2484
▁hospital	-2485
▁opposite	-2486
▁oriental	-2487
▁paddling	-2488
▁shooting	-2489
▁teenager	-2490
▁shoveling	-2491
▁protective	-2492
".	-2493
der	-2494
iet	-2495
jam	-2496
ouf	-2497
rem	-2498
uro	-2499
anta	-2500
ersk	-2501
itor	-2502
ouse	-2503
ower	-2504
time	-2505
▁adj	-2506
▁del	-2507
▁tom	-2508
▁amus	-2509
▁bran	-2510
▁fabr	-2511
▁feat	-2512
▁port	-2513
▁poss	-2514
▁raft	-2515
▁ship	-2516
▁wild	-2517
inning	-2518
▁cones	-2519
▁denim	-2520
▁great	-2521
▁oppon	-2522
▁pajam	-2523
▁plant	-2524
▁sword	-2525
ouflage	-2526
▁bandan	-2527
▁fenced	-2528
▁pillow	-2529
▁poster	-2530
▁summer	-2531
▁tongue	-2532
▁policem	-2533
▁internet	-2534
▁jumpsuit	-2535
▁pavement	-2536
▁position	-2537
▁balancing	-2538
▁entertain	-2539
▁camouflage	-2540
▁inflatable	-2541
▁professional	-2542
ced	-2543
cut	-2544
ilt	-2545
lid	-2546
umn	-2547
whe	-2548
▁Sp	-2549
▁di	-2550
ames	-2551
land	-2552
ured	-2553
▁far	-2554
▁orn	-2555
▁war	-2556
ently	-2557
tyard	-2558
ually	-2559
▁What	-2560
▁beam	-2561
▁cast	-2562
▁cool	-2563
▁eats	-2564
▁flor	-2565
▁kiss	-2566
▁seat	-2567
▁chest	-2568
▁drive	-2569
▁escal	-2570
▁frame	-2571
▁image	-2572
▁shoot	-2573
▁buying	-2574
▁fabric	-2575
▁goalie	-2576
▁headsc	-2577
▁laughs	-2578
▁shadow	-2579
▁skirts	-2580
▁married	-2581
▁student	-2582
▁tractor	-2583
▁bathroom	-2584
▁floating	-2585
▁juggling	-2586
▁railroad	-2587
▁touching	-2588
▁courtyard	-2589
▁firefight	-2590
▁motorcycles	-2591
cy	-2592
ma	-2593
ti	-2594
wk	-2595
cue	-2596
erc	-2597
mat	-2598
ten	-2599
vis	-2600
▁TV	-2601
hood	-2602
iple	-2603
stra	-2604
▁Dog	-2605
▁aco	-2606
▁eit	-2607
▁fly	-2608
▁hum	-2609
▁map	-2610
▁pig	-2611
▁rou	-2612
▁sim	-2613
erous	-2614
tered	-2615
▁York	-2616
▁club	-2617
▁sail	-2618
▁toss	-2619
▁warm	-2620
ention	-2621
▁Santa	-2622
▁boats	-2623
▁coast	-2624
▁goods	-2625
▁moves	-2626
▁musta	-2627
▁shown	-2628
▁socks	-2629
▁tools	-2630
▁German	-2631
▁carpet	-2632
▁dining	-2633
▁either	-2634
▁floral	-2635
▁hurdle	-2636
▁riders	-2637
▁bucking	-2638
▁garbage	-2639
▁happily	-2640
▁jerseys	-2641
▁pajamas	-2642
▁soldier	-2643
▁stopped	-2644
▁acoustic	-2645
▁athletic	-2646
▁bandanna	-2647
▁carriage	-2648
▁cheering	-2649
▁rollersk	-2650
▁soldiers	-2651
▁backwards	-2652
▁suspended	-2653
▁marketplace	-2654
▁scaffolding	-2655
ds	-2656
per	-2657
rop	-2658
wel	-2659
aped	-2660
ipes	-2661
lymp	-2662
skin	-2663
tery	-2664
ucas	-2665
▁Che	-2666
▁eas	-2667
▁egg	-2668
▁fir	-2669
▁hay	-2670
▁loc	-2671
▁rac	-2672
▁sal	-2673
▁six	-2674
▁tar	-2675
ister	-2676
▁Male	-2677
▁boun	-2678
▁calm	-2679
▁chop	-2680
▁fans	-2681
▁fast	-2682
▁free	-2683
▁inte	-2684
▁tops	-2685
▁Seven	-2686
▁White	-2687
▁broom	-2688
▁exerc	-2689
▁finis	-2690
▁float	-2691
▁funny	-2692
▁heart	-2693
▁invol	-2694
▁neigh	-2695
▁obsta	-2696
▁peace	-2697
▁plaza	-2698
▁rugby	-2699
▁shade	-2700
▁snack	-2701
▁speed	-2702
▁stove	-2703
▁super	-2704
▁teamm	-2705
▁towel	-2706
skinned	-2707
sleeved	-2708
ucasian	-2709
▁barrel	-2710
▁caught	-2711
▁finish	-2712
▁kneels	-2713
▁neckla	-2714
▁paints	-2715
▁parach	-2716
▁raised	-2717
▁harness	-2718
▁science	-2719
▁serving	-2720
▁welding	-2721
▁american	-2722
▁magazine	-2723
▁backpacks	-2724
▁escalator	-2725
▁landscape	-2726
▁underwater	-2727
▁advertisement	-2728
."	-2729
ws	-2730
bow	-2731
cur	-2732
gan	-2733
ggy	-2734
lit	-2735
med	-2736
nit	-2737
▁Ar	-2738
▁Ca	-2739
bile	-2740
erby	-2741
erse	-2742
ills	-2743
mers	-2744
uses	-2745
▁aut	-2746
▁tho	-2747
▁use	-2748
ester	-2749
illed	-2750
▁appl	-2751
▁doll	-2752
▁entr	-2753
▁half	-2754
▁keep	-2755
▁liqu	-2756
▁neon	-2757
▁pige	-2758
▁pipe	-2759
▁pony	-2760
▁sets	-2761
▁tube	-2762
▁wide	-2763
ations	-2764
niture	-2765
▁dread	-2766
▁polka	-2767
▁print	-2768
▁seems	-2769
▁sport	-2770
chestra	-2771
▁fruits	-2772
▁garage	-2773
▁gravel	-2774
▁hooded	-2775
▁jockey	-2776
▁storef	-2777
▁studio	-2778
▁talent	-2779
▁things	-2780
▁thrown	-2781
▁bending	-2782
▁climber	-2783
▁haircut	-2784
▁referee	-2785
▁runners	-2786
▁Japanese	-2787
▁barbecue	-2788
▁brushing	-2789
▁grilling	-2790
▁learning	-2791
▁obstacle	-2792
▁amusement	-2793
▁examining	-2794
▁operating	-2795
▁rollerbla	-2796
▁presentation	-2797
▁participating	-2798
fa	-2799
ik	-2800
wl	-2801
ech	-2802
gel	-2803
unk	-2804
irth	-2805
like	-2806
▁Blo	-2807
▁adm	-2808
▁beg	-2809
▁dep	-2810
▁ext	-2811
▁fen	-2812
▁ges	-2813
▁rel	-2814
hound	-2815
rench	-2816
ungle	-2817
▁arch	-2818
▁comm	-2819
▁cone	-2820
▁dump	-2821
▁knit	-2822
▁mall	-2823
▁ribb	-2824
▁rout	-2825
▁sink	-2826
▁thin	-2827
▁writ	-2828
shirts	-2829
ycling	-2830
▁activ	-2831
▁candy	-2832
▁exper	-2833
▁heels	-2834
▁hotel	-2835
▁likes	-2836
▁model	-2837
▁muddy	-2838
▁outst	-2839
▁ropes	-2840
▁sandw	-2841
▁thumb	-2842
▁wagon	-2843
▁youth	-2844
▁doctor	-2845
▁jungle	-2846
▁motorb	-2847
▁sleeve	-2848
▁attempt	-2849
▁benches	-2850
▁compete	-2851
▁feeding	-2852
▁frisbee	-2853
▁gesture	-2854
▁hallway	-2855
▁hitting	-2856
▁protest	-2857
▁redhead	-2858
▁sharing	-2859
▁crouches	-2860
▁cyclists	-2861
▁entrance	-2862
▁opponent	-2863
▁practice	-2864
▁sticking	-2865
▁vehicles	-2866
▁checkered	-2867
▁decorated	-2868
▁furniture	-2869
▁headscarf	-2870
▁orchestra	-2871
▁individual	-2872
▁pedestrians	-2873
▁photographs	-2874
no	-2875
so	-2876
▁(	-2877
hib	-2878
iny	-2879
urs	-2880
usk	-2881
zer	-2882
▁20	-2883
▁Sh	-2884
▁tu	-2885
ello	-2886
etra	-2887
ibly	-2888
uffy	-2889
▁aqu	-2890
▁ble	-2891
▁dem	-2892
▁emb	-2893
▁own	-2894
▁pri	-2895
aking	-2896
erial	-2897
ility	-2898
inery	-2899
itive	-2900
▁also	-2901
▁dish	-2902
▁ears	-2903
▁lamp	-2904
▁leaf	-2905
▁moto	-2906
▁muzz	-2907
▁only	-2908
▁sack	-2909
▁stom	-2910
▁your	-2911
etrack	-2912
iewing	-2913
isting	-2914
yhound	-2915
▁Brown	-2916
▁chase	-2917
▁cloud	-2918
▁coach	-2919
▁eleph	-2920
▁focus	-2921
▁games	-2922
▁jewel	-2923
▁patio	-2924
▁racer	-2925
▁rests	-2926
borhood	-2927
irthday	-2928
▁cleans	-2929
▁engine	-2930
▁famous	-2931
▁native	-2932
▁patter	-2933
▁rowing	-2934
▁slides	-2935
▁speech	-2936
▁ceiling	-2937
▁control	-2938
▁drummer	-2939
▁guitars	-2940
▁theater	-2941
▁electron	-2942
▁mustache	-2943
▁sporting	-2944
▁machinery	-2945
▁motocross	-2946
▁policeman	-2947
▁racetrack	-2948
▁passengers	-2949
▁skateboards	-2950
▁snowboarding	-2951
ai	-2952
pa	-2953
ady	-2954
des	-2955
ets	-2956
ges	-2957
gre	-2958
hou	-2959
ica	-2960
loy	-2961
uba	-2962
uts	-2963
vor	-2964
▁BM	-2965
▁Br	-2966
▁It	-2967
▁On	-2968
▁sy	-2969
ards	-2970
hawk	-2971
lish	-2972
rier	-2973
roud	-2974
▁ATV	-2975
▁dim	-2976
▁gas	-2977
▁job	-2978
▁mis	-2979
▁pen	-2980
▁pop	-2981
▁tag	-2982
▁tax	-2983
▁tea	-2984
▁too	-2985
▁wea	-2986
iring	-2987
jects	-2988
rents	-2989
truck	-2990
urope	-2991
▁lane	-2992
▁pine	-2993
▁puck	-2994
▁sofa	-2995
▁surg	-2996
astern	-2997
vorite	-2998
▁Blond	-2999
▁Crowd	-3000
▁Olymp	-3001
▁ahead	-3002
▁brush	-3003
▁cerem	-3004
▁exhib	-3005
▁first	-3006
▁grand	-3007
▁juice	-3008
▁rough	-3009
▁sells	-3010
▁weeke	-3011
▁bikers	-3012
▁bushes	-3013
▁comfor	-3014
▁narrow	-3015
▁baskets	-3016
▁herself	-3017
▁interse	-3018
▁leaving	-3019
▁observe	-3020
▁petting	-3021
▁routine	-3022
▁stomach	-3023
▁support	-3024
▁beverage	-3025
▁favorite	-3026
▁headband	-3027
▁hillside	-3028
▁possibly	-3029
▁sandwich	-3030
▁boardwalk	-3031
▁horseback	-3032
▁photograp	-3033
▁discussion	-3034
▁intersection	-3035
▁neighborhood	-3036
ex	-3037
go	-3038
clo	-3039
flo	-3040
ior	-3041
min	-3042
ral	-3043
▁Ro	-3044
aked	-3045
boat	-3046
born	-3047
down	-3048
gged	-3049
roon	-3050
vely	-3051
▁Mus	-3052
▁ang	-3053
▁cab	-3054
▁cal	-3055
▁dec	-3056
▁got	-3057
▁had	-3058
▁lan	-3059
▁let	-3060
▁nur	-3061
▁vil	-3062
akers	-3063
aters	-3064
cular	-3065
house	-3066
ially	-3067
iddle	-3068
lease	-3069
locks	-3070
pherd	-3071
ption	-3072
rence	-3073
ument	-3074
▁Fire	-3075
▁Lady	-3076
▁brow	-3077
▁clay	-3078
▁dune	-3079
▁fold	-3080
▁load	-3081
▁main	-3082
▁navy	-3083
▁scre	-3084
▁song	-3085
▁tick	-3086
ightly	-3087
vision	-3088
▁Large	-3089
▁carry	-3090
▁condu	-3091
▁fancy	-3092
▁flute	-3093
▁helps	-3094
▁organ	-3095
▁proud	-3096
▁puppy	-3097
▁rainy	-3098
▁seats	-3099
▁smoke	-3100
▁terra	-3101
retched	-3102
▁chains	-3103
▁cobble	-3104
▁listen	-3105
▁maroon	-3106
▁mixing	-3107
▁mostly	-3108
▁ornate	-3109
▁rubber	-3110
▁silhou	-3111
▁skates	-3112
▁spread	-3113
▁stones	-3114
▁african	-3115
▁bottles	-3116
▁buckets	-3117
▁fencing	-3118
▁folding	-3119
▁indoors	-3120
▁shining	-3121
▁birthday	-3122
▁planning	-3123
▁tattooed	-3124
▁cardboard	-3125
▁container	-3126
▁handstand	-3127
▁squatting	-3128
▁celebrating	-3129
▁microphones	-3130
▁motorcyclist	-3131
▁outstretched	-3132
eb	-3133
gy	-3134
me	-3135
ato	-3136
ook	-3137
ude	-3138
uum	-3139
▁Ho	-3140
▁Jo	-3141
ency	-3142
ilar	-3143
ions	-3144
mark	-3145
quet	-3146
reet	-3147
ucks	-3148
▁bla	-3149
▁cro	-3150
▁dro	-3151
▁min	-3152
▁odd	-3153
▁pee	-3154
▁reg	-3155
▁tas	-3156
ondon	-3157
onstr	-3158
pical	-3159
stick	-3160
uting	-3161
▁Stud	-3162
▁amid	-3163
▁bagp	-3164
▁bank	-3165
▁bars	-3166
▁bean	-3167
▁belt	-3168
▁bill	-3169
▁burg	-3170
▁calf	-3171
▁dead	-3172
▁defe	-3173
▁hugs	-3174
▁item	-3175
▁kite	-3176
▁pump	-3177
▁rink	-3178
▁spar	-3179
▁wife	-3180
▁year	-3181
ethnic	-3182
herman	-3183
ically	-3184
▁blows	-3185
▁bowls	-3186
▁choir	-3187
▁embra	-3188
▁emerg	-3189
▁every	-3190
▁hotdo	-3191
▁lines	-3192
▁merch	-3193
▁newly	-3194
▁paras	-3195
▁pitch	-3196
▁reach	-3197
▁rural	-3198
▁scuba	-3199
▁share	-3200
ference	-3201
▁London	-3202
▁Street	-3203
▁baller	-3204
▁boxing	-3205
▁broken	-3206
▁compan	-3207
▁crafts	-3208
▁finger	-3209
▁moment	-3210
▁pieces	-3211
▁protes	-3212
▁record	-3213
▁smokes	-3214
▁stares	-3215
▁vacuum	-3216
▁yester	-3217
▁balance	-3218
▁camping	-3219
▁carving	-3220
▁cricket	-3221
▁leading	-3222
▁medical	-3223
▁sailing	-3224
▁scenery	-3225
▁stripes	-3226
▁swimmer	-3227
▁tattoos	-3228
▁turning	-3229
▁coloring	-3230
▁flipping	-3231
▁grinding	-3232
▁spinning	-3233
▁apartment	-3234
▁crouching	-3235
▁firetruck	-3236
▁guitarist	-3237
▁uniformed	-3238
▁yesterday	-3239
▁dreadlocks	-3240
▁inspecting	-3241
▁reflective	-3242
▁sleeveless	-3243
▁storefront	-3244
▁stretching	-3245
▁cheerleaders	-3246
ze	-3247
wor	-3248
eath	-3249
ians	-3250
ilts	-3251
izza	-3252
▁BMX	-3253
▁Mar	-3254
▁Run	-3255
▁Spe	-3256
▁adv	-3257
▁bul	-3258
▁cop	-3259
▁sco	-3260
asium	-3261
ctory	-3262
flops	-3263
tails	-3264
▁bass	-3265
▁bund	-3266
▁chee	-3267
▁corn	-3268
▁crew	-3269
▁cuts	-3270
▁lick	-3271
▁live	-3272
▁name	-3273
▁taxi	-3274
▁tied	-3275
acting	-3276
▁Girls	-3277
▁angel	-3278
▁backs	-3279
▁cello	-3280
▁chick	-3281
▁crane	-3282
▁derby	-3283
▁dimly	-3284
▁doors	-3285
▁moped	-3286
▁world	-3287
resting	-3288
tending	-3289
▁Europe	-3290
▁Middle	-3291
▁banner	-3292
▁batter	-3293
▁commun	-3294
▁ethnic	-3295
▁fluffy	-3296
▁member	-3297
▁photos	-3298
▁raises	-3299
▁wheels	-3300
▁balding	-3301
▁candles	-3302
▁forward	-3303
▁listens	-3304
▁objects	-3305
▁pigeons	-3306
▁similar	-3307
▁smaller	-3308
▁viewing	-3309
▁balances	-3310
▁demonstr	-3311
▁intently	-3312
▁material	-3313
▁necklace	-3314
▁spraying	-3315
▁stairway	-3316
▁talented	-3317
▁unicycle	-3318
▁computers	-3319
▁following	-3320
▁greyhound	-3321
▁groceries	-3322
▁gymnasium	-3323
▁motorbike	-3324
▁nighttime	-3325
▁partially	-3326
▁conference	-3327
▁discussing	-3328
▁approaching	-3329
▁surrounding	-3330
da	-3331
ef	-3332
vi	-3333
bby	-3334
cul	-3335
elf	-3336
ilo	-3337
int	-3338
lay	-3339
ues	-3340
uzz	-3341
▁Le	-3342
▁ic	-3343
aker	-3344
dles	-3345
nder	-3346
noon	-3347
oned	-3348
orts	-3349
tory	-3350
town	-3351
view	-3352
▁bun	-3353
▁fet	-3354
▁hon	-3355
▁rem	-3356
▁suc	-3357
borne	-3358
ctors	-3359
ising	-3360
ivers	-3361
oring	-3362
rucks	-3363
stone	-3364
▁bino	-3365
▁call	-3366
▁clut	-3367
▁conf	-3368
▁duck	-3369
▁forg	-3370
▁give	-3371
▁hang	-3372
▁heav	-3373
▁hits	-3374
▁horn	-3375
▁mult	-3376
▁nets	-3377
▁pret	-3378
▁push	-3379
▁seas	-3380
▁tech	-3381
▁toot	-3382
curity	-3383
▁While	-3384
▁chess	-3385
▁hoops	-3386
▁price	-3387
▁quick	-3388
▁retur	-3389
▁space	-3390
▁spoon	-3391
▁style	-3392
▁turns	-3393
boarder	-3394
umerous	-3395
▁Please	-3396
▁attend	-3397
▁autumn	-3398
▁barber	-3399
▁branch	-3400
▁called	-3401
▁castle	-3402
▁groups	-3403
▁inform	-3404
▁liquid	-3405
▁mobile	-3406
▁modern	-3407
▁nature	-3408
▁paddle	-3409
▁papers	-3410
▁plates	-3411
▁ribbon	-3412
▁serves	-3413
▁shades	-3414
▁shaped	-3415
▁shaved	-3416
▁amongst	-3417
▁beneath	-3418
▁brother	-3419
▁catcher	-3420
▁college	-3421
▁crosses	-3422
▁engaged	-3423
▁fireman	-3424
▁follows	-3425
▁jewelry	-3426
▁rainbow	-3427
▁raising	-3428
▁shovels	-3429
▁success	-3430
▁trailer	-3431
▁village	-3432
▁wrestle	-3433
▁creative	-3434
▁elephant	-3435
▁flowered	-3436
▁lounging	-3437
▁official	-3438
▁security	-3439
▁starting	-3440
▁straight	-3441
▁teammate	-3442
▁training	-3443
▁afternoon	-3444
▁billboard	-3445
▁observing	-3446
▁directions	-3447
▁electronic	-3448
▁television	-3449
▁advertising	-3450
▁countryside	-3451
▁interesting	-3452
▁participate	-3453
my	-3454
▁6	-3455
eds	-3456
hus	-3457
ipp	-3458
iss	-3459
itt	-3460
lue	-3461
▁10	-3462
▁Sk	-3463
▁US	-3464
▁em	-3465
▁oc	-3466
ache	-3467
appy	-3468
avig	-3469
cade	-3470
coat	-3471
eter	-3472
greg	-3473
husi	-3474
ices	-3475
ilst	-3476
isle	-3477
late	-3478
leas	-3479
long	-3480
ored	-3481
pers	-3482
sely	-3483
tain	-3484
ults	-3485
ures	-3486
wood	-3487
▁Red	-3488
▁bit	-3489
▁sem	-3490
▁sne	-3491
▁swe	-3492
▁tee	-3493
▁wig	-3494
aract	-3495
arves	-3496
ately	-3497
inger	-3498
itors	-3499
ively	-3500
izing	-3501
▁City	-3502
▁Mult	-3503
▁arri	-3504
▁been	-3505
▁cape	-3506
▁caps	-3507
▁cras	-3508
▁cray	-3509
▁cree	-3510
▁fake	-3511
▁gift	-3512
▁gown	-3513
▁guns	-3514
▁iron	-3515
▁late	-3516
▁mini	-3517
▁poor	-3518
▁remo	-3519
▁upon	-3520
barrow	-3521
culars	-3522
sleeve	-3523
▁Cheer	-3524
▁aisle	-3525
▁apple	-3526
▁camel	-3527
▁chefs	-3528
▁delic	-3529
▁dough	-3530
▁glove	-3531
▁holid	-3532
▁leads	-3533
▁naked	-3534
▁press	-3535
▁quiet	-3536
▁races	-3537
▁shops	-3538
▁silly	-3539
▁steel	-3540
▁tents	-3541
▁tight	-3542
▁trunk	-3543
colored	-3544
▁Soccer	-3545
▁biking	-3546
▁butter	-3547
▁casual	-3548
▁donkey	-3549
▁easier	-3550
▁employ	-3551
▁houses	-3552
▁scream	-3553
▁shakes	-3554
▁snowsh	-3555
▁target	-3556
▁wading	-3557
▁whilst	-3558
▁bystand	-3559
▁cameras	-3560
▁charact	-3561
▁closeup	-3562
▁congreg	-3563
▁lecture	-3564
▁lifting	-3565
▁loading	-3566
▁newborn	-3567
▁peering	-3568
▁pottery	-3569
▁repairs	-3570
▁terrain	-3571
▁weaving	-3572
▁Students	-3573
▁admiring	-3574
▁airborne	-3575
▁bleacher	-3576
▁downtown	-3577
▁exercise	-3578
▁machines	-3579
▁slightly	-3580
▁snowsuit	-3581
▁splashes	-3582
▁tourists	-3583
▁tricycle	-3584
▁Caucasian	-3585
▁ballerina	-3586
▁fisherman	-3587
▁passenger	-3588
▁receiving	-3589
▁redheaded	-3590
▁sprinkler	-3591
▁transport	-3592
▁binoculars	-3593
▁protesting	-3594
▁cobblestone	-3595
▁interacting	-3596
▁wheelbarrow	-3597
▁Cheerleaders	-3598
▁photographed	-3599
gu	-3600
ky	-3601
xy	-3602
▁'	-3603
ads	-3604
aps	-3605
box	-3606
can	-3607
cep	-3608
dan	-3609
ked	-3610
nam	-3611
ula	-3612
urf	-3613
zen	-3614
▁Ad	-3615
▁Mc	-3616
▁Mo	-3617
▁aw	-3618
ared	-3619
bris	-3620
ific	-3621
ilot	-3622
izon	-3623
lley	-3624
ocal	-3625
onal	-3626
shaw	-3627
undy	-3628
▁Pol	-3629
▁bad	-3630
▁bin	-3631
▁dot	-3632
▁hug	-3633
▁jet	-3634
▁may	-3635
▁say	-3636
▁sen	-3637
▁sty	-3638
▁tex	-3639
▁tor	-3640
▁ump	-3641
iment	-3642
ities	-3643
orrow	-3644
style	-3645
▁Amer	-3646
▁Tour	-3647
▁come	-3648
▁cups	-3649
▁dusk	-3650
▁eggs	-3651
▁here	-3652
▁hour	-3653
▁leot	-3654
▁loom	-3655
▁mitt	-3656
▁oven	-3657
▁rick	-3658
▁scru	-3659
▁seco	-3660
▁sele	-3661
▁skin	-3662
▁stay	-3663
▁than	-3664
▁when	-3665
orting	-3666
usting	-3667
weight	-3668
▁bound	-3669
▁built	-3670
▁craft	-3671
▁drill	-3672
▁flips	-3673
▁grate	-3674
▁messy	-3675
▁navig	-3676
▁opens	-3677
▁order	-3678
▁patch	-3679
▁pizza	-3680
▁scout	-3681
▁sniff	-3682
▁these	-3683
▁tires	-3684
▁tower	-3685
▁wings	-3686
▁adjust	-3687
▁checks	-3688
▁debris	-3689
▁handle	-3690
▁instru	-3691
▁lounge	-3692
▁places	-3693
▁portra	-3694
▁pretty	-3695
▁social	-3696
▁walked	-3697
▁barrier	-3698
▁coaster	-3699
▁contest	-3700
▁enthusi	-3701
▁express	-3702
▁factory	-3703
▁feather	-3704
▁landing	-3705
▁laptops	-3706
▁praying	-3707
▁protect	-3708
▁spotted	-3709
▁watched	-3710
▁Multiple	-3711
▁breakdan	-3712
▁browsing	-3713
▁burgundy	-3714
▁ceremony	-3715
▁chainsaw	-3716
▁converse	-3717
▁customer	-3718
▁entering	-3719
▁examines	-3720
▁gestures	-3721
▁observes	-3722
▁overhead	-3723
▁rickshaw	-3724
▁sneakers	-3725
▁swimmers	-3726
▁teaching	-3727
▁tomorrow	-3728
▁tropical	-3729
▁waterway	-3730
▁attention	-3731
▁bleachers	-3732
▁delicious	-3733
▁gardening	-3734
▁consisting	-3735
▁newspapers	-3736
▁successful	-3737
▁waterfront	-3738
▁firefighters	-3739
eu	-3740
ga	-3741
of	-3742
arn	-3743
bal	-3744
con	-3745
ded	-3746
ham	-3747
hop	-3748
kis	-3749
lon	-3750
orm	-3751
ots	-3752
quo	-3753
rie	-3754
tub	-3755
val	-3756
vil	-3757
▁Be	-3758
▁To	-3759
▁gl	-3760
▁if	-3761
▁ru	-3762
ably	-3763
arts	-3764
bies	-3765
chan	-3766
cked	-3767
eled	-3768
fire	-3769
girl	-3770
hand	-3771
hill	-3772
mboo	-3773
olor	-3774
rail	-3775
umin	-3776
utes	-3777
▁201	-3778
▁Com	-3779
▁Fem	-3780
▁Joh	-3781
▁aim	-3782
▁awa	-3783
▁hom	-3784
▁ill	-3785
▁inj	-3786
▁lar	-3787
▁mow	-3788
▁ord	-3789
▁pay	-3790
▁pow	-3791
▁pun	-3792
▁sla	-3793
▁tug	-3794
arter	-3795
bbing	-3796
brush	-3797
cause	-3798
imate	-3799
ments	-3800
oodle	-3801
robat	-3802
viron	-3803
▁Boys	-3804
▁bite	-3805
▁blur	-3806
▁clad	-3807
▁draw	-3808
▁mass	-3809
▁recl	-3810
▁rice	-3811
▁scra	-3812
▁semi	-3813
▁tape	-3814
▁teal	-3815
▁wrap	-3816
▁yoga	-3817
andise	-3818
compan	-3819
crosse	-3820
enting	-3821
itical	-3822
market	-3823
ucking	-3824
▁attra	-3825
▁backd	-3826
▁banan	-3827
▁banjo	-3828
▁brief	-3829
▁carts	-3830
▁colla	-3831
▁comes	-3832
▁crown	-3833
▁desce	-3834
▁eight	-3835
▁explo	-3836
▁knees	-3837
▁knife	-3838
▁noteb	-3839
▁power	-3840
▁purch	-3841
▁salon	-3842
▁score	-3843
▁sides	-3844
▁sized	-3845
▁stars	-3846
▁stops	-3847
▁tired	-3848
▁touch	-3849
▁wares	-3850
▁wires	-3851
▁ballet	-3852
▁bamboo	-3853
▁beanie	-3854
▁bought	-3855
▁bricks	-3856
▁kayaks	-3857
▁lively	-3858
▁second	-3859
▁sweeps	-3860
▁tackle	-3861
▁ticket	-3862
▁umpire	-3863
▁because	-3864
▁boulder	-3865
▁chicken	-3866
▁environ	-3867
▁exhibit	-3868
▁filling	-3869
▁firemen	-3870
▁handing	-3871
▁heading	-3872
▁horizon	-3873
▁paddles	-3874
▁pillows	-3875
▁process	-3876
▁shadows	-3877
▁strange	-3878
▁tossing	-3879
▁touches	-3880
▁tourist	-3881
▁trolley	-3882
▁usually	-3883
▁vendors	-3884
▁visited	-3885
▁waterme	-3886
▁weekend	-3887
▁wheelie	-3888
▁alleyway	-3889
▁applying	-3890
▁bagpipes	-3891
▁blankets	-3892
▁clapping	-3893
▁complete	-3894
▁forehead	-3895
▁inspects	-3896
▁lacrosse	-3897
▁location	-3898
▁monument	-3899
▁pigtails	-3900
▁scaffold	-3901
▁scooters	-3902
▁suitcase	-3903
▁visiting	-3904
▁wrestler	-3905
▁attending	-3906
▁beverages	-3907
▁emergency	-3908
▁headdress	-3909
▁interview	-3910
▁magazines	-3911
▁paperwork	-3912
▁telephone	-3913
▁bystanders	-3914
▁gymnastics	-3915
▁overweight	-3916
▁performers	-3917
▁environment	-3918
▁firefighter	-3919
▁merchandise	-3920
▁supermarket	-3921
eo	-3922
fo	-3923
yd	-3924
zy	-3925
act	-3926
ake	-3927
ama	-3928
bag	-3929
bed	-3930
cas	-3931
cra	-3932
een	-3933
ees	-3934
ker	-3935
mon	-3936
▁Ph	-3937
▁ax	-3938
aris	-3939
bank	-3940
ened	-3941
inis	-3942
lons	-3943
mmed	-3944
pids	-3945
tail	-3946
zing	-3947
▁McD	-3948
▁Mex	-3949
▁dad	-3950
▁fac	-3951
▁fit	-3952
▁fle	-3953
▁gen	-3954
▁hun	-3955
▁hut	-3956
▁hyd	-3957
▁joy	-3958
▁jud	-3959
▁kno	-3960
▁mug	-3961
▁mur	-3962
▁pir	-3963
▁rad	-3964
▁rif	-3965
▁rod	-3966
▁saw	-3967
▁sep	-3968
▁str	-3969
▁tux	-3970
▁val	-3971
▁vic	-3972
anges	-3973
atory	-3974
ersby	-3975
oping	-3976
plies	-3977
romat	-3978
wheel	-3979
where	-3980
▁2012	-3981
▁Asia	-3982
▁Bear	-3983
▁Play	-3984
▁Teen	-3985
▁ador	-3986
▁bron	-3987
▁bush	-3988
▁cans	-3989
▁case	-3990
▁elev	-3991
▁find	-3992
▁flat	-3993
▁gall	-3994
▁link	-3995
▁logs	-3996
▁masc	-3997
▁meas	-3998
▁moon	-3999
▁much	-4000
▁news	-4001
▁rust	-4002
▁self	-4003
▁soap	-4004
▁soda	-4005
▁soup	-4006
▁stir	-4007
▁tast	-4008
▁tiny	-4009
▁tray	-4010
▁unus	-4011
▁wake	-4012
▁weap	-4013
▁week	-4014
▁whis	-4015
▁yarn	-4016
coming	-4017
quoise	-4018
reline	-4019
▁Canad	-4020
▁China	-4021
▁assem	-4022
▁blind	-4023
▁cheek	-4024
▁conne	-4025
▁creek	-4026
▁diver	-4027
▁dives	-4028
▁dusty	-4029
▁falls	-4030
▁lifts	-4031
▁month	-4032
▁mower	-4033
▁picks	-4034
▁range	-4035
▁still	-4036
▁treat	-4037
ational	-4038
itorium	-4039
▁Female	-4040
▁Police	-4041
▁arcade	-4042
▁assist	-4043
▁belong	-4044
▁biting	-4045
▁contra	-4046
▁covers	-4047
▁farmer	-4048
▁floats	-4049
▁folded	-4050
▁headed	-4051
▁honest	-4052
▁khakis	-4053
▁lanter	-4054
▁larger	-4055
▁lifted	-4056
▁mechan	-4057
▁medium	-4058
▁movies	-4059
▁placed	-4060
▁pocket	-4061
▁rapids	-4062
▁retrie	-4063
▁scient	-4064
▁skiers	-4065
▁thumbs	-4066
▁tights	-4067
▁unique	-4068
American	-4069
▁McDonal	-4070
▁Runners	-4071
▁acrobat	-4072
▁burning	-4073
▁butterf	-4074
▁closely	-4075
▁constru	-4076
▁cowboys	-4077
▁crossed	-4078
▁curious	-4079
▁descent	-4080
▁focused	-4081
▁gallery	-4082
▁gathers	-4083
▁highway	-4084
▁lighted	-4085
▁placing	-4086
▁puppies	-4087
▁quarter	-4088
▁quickly	-4089
▁section	-4090
▁skaters	-4091
▁special	-4092
▁surgery	-4093
▁visible	-4094
▁accompan	-4095
▁athletes	-4096
▁backdrop	-4097
▁chatting	-4098
▁communic	-4099
▁exciting	-4100
▁finished	-4101
▁grateful	-4102
▁handrail	-4103
▁homeless	-4104
▁involved	-4105
▁multiple	-4106
▁planting	-4107
▁ponytail	-4108
▁sunlight	-4109
▁supplies	-4110
▁tackling	-4111
▁workshop	-4112
▁adjusting	-4113
▁carefully	-4114
▁christmas	-4115
▁formation	-4116
▁motorized	-4117
▁parachute	-4118
▁patterned	-4119
▁playfully	-4120
▁practices	-4121
▁repairing	-4122
▁screaming	-4123
▁shoreline	-4124
▁snowshoes	-4125
▁swimsuits	-4126
▁traveling	-4127
▁turquoise	-4128
▁underwear	-4129
▁auditorium	-4130
▁chalkboard	-4131
▁laundromat	-4132
▁reflection	-4133
▁suspenders	-4134
▁celebration	-4135
▁motorcyclists	-4136
▁rollerblading	-4137
▁rollerskating	-4138
po	-4139
▁#	-4140
▁&	-4141
▁9	-4142
boy	-4143
bre	-4144
era	-4145
ize	-4146
ney	-4147
ora	-4148
pro	-4149
ray	-4150
vas	-4151
▁Ba	-4152
▁El	-4153
▁Is	-4154
▁Sw	-4155
▁el	-4156
▁ut	-4157
ager	-4158
aint	-4159
amed	-4160
enue	-4161
food	-4162
ftop	-4163
gers	-4164
hear	-4165
icop	-4166
ikes	-4167
illy	-4168
imes	-4169
iner	-4170
inet	-4171
lose	-4172
pect	-4173
rous	-4174
stro	-4175
ucky	-4176
vous	-4177
▁Haw	-4178
▁Ped	-4179
▁Pro	-4180
▁Squ	-4181
▁acc	-4182
▁cru	-4183
▁est	-4184
▁fat	-4185
▁fed	-4186
▁gri	-4187
▁lip	-4188
▁sol	-4189
▁syn	-4190
▁tut	-4191
agull	-4192
aling	-4193
arium	-4194
encil	-4195
iable	-4196
lined	-4197
▁Band	-4198
▁Coup	-4199
▁John	-4200
▁buff	-4201
▁cage	-4202
▁cann	-4203
▁char	-4204
▁cute	-4205
▁done	-4206
▁even	-4207
▁fell	-4208
▁gaze	-4209
▁goat	-4210
▁hike	-4211
▁lean	-4212
▁lens	-4213
▁must	-4214
▁pill	-4215
▁pins	-4216
▁pots	-4217
▁rows	-4218
▁sque	-4219
▁tail	-4220
▁task	-4221
▁text	-4222
▁unlo	-4223
▁whom	-4224
friend	-4225
ggings	-4226
igning	-4227
loseup	-4228
minton	-4229
oodles	-4230
sticks	-4231
vering	-4232
▁Music	-4233
▁apart	-4234
▁belts	-4235
▁blood	-4236
▁cable	-4237
▁cards	-4238
▁cooks	-4239
▁furry	-4240
▁gazes	-4241
▁labor	-4242
▁lobby	-4243
▁maneu	-4244
▁march	-4245
▁pilot	-4246
▁rally	-4247
▁serve	-4248
▁shape	-4249
▁stall	-4250
▁story	-4251
▁tread	-4252
▁twirl	-4253
▁venue	-4254
estrian	-4255
icopter	-4256
tenance	-4257
▁Roller	-4258
▁Square	-4259
▁amidst	-4260
▁blazer	-4261
▁boards	-4262
▁candle	-4263
▁canvas	-4264
▁cheese	-4265
▁clouds	-4266
▁dramat	-4267
▁forgot	-4268
▁frozen	-4269
▁harves	-4270
▁hiding	-4271
▁hotdog	-4272
▁huddle	-4273
▁motion	-4274
▁patron	-4275
▁played	-4276
▁racers	-4277
▁really	-4278
▁single	-4279
▁skater	-4280
▁stilts	-4281
▁tribal	-4282
▁tripod	-4283
▁trucks	-4284
▁turned	-4285
▁upward	-4286
▁valley	-4287
▁washer	-4288
▁washes	-4289
▁Bearded	-4290
▁Closeup	-4291
▁Elderly	-4292
▁artwork	-4293
▁bedroom	-4294
▁bouquet	-4295
▁butcher	-4296
▁cameram	-4297
▁careful	-4298
▁couples	-4299
▁eastern	-4300
▁incline	-4301
▁injured	-4302
▁juggles	-4303
▁leotard	-4304
▁located	-4305
▁monitor	-4306
▁numbers	-4307
▁oranges	-4308
▁painter	-4309
▁parents	-4310
▁printed	-4311
▁rafting	-4312
▁rooftop	-4313
▁scarves	-4314
▁seafood	-4315
▁service	-4316
▁skilled	-4317
▁sprayed	-4318
▁workout	-4319
▁Olympics	-4320
▁activity	-4321
▁branches	-4322
▁casually	-4323
▁chopping	-4324
▁collared	-4325
▁creating	-4326
▁crouched	-4327
▁displays	-4328
▁driveway	-4329
▁facility	-4330
▁kayaking	-4331
▁leggings	-4332
▁lighting	-4333
▁portrait	-4334
▁products	-4335
▁roadside	-4336
▁shepherd	-4337
▁sideways	-4338
▁stepping	-4339
▁toddlers	-4340
▁trashcan	-4341
▁badminton	-4342
▁butterfly	-4343
▁celebrate	-4344
▁earphones	-4345
▁embracing	-4346
▁finishing	-4347
▁highchair	-4348
▁involving	-4349
▁passersby	-4350
▁Spectators	-4351
▁approaches	-4352
▁decorative	-4353
▁department	-4354
▁displaying	-4355
▁enthusiast	-4356
▁experiment	-4357
▁silhouette	-4358
▁Pedestrians	-4359
▁contraption	-4360
▁quarterback	-4361
▁transportation	-4362
og	-4363
▁8	-4364
alt	-4365
ata	-4366
edo	-4367
hat	-4368
ief	-4369
isk	-4370
ola	-4371
opo	-4372
osa	-4373
phy	-4374
pit	-4375
rit	-4376
tie	-4377
war	-4378
wls	-4379
▁DJ	-4380
▁Sc	-4381
▁Un	-4382
▁av	-4383
▁ge	-4384
ague	-4385
alth	-4386
body	-4387
cake	-4388
fast	-4389
iage	-4390
ided	-4391
ised	-4392
most	-4393
rant	-4394
ries	-4395
used	-4396
wear	-4397
▁Bic	-4398
▁Eng	-4399
▁Tex	-4400
▁Var	-4401
▁cot	-4402
▁def	-4403
▁dol	-4404
▁dom	-4405
▁flu	-4406
▁gal	-4407
▁gla	-4408
▁icy	-4409
▁maj	-4410
▁ner	-4411
▁rec	-4412
▁sam	-4413
▁sym	-4414
▁tem	-4415
▁unh	-4416
▁zoo	-4417
annel	-4418
antly	-4419
armon	-4420
ashes	-4421
atoes	-4422
bbles	-4423
centr	-4424
chron	-4425
craft	-4426
gress	-4427
herry	-4428
ifier	-4429
ikers	-4430
kiing	-4431
otion	-4432
right	-4433
riped	-4434
vices	-4435
wning	-4436
▁Army	-4437
▁Baby	-4438
▁Blue	-4439
▁Lots	-4440
▁army	-4441
▁chin	-4442
▁dess	-4443
▁dest	-4444
▁dive	-4445
▁flam	-4446
▁fork	-4447
▁gest	-4448
▁hind	-4449
▁jogs	-4450
▁kilt	-4451
▁know	-4452
▁lass	-4453
▁menu	-4454
▁pads	-4455
▁pale	-4456
▁peer	-4457
▁sees	-4458
▁shel	-4459
▁tell	-4460
▁temp	-4461
▁test	-4462
▁wond	-4463
ailing	-4464
colate	-4465
ensive	-4466
igious	-4467
lowing	-4468
nament	-4469
rested	-4470
▁Eight	-4471
▁Hawai	-4472
▁Photo	-4473
▁Skate	-4474
▁aband	-4475
▁angry	-4476
▁bends	-4477
▁beret	-4478
▁brass	-4479
▁bulld	-4480
▁colum	-4481
▁ducks	-4482
▁estab	-4483
▁foggy	-4484
▁grabs	-4485
▁gradu	-4486
▁guide	-4487
▁hills	-4488
▁mount	-4489
▁overs	-4490
▁point	-4491
▁recor	-4492
▁rifle	-4493
▁rings	-4494
▁shiny	-4495
▁smoot	-4496
▁spark	-4497
▁spect	-4498
▁squee	-4499
▁staff	-4500
▁stoop	-4501
▁stump	-4502
▁surfs	-4503
▁teens	-4504
▁tiled	-4505
▁tooth	-4506
▁torch	-4507
▁types	-4508
▁waist	-4509
erature	-4510
ination	-4511
leading	-4512
striped	-4513
umbling	-4514
working	-4515
▁Adults	-4516
▁Couple	-4517
▁Hockey	-4518
▁Mohawk	-4519
▁School	-4520
▁almost	-4521
▁aprons	-4522
▁arrive	-4523
▁begins	-4524
▁booths	-4525
▁cherry	-4526
▁crates	-4527
▁fishes	-4528
▁gazing	-4529
▁harmon	-4530
▁images	-4531
▁indust	-4532
▁jumped	-4533
▁jumper	-4534
▁monkey	-4535
▁muzzle	-4536
▁pencil	-4537
▁pinata	-4538
▁releas	-4539
▁resort	-4540
▁sawing	-4541
▁scenic	-4542
▁scouts	-4543
▁skills	-4544
▁spring	-4545
▁sunbat	-4546
▁trench	-4547
▁turban	-4548
▁weight	-4549
▁writes	-4550
▁Smiling	-4551
▁adjusts	-4552
▁arrange	-4553
▁bathtub	-4554
▁brushes	-4555
▁chinese	-4556
▁cleaner	-4557
▁company	-4558
▁cycling	-4559
▁designs	-4560
▁foliage	-4561
▁heavily	-4562
▁holiday	-4563
▁illumin	-4564
▁pathway	-4565
▁pattern	-4566
▁peeking	-4567
▁product	-4568
▁pumpkin	-4569
▁seagull	-4570
▁sorting	-4571
▁stacked	-4572
▁strolls	-4573
▁tending	-4574
▁thought	-4575
▁unhappy	-4576
▁Canadian	-4577
▁aquarium	-4578
▁bouncing	-4579
▁checkers	-4580
▁circular	-4581
▁concentr	-4582
▁dragging	-4583
▁dumpster	-4584
▁friendly	-4585
▁generous	-4586
▁grabbing	-4587
▁notebook	-4588
▁operates	-4589
▁raincoat	-4590
▁reliable	-4591
▁sniffing	-4592
▁sparring	-4593
▁synchron	-4594
▁bicycling	-4595
▁breakfast	-4596
▁caucasian	-4597
▁chocolate	-4598
▁displayed	-4599
▁featuring	-4600
▁gesturing	-4601
▁recording	-4602
▁scientist	-4603
▁wakeboard	-4604
▁belongings	-4605
▁cellphones	-4606
▁chopsticks	-4607
▁containing	-4608
▁helicopter	-4609
▁laboratory	-4610
▁presenting	-4611
▁decorations	-4612
▁fashionable	-4613
▁information	-4614
▁parasailing	-4615
▁breakdancing	-4616
▁rollerblades	-4617
00	-4618
py	-4619
den	-4620
oms	-4621
zes	-4622
▁11	-4623
▁Am	-4624
▁NY	-4625
▁Re	-4626
▁ox	-4627
▁py	-4628
▁ti	-4629
▁wo	-4630
▁xy	-4631
ades	-4632
apes	-4633
cast	-4634
cure	-4635
ense	-4636
esma	-4637
ider	-4638
idge	-4639
iety	-4640
igan	-4641
iger	-4642
ises	-4643
itiz	-4644
keys	-4645
logy	-4646
mock	-4647
nequ	-4648
onge	-4649
ooks	-4650
rial	-4651
ware	-4652
▁ATM	-4653
▁Mem	-4654
▁Rod	-4655
▁Sub	-4656
▁amb	-4657
▁any	-4658
▁doc	-4659
▁ela	-4660
▁fer	-4661
▁ing	-4662
▁kim	-4663
▁oil	-4664
▁pon	-4665
▁sat	-4666
▁sle	-4667
apped	-4668
beled	-4669
cloth	-4670
emade	-4671
green	-4672
inder	-4673
lider	-4674
opoly	-4675
panic	-4676
paved	-4677
press	-4678
sized	-4679
sters	-4680
ution	-4681
▁Brit	-4682
▁Dogs	-4683
▁East	-4684
▁Elmo	-4685
▁Jack	-4686
▁Span	-4687
▁Vend	-4688
▁amaz	-4689
▁anti	-4690
▁aqua	-4691
▁asce	-4692
▁cash	-4693
▁cats	-4694
▁chis	-4695
▁clar	-4696
▁conv	-4697
▁days	-4698
▁deli	-4699
▁fort	-4700
▁grab	-4701
▁hook	-4702
▁inse	-4703
▁inst	-4704
▁jeep	-4705
▁keys	-4706
▁lion	-4707
▁lips	-4708
▁lock	-4709
▁loud	-4710
▁nail	-4711
▁prop	-4712
▁rabb	-4713
▁resp	-4714
▁riot	-4715
▁rush	-4716
▁skyd	-4717
▁spat	-4718
▁tags	-4719
▁vibr	-4720
▁vint	-4721
▁ware	-4722
▁xylo	-4723
alling	-4724
anding	-4725
iction	-4726
iously	-4727
lights	-4728
stroke	-4729
tender	-4730
▁India	-4731
▁Texas	-4732
▁arrow	-4733
▁beads	-4734
▁bring	-4735
▁broad	-4736
▁canal	-4737
▁cries	-4738
▁deser	-4739
▁diner	-4740
▁doesn	-4741
▁draws	-4742
▁easel	-4743
▁flash	-4744
▁human	-4745
▁ident	-4746
▁lasso	-4747
▁lives	-4748
▁masks	-4749
▁midst	-4750
▁mixer	-4751
▁murky	-4752
▁notes	-4753
▁peers	-4754
▁plain	-4755
▁pours	-4756
▁punch	-4757
▁skies	-4758
▁skull	-4759
▁spins	-4760
▁stuck	-4761
▁sweet	-4762
▁thick	-4763
▁toile	-4764
▁upset	-4765
▁years	-4766
mercial	-4767
▁Asians	-4768
▁Mother	-4769
▁Native	-4770
▁Yellow	-4771
▁advent	-4772
▁amount	-4773
▁babies	-4774
▁bundle	-4775
▁buried	-4776
▁cannon	-4777
▁canoes	-4778
▁clowns	-4779
▁dinosa	-4780
▁draped	-4781
▁elabor	-4782
▁experi	-4783
▁extend	-4784
▁health	-4785
▁histor	-4786
▁judges	-4787
▁kisses	-4788
▁loaded	-4789
▁looked	-4790
▁marble	-4791
▁mohawk	-4792
▁nurses	-4793
▁packed	-4794
▁passed	-4795
▁potato	-4796
▁purses	-4797
▁scrubs	-4798
▁season	-4799
▁shaggy	-4800
▁shield	-4801
▁shower	-4802
▁skinny	-4803
▁sprays	-4804
▁strong	-4805
▁temple	-4806
▁trains	-4807
▁treadm	-4808
▁turtle	-4809
▁waiter	-4810
alloween	-4811
fighters	-4812
lishment	-4813
▁America	-4814
▁Mexican	-4815
▁Olympic	-4816
▁Spanish	-4817
▁Various	-4818
▁banners	-4819
▁carrier	-4820
▁chewing	-4821
▁classic	-4822
▁columns	-4823
▁complex	-4824
▁crayons	-4825
▁daytime	-4826
▁digital	-4827
▁earring	-4828
▁emotion	-4829
▁figures	-4830
▁filming	-4831
▁flannel	-4832
▁hammock	-4833
▁hydrant	-4834
▁labeled	-4835
▁licking	-4836
▁mannequ	-4837
▁napping	-4838
▁nervous	-4839
▁package	-4840
▁shirted	-4841
▁signing	-4842
▁speaker	-4843
▁tackled	-4844
▁unusual	-4845
▁vending	-4846
▁victory	-4847
▁vintage	-4848
▁Hawaiian	-4849
▁Shepherd	-4850
▁accident	-4851
▁bridesma	-4852
▁campfire	-4853
▁crashing	-4854
▁darkened	-4855
▁followed	-4856
▁forested	-4857
▁hardwood	-4858
▁homemade	-4859
▁numerous	-4860
▁progress	-4861
▁sailboat	-4862
▁shoppers	-4863
▁silhouet	-4864
▁sledding	-4865
▁speeding	-4866
▁splashed	-4867
▁stocking	-4868
▁strapped	-4869
▁stringed	-4870
▁surgical	-4871
▁vacation	-4872
▁abandoned	-4873
▁bartender	-4874
▁cluttered	-4875
▁companion	-4876
▁condition	-4877
▁conductor	-4878
▁directing	-4879
▁fountains	-4880
▁hammering	-4881
▁harmonica	-4882
▁navigates	-4883
▁projector	-4884
▁religious	-4885
▁spotlight	-4886
▁squeezing	-4887
▁stretches	-4888
▁strolling	-4889
▁teammates	-4890
▁tracksuit	-4891
▁warehouse	-4892
▁barefooted	-4893
▁commercial	-4894
▁industrial	-4895
▁toothbrush	-4896
▁tournament	-4897
▁destination	-4898
▁maintenance	-4899
▁photography	-4900
▁underground	-4901
▁waterskiing	-4902
▁Firefighters	-4903
▁Skateboarder	-4904
▁cheerleading	-4905
▁synchronized	-4906
▁establishment	-4907
Bo	-4908
af	-4909
sk	-4910
▁7	-4911
▁Q	-4912
ank	-4913
ass	-4914
bur	-4915
cam	-4916
cup	-4917
dri	-4918
iam	-4919
lim	-4920
omo	-4921
opy	-4922
pie	-4923
rab	-4924
rat	-4925
rep	-4926
udd	-4927
ume	-4928
wed	-4929
yed	-4930
▁Ne	-4931
▁Ve	-4932
▁iP	-4933
▁id	-4934
▁ja	-4935
adow	-4936
bled	-4937
enga	-4938
gant	-4939
gger	-4940
icle	-4941
iled	-4942
ngth	-4943
ongo	-4944
opes	-4945
redi	-4946
rene	-4947
seat	-4948
ters	-4949
uble	-4950
uzzy	-4951
▁Cla	-4952
▁Fis	-4953
▁Gre	-4954
▁Jew	-4955
▁Kit	-4956
▁Lat	-4957
▁dam	-4958
▁fog	-4959
▁mes	-4960
▁mos	-4961
▁nun	-4962
▁rav	-4963
▁ske	-4964
▁unf	-4965
anged	-4966
berry	-4967
cases	-4968
fetti	-4969
ieval	-4970
lacks	-4971
lders	-4972
lines	-4973
mming	-4974
night	-4975
oming	-4976
opard	-4977
ramid	-4978
riers	-4979
sping	-4980
tions	-4981
tress	-4982
tting	-4983
tured	-4984
umber	-4985
urfer	-4986
works	-4987
▁Arab	-4988
▁Base	-4989
▁Cafe	-4990
▁Coca	-4991
▁Dark	-4992
▁Food	-4993
▁Guys	-4994
▁Seat	-4995
▁Soon	-4996
▁Star	-4997
▁Walm	-4998
▁aged	-4999
▁ages	-5000
▁bump	-5001
▁cave	-5002
▁circ	-5003
▁cock	-5004
▁disc	-5005
▁fill	-5006
▁laid	-5007
▁laun	-5008
▁logo	-5009
▁love	-5010
▁lush	-5011
▁mail	-5012
▁math	-5013
▁pans	-5014
▁pops	-5015
▁sear	-5016
▁shar	-5017
▁skim	-5018
▁slic	-5019
▁tarp	-5020
▁tutu	-5021
▁want	-5022
▁wash	-5023
▁were	-5024
bbling	-5025
ements	-5026
erness	-5027
hedral	-5028
inting	-5029
leader	-5030
shaped	-5031
usband	-5032
▁Jenga	-5033
▁Local	-5034
▁accep	-5035
▁await	-5036
▁award	-5037
▁beers	-5038
▁begin	-5039
▁bongo	-5040
▁boxer	-5041
▁brace	-5042
▁camps	-5043
▁cigar	-5044
▁citiz	-5045
▁crops	-5046
▁daily	-5047
▁desks	-5048
▁dolls	-5049
▁drawn	-5050
▁dryer	-5051
▁early	-5052
▁fetch	-5053
▁flock	-5054
▁foods	-5055
▁fuzzy	-5056
▁greet	-5057
▁kimon	-5058
▁laden	-5059
▁learn	-5060
▁level	-5061
▁marsh	-5062
▁maybe	-5063
▁named	-5064
▁nurse	-5065
▁peaks	-5066
▁radio	-5067
▁rolls	-5068
▁seven	-5069
▁shack	-5070
▁shawl	-5071
▁shing	-5072
▁snork	-5073
▁sunsh	-5074
▁tiger	-5075
▁visor	-5076
▁winds	-5077
▁wrist	-5078
country	-5079
mentary	-5080
▁Custom	-5081
▁Muslim	-5082
▁Worker	-5083
▁acting	-5084
▁attent	-5085
▁barely	-5086
▁battle	-5087
▁boring	-5088
▁bounds	-5089
▁buffet	-5090
▁bulldo	-5091
▁camels	-5092
▁casino	-5093
▁chased	-5094
▁collie	-5095
▁column	-5096
▁cotton	-5097
▁crawls	-5098
▁create	-5099
▁divers	-5100
▁double	-5101
▁drying	-5102
▁extrem	-5103
▁fedora	-5104
▁fellow	-5105
▁fields	-5106
▁frying	-5107
▁grinds	-5108
▁guards	-5109
▁harbor	-5110
▁indian	-5111
▁league	-5112
▁letter	-5113
▁lining	-5114
▁marked	-5115
▁marker	-5116
▁mascot	-5117
▁meadow	-5118
▁missed	-5119
▁mouths	-5120
▁mowing	-5121
▁parent	-5122
▁picket	-5123
▁pirate	-5124
▁poodle	-5125
▁puppet	-5126
▁recent	-5127
▁rustic	-5128
▁slacks	-5129
▁snacks	-5130
▁speeds	-5131
▁squats	-5132
▁stance	-5133
▁stores	-5134
▁stripe	-5135
▁strugg	-5136
▁termin	-5137
▁though	-5138
▁trophy	-5139
▁typing	-5140
▁unders	-5141
▁videot	-5142
redients	-5143
▁British	-5144
▁Eastern	-5145
▁Members	-5146
▁Players	-5147
▁Vendors	-5148
▁Walmart	-5149
▁address	-5150
▁adorned	-5151
▁artists	-5152
▁bananas	-5153
▁barbecu	-5154
▁barrels	-5155
▁beating	-5156
▁blurred	-5157
▁casting	-5158
▁elegant	-5159
▁examine	-5160
▁exiting	-5161
▁farmers	-5162
▁flowing	-5163
▁helpful	-5164
▁hotdogs	-5165
▁kickbox	-5166
▁leopard	-5167
▁message	-5168
▁mounted	-5169
▁muzzled	-5170
▁paralle	-5171
▁pointed	-5172
▁pyramid	-5173
▁seating	-5174
▁skyline	-5175
▁strings	-5176
▁topless	-5177
▁transit	-5178
▁travels	-5179
▁univers	-5180
▁upwards	-5181
▁variety	-5182
▁vibrant	-5183
▁warming	-5184
▁wheeled	-5185
▁Baseball	-5186
▁Brunette	-5187
▁Numerous	-5188
▁Tourists	-5189
▁backseat	-5190
▁bodysuit	-5191
▁defender	-5192
▁designed	-5193
▁dinosaur	-5194
▁downhill	-5195
▁employee	-5196
▁lanterns	-5197
▁mattress	-5198
▁monitors	-5199
▁muscular	-5200
▁ordering	-5201
▁prepared	-5202
▁punching	-5203
▁purchase	-5204
▁railings	-5205
▁separate	-5206
▁starring	-5207
▁striking	-5208
▁trotting	-5209
▁watering	-5210
▁weekends	-5211
▁woodland	-5212
▁Customers	-5213
▁Musicians	-5214
▁Rollerbla	-5215
▁acrobatic	-5216
▁cameraman	-5217
▁cathedral	-5218
▁character	-5219
▁connected	-5220
▁employees	-5221
▁measuring	-5222
▁miniature	-5223
▁necklaces	-5224
▁political	-5225
▁reception	-5226
▁sidelines	-5227
▁skydiving	-5228
▁somewhere	-5229
▁treadmill	-5230
▁vacuuming	-5231
▁wrestlers	-5232
▁xylophone	-5233
▁activities	-5234
▁attractive	-5235
▁characters	-5236
▁cigarettes	-5237
▁collecting	-5238
▁colorfully	-5239
▁completing	-5240
▁conducting	-5241
▁exercising	-5242
▁girlfriend	-5243
▁greyhounds	-5244
▁interested	-5245
▁sculptures	-5246
▁snowboards	-5247
▁sunbathing	-5248
▁supportive	-5249
▁tablecloth	-5250
▁wilderness	-5251
▁businessman	-5252
▁cheerleader	-5253
▁comfortable	-5254
▁experienced	-5255
▁illuminated	-5256
▁ingredients	-5257
▁mountainous	-5258
▁mountaintop	-5259
▁silhouetted	-5260
▁watermelons	-5261
▁crosscountry	-5262
▁rollerskates	-5263
▁demonstration	-5264
▁advertisements	-5265
",	-5266
gn	-5267
ls	-5268
mx	-5269
oc	-5270
pr	-5271
yo	-5272
▁-	-5273
bie	-5274
car	-5275
cho	-5276
coh	-5277
eer	-5278
ema	-5279
ffe	-5280
gos	-5281
ils	-5282
ios	-5283
nal	-5284
now	-5285
oid	-5286
oma	-5287
orn	-5288
ote	-5289
tur	-5290
uds	-5291
une	-5292
yon	-5293
zor	-5294
▁Ra	-5295
▁ab	-5296
▁ol	-5297
▁va	-5298
alks	-5299
ands	-5300
anse	-5301
atee	-5302
bour	-5303
cart	-5304
cier	-5305
club	-5306
come	-5307
corn	-5308
eddy	-5309
flow	-5310
fold	-5311
ford	-5312
held	-5313
hine	-5314
iami	-5315
illa	-5316
ints	-5317
iosk	-5318
ique	-5319
ison	-5320
itch	-5321
ivil	-5322
lift	-5323
ogie	-5324
oper	-5325
osed	-5326
otic	-5327
roat	-5328
stem	-5329
ston	-5330
sure	-5331
tely	-5332
ties	-5333
unte	-5334
usky	-5335
vern	-5336
yset	-5337
▁App	-5338
▁Bas	-5339
▁Bra	-5340
▁Car	-5341
▁Col	-5342
▁Cow	-5343
▁Dan	-5344
▁Ele	-5345
▁Fam	-5346
▁Mil	-5347
▁Par	-5348
▁Ski	-5349
▁Ten	-5350
▁USA	-5351
▁Vol	-5352
▁anc	-5353
▁bib	-5354
▁cin	-5355
▁cry	-5356
▁det	-5357
▁fut	-5358
▁hal	-5359
▁hid	-5360
▁hip	-5361
▁inc	-5362
▁now	-5363
▁rag	-5364
▁ran	-5365
▁tin	-5366
▁ult	-5367
▁wip	-5368
▁zom	-5369
angle	-5370
aping	-5371
bably	-5372
cakes	-5373
cohol	-5374
ddler	-5375
essor	-5376
ggers	-5377
icans	-5378
iking	-5379
ished	-5380
onial	-5381
orous	-5382
ortun	-5383
piece	-5384
scent	-5385
store	-5386
storm	-5387
velin	-5388
wered	-5389
▁Dirt	-5390
▁Foot	-5391
▁Ital	-5392
▁Shop	-5393
▁Snow	-5394
▁Wall	-5395
▁bend	-5396
▁bord	-5397
▁bows	-5398
▁chem	-5399
▁clap	-5400
▁dots	-5401
▁drag	-5402
▁emer	-5403
▁grow	-5404
▁harp	-5405
▁haul	-5406
▁hung	-5407
▁lime	-5408
▁lost	-5409
▁magn	-5410
▁milk	-5411
▁mist	-5412
▁monk	-5413
▁mood	-5414
▁mule	-5415
▁nude	-5416
▁prev	-5417
▁puzz	-5418
▁quad	-5419
▁rack	-5420
▁rugs	-5421
▁saus	-5422
▁save	-5423
▁scat	-5424
▁send	-5425
▁spik	-5426
▁spin	-5427
▁sund	-5428
▁ties	-5429
▁tips	-5430
▁word	-5431
▁zone	-5432
antily	-5433
camera	-5434
cement	-5435
filled	-5436
guards	-5437
icking	-5438
ifying	-5439
issors	-5440
itious	-5441
rimmed	-5442
turned	-5443
ulting	-5444
▁Green	-5445
▁Legos	-5446
▁Miami	-5447
▁Shirt	-5448
▁State	-5449
▁Times	-5450
▁angle	-5451
▁anvil	-5452
▁badge	-5453
▁beams	-5454
▁belly	-5455
▁brind	-5456
▁broch	-5457
▁carou	-5458
▁champ	-5459
▁civil	-5460
▁cocon	-5461
▁count	-5462
▁crash	-5463
▁crate	-5464
▁crest	-5465
▁cycle	-5466
▁disco	-5467
▁drain	-5468
▁eager	-5469
▁enclo	-5470
▁fever	-5471
▁fixes	-5472
▁flood	-5473
▁gowns	-5474
▁grown	-5475
▁hours	-5476
▁inner	-5477
▁inves	-5478
▁kiosk	-5479
▁lands	-5480
▁lanes	-5481
▁lemon	-5482
▁licks	-5483
▁lower	-5484
▁major	-5485
▁memor	-5486
▁merry	-5487
▁nails	-5488
▁noses	-5489
▁occup	-5490
▁occur	-5491
▁olive	-5492
▁ornam	-5493
▁pedal	-5494
▁piles	-5495
▁pipes	-5496
▁plank	-5497
▁plush	-5498
▁posed	-5499
▁quest	-5500
▁rafts	-5501
▁rails	-5502
▁raise	-5503
▁razor	-5504
▁recre	-5505
▁relay	-5506
▁rusty	-5507
▁scrat	-5508
▁sharp	-5509
▁skill	-5510
▁soars	-5511
▁sound	-5512
▁spent	-5513
▁split	-5514
▁spots	-5515
▁squad	-5516
▁subur	-5517
▁symbo	-5518
▁techn	-5519
▁teddy	-5520
▁theme	-5521
▁those	-5522
▁tubes	-5523
▁tying	-5524
▁vocal	-5525
▁weigh	-5526
▁words	-5527
▁woven	-5528
▁write	-5529
cession	-5530
dressed	-5531
grapher	-5532
hearted	-5533
issance	-5534
testers	-5535
▁Bikers	-5536
▁Family	-5537
▁Father	-5538
▁Jewish	-5539
▁Orange	-5540
▁Subway	-5541
▁aboard	-5542
▁aiming	-5543
▁attack	-5544
▁barric	-5545
▁blower	-5546
▁boogie	-5547
▁bowtie	-5548
▁boxers	-5549
▁breast	-5550
▁breath	-5551
▁bronco	-5552
▁brooms	-5553
▁cinema	-5554
▁conven	-5555
▁direct	-5556
▁dragon	-5557
▁facial	-5558
▁flames	-5559
▁floors	-5560
▁framed	-5561
▁french	-5562
▁future	-5563
▁goatee	-5564
▁grills	-5565
▁hambur	-5566
▁hearts	-5567
▁humble	-5568
▁kicked	-5569
▁liquor	-5570
▁nearly	-5571
▁pigeon	-5572
▁pillar	-5573
▁pushed	-5574
▁raking	-5575
▁ravine	-5576
▁return	-5577
▁rising	-5578
▁saddle	-5579
▁sample	-5580
▁seesaw	-5581
▁senior	-5582
▁series	-5583
▁sister	-5584
▁slopes	-5585
▁strike	-5586
▁stunts	-5587
▁swords	-5588
▁system	-5589
▁throat	-5590
▁turkey	-5591
▁weapon	-5592
▁within	-5593
▁wonder	-5594
▁writer	-5595
▁English	-5596
▁Sooners	-5597
▁Toddler	-5598
▁alcohol	-5599
▁amazing	-5600
▁ancient	-5601
▁barking	-5602
▁bikinis	-5603
▁bottoms	-5604
▁checked	-5605
▁clothed	-5606
▁cowgirl	-5607
▁creates	-5608
▁curtain	-5609
▁damaged	-5610
▁dessert	-5611
▁devices	-5612
▁doctors	-5613
▁expanse	-5614
▁flaming	-5615
▁flowery	-5616
▁glacier	-5617
▁handbag	-5618
▁history	-5619
▁hunched	-5620
▁husband	-5621
▁jockeys	-5622
▁missing	-5623
▁mittens	-5624
▁patrons	-5625
▁propped	-5626
▁raining	-5627
▁relaxes	-5628
▁respect	-5629
▁ribbons	-5630
▁scaling	-5631
▁shorter	-5632
▁sleeves	-5633
▁spatula	-5634
▁stories	-5635
▁submerg	-5636
▁texting	-5637
▁tonight	-5638
▁written	-5639
▁European	-5640
▁Football	-5641
▁McDonald	-5642
▁Military	-5643
▁barriers	-5644
▁blocking	-5645
▁boarding	-5646
▁cardigan	-5647
▁clarinet	-5648
▁climbers	-5649
▁confetti	-5650
▁confused	-5651
▁crafting	-5652
▁deserted	-5653
▁document	-5654
▁dramatic	-5655
▁dropping	-5656
▁elevated	-5657
▁features	-5658
▁grasping	-5659
▁handheld	-5660
▁headache	-5661
▁knitting	-5662
▁lipstick	-5663
▁mechanic	-5664
▁medieval	-5665
▁newlywed	-5666
▁opportun	-5667
▁overlook	-5668
▁parallel	-5669
▁piercing	-5670
▁pitching	-5671
▁portable	-5672
▁positive	-5673
▁presents	-5674
▁probably	-5675
▁scissors	-5676
▁scooping	-5677
▁shouting	-5678
▁snowball	-5679
▁stirring	-5680
▁sundress	-5681
▁sunshine	-5682
▁tomatoes	-5683
▁ultimate	-5684
▁Beautiful	-5685
▁ambitious	-5686
▁assembled	-5687
▁assisting	-5688
▁blindfold	-5689
▁bookstore	-5690
▁briefcase	-5691
▁bulldozer	-5692
▁clutching	-5693
▁elaborate	-5694
▁emotional	-5695
▁excitedly	-5696
▁fashioned	-5697
▁feathered	-5698
▁fireworks	-5699
▁jumpsuits	-5700
▁nightclub	-5701
▁organized	-5702
▁personnel	-5703
▁policemen	-5704
▁professor	-5705
▁riverbank	-5706
▁scattered	-5707
▁selection	-5708
▁stretched	-5709
▁strollers	-5710
▁unloading	-5711
▁waterside	-5712
▁Protesters	-5713
▁ceremonial	-5714
▁collection	-5715
▁completely	-5716
▁congregate	-5717
▁expression	-5718
▁harvesting	-5719
▁sprinklers	-5720
▁university	-5721
▁accompanied	-5722
▁arrangement	-5723
▁bridesmaids	-5724
▁competitive	-5725
▁constructed	-5726
▁convenience	-5727
▁microscopes	-5728
▁socializing	-5729
▁temperature	-5730
▁wheelchairs	-5731
▁wineglasses	-5732
!"	-5733
'.	-5734
0'	-5735
ci	-5736
sw	-5737
uk	-5738
va	-5739
Bob	-5740
aco	-5741
acy	-5742
aph	-5743
asm	-5744
asy	-5745
cla	-5746
dog	-5747
dot	-5748
dra	-5749
ero	-5750
hoe	-5751
icy	-5752
ixt	-5753
kno	-5754
lap	-5755
off	-5756
oke	-5757
ota	-5758
pen	-5759
ppy	-5760
rer	-5761
ris	-5762
the	-5763
tim	-5764
uce	-5765
ued	-5766
ury	-5767
uss	-5768
wom	-5769
▁12	-5770
▁Ex	-5771
▁Gr	-5772
▁Ob	-5773
▁Pa	-5774
▁ec	-5775
▁gy	-5776
▁ni	-5777
▁ya	-5778
ader	-5779
agle	-5780
agne	-5781
aila	-5782
akes	-5783
angu	-5784
arat	-5785
atic	-5786
beat	-5787
bing	-5788
bout	-5789
cape	-5790
cept	-5791
ebra	-5792
engu	-5793
eria	-5794
haps	-5795
helf	-5796
here	-5797
hift	-5798
high	-5799
hole	-5800
hoop	-5801
iors	-5802
irts	-5803
ivan	-5804
iven	-5805
kery	-5806
kier	-5807
lled	-5808
mant	-5809
ogra	-5810
omet	-5811
oose	-5812
pain	-5813
rick	-5814
robe	-5815
rong	-5816
sion	-5817
toon	-5818
well	-5819
zard	-5820
▁Art	-5821
▁Big	-5822
▁Cal	-5823
▁Dis	-5824
▁Hot	-5825
▁Kid	-5826
▁Min	-5827
▁Mon	-5828
▁Out	-5829
▁Pat	-5830
▁Per	-5831
▁Pic	-5832
▁Ste	-5833
▁ado	-5834
▁aid	-5835
▁axe	-5836
▁bmx	-5837
▁bon	-5838
▁cul	-5839
▁gig	-5840
▁gum	-5841
▁jog	-5842
▁ket	-5843
▁lie	-5844
▁lon	-5845
▁nat	-5846
▁oar	-5847
▁pac	-5848
▁sew	-5849
▁tam	-5850
▁tap	-5851
▁toe	-5852
▁unl	-5853
▁unw	-5854
▁ver	-5855
▁vio	-5856
▁won	-5857
▁zip	-5858
acock	-5859
aging	-5860
alous	-5861
ances	-5862
asing	-5863
boats	-5864
chief	-5865
dered	-5866
empla	-5867
geons	-5868
hache	-5869
icely	-5870
icker	-5871
ified	-5872
ilted	-5873
inoes	-5874
ipped	-5875
ipper	-5876
ision	-5877
istic	-5878
kings	-5879
known	-5880
lapid	-5881
mbone	-5882
orary	-5883
orted	-5884
phalt	-5885
point	-5886
ronts	-5887
tical	-5888
wling	-5889
▁Gray	-5890
▁High	-5891
▁Mark	-5892
▁Over	-5893
▁Sold	-5894
▁Sund	-5895
▁Swim	-5896
▁affe	-5897
▁answ	-5898
▁boss	-5899
▁butt	-5900
▁chat	-5901
▁chip	-5902
▁cler	-5903
▁cows	-5904
▁deer	-5905
▁digs	-5906
▁drop	-5907
▁east	-5908
▁expl	-5909
▁file	-5910
▁film	-5911
▁flee	-5912
▁foam	-5913
▁hear	-5914
▁iPod	-5915
▁insp	-5916
▁lazy	-5917
▁limb	-5918
▁mats	-5919
▁mind	-5920
▁mops	-5921
▁nois	-5922
▁peak	-5923
▁pedd	-5924
▁phys	-5925
▁ping	-5926
▁plac	-5927
▁poem	-5928
▁pray	-5929
▁prov	-5930
▁punk	-5931
▁rake	-5932
▁real	-5933
▁rubs	-5934
▁seam	-5935
▁sens	-5936
▁slow	-5937
▁snap	-5938
▁solo	-5939
▁span	-5940
▁spir	-5941
▁swan	-5942
▁took	-5943
▁turb	-5944
▁wool	-5945
aneous	-5946
aratus	-5947
capped	-5948
estern	-5949
hammer	-5950
hermen	-5951
nology	-5952
ooking	-5953
wardly	-5954
▁Amish	-5955
▁Apple	-5956
▁Athle	-5957
▁Claus	-5958
▁Colle	-5959
▁Color	-5960
▁Mouse	-5961
▁Rodeo	-5962
▁armed	-5963
▁armor	-5964
▁baked	-5965
▁baton	-5966
▁bites	-5967
▁bloss	-5968
▁bones	-5969
▁brave	-5970
▁bunny	-5971
▁bushy	-5972
▁cabin	-5973
▁cafet	-5974
▁cargo	-5975
▁caric	-5976
▁carve	-5977
▁chips	-5978
▁chunk	-5979
▁clock	-5980
▁crazy	-5981
▁curve	-5982
▁depic	-5983
▁deter	-5984
▁dolph	-5985
▁earth	-5986
▁elbow	-5987
▁fairy	-5988
▁fills	-5989
▁final	-5990
▁found	-5991
▁gallo	-5992
▁given	-5993
▁goats	-5994
▁holes	-5995
▁husky	-5996
▁kites	-5997
▁langu	-5998
▁least	-5999
▁leave	-6000
▁lucky	-6001
▁medic	-6002
▁novel	-6003
▁overh	-6004
▁owner	-6005
▁parts	-6006
▁patri	-6007
▁pleas	-6008
▁posts	-6009
▁pride	-6010
▁robot	-6011
▁ruins	-6012
▁sacks	-6013
▁salad	-6014
▁saris	-6015
▁shady	-6016
▁sheer	-6017
▁sling	-6018
▁snaps	-6019
▁spike	-6020
▁stain	-6021
▁strap	-6022
▁strum	-6023
▁study	-6024
▁swamp	-6025
▁tiara	-6026
▁toast	-6027
▁tongs	-6028
▁trays	-6029
▁tunic	-6030
▁upper	-6031
▁zebra	-6032
ailable	-6033
allenge	-6034
breaker	-6035
fashion	-6036
ingerie	-6037
inished	-6038
itement	-6039
ketball	-6040
ldering	-6041
omobile	-6042
ongeBob	-6043
onsored	-6044
reprene	-6045
rolling	-6046
skating	-6047
wheeler	-6048
▁Cowboy	-6049
▁Gentle	-6050
▁Groups	-6051
▁Surfer	-6052
▁Tennis	-6053
▁admire	-6054
▁appare	-6055
▁apples	-6056
▁bakery	-6057
▁banana	-6058
▁barren	-6059
▁batman	-6060
▁better	-6061
▁breaks	-6062
▁bronze	-6063
▁canopy	-6064
▁canyon	-6065
▁carved	-6066
▁cattle	-6067
▁change	-6068
▁cheeks	-6069
▁cinder	-6070
▁circus	-6071
▁cloths	-6072
▁combat	-6073
▁cooler	-6074
▁crowds	-6075
▁crowns	-6076
▁curved	-6077
▁cutout	-6078
▁defend	-6079
▁dotted	-6080
▁escape	-6081
▁footbr	-6082
▁glider	-6083
▁gloved	-6084
▁haired	-6085
▁handed	-6086
▁landed	-6087
▁leaned	-6088
▁legged	-6089
▁length	-6090
▁lovely	-6091
▁masked	-6092
▁master	-6093
▁mature	-6094
▁padded	-6095
▁pauses	-6096
▁petals	-6097
▁pinned	-6098
▁poking	-6099
▁priest	-6100
▁remote	-6101
▁report	-6102
▁repres	-6103
▁rolled	-6104
▁romant	-6105
▁rubble	-6106
▁sailor	-6107
▁saying	-6108
▁scales	-6109
▁served	-6110
▁sheets	-6111
▁shines	-6112
▁smooth	-6113
▁splash	-6114
▁stacks	-6115
▁starts	-6116
▁symbol	-6117
▁toilet	-6118
▁tomato	-6119
▁tossed	-6120
▁towels	-6121
▁tuxedo	-6122
▁wiping	-6123
iversity	-6124
▁Concert	-6125
▁Dancers	-6126
▁Parents	-6127
▁Seattle	-6128
▁Tourist	-6129
▁antique	-6130
▁applies	-6131
▁archite	-6132
▁archway	-6133
▁asphalt	-6134
▁backhoe	-6135
▁backlit	-6136
▁baseman	-6137
▁blocked	-6138
▁braided	-6139
▁brindle	-6140
▁bundled	-6141
▁capture	-6142
▁carried	-6143
▁chained	-6144
▁cockpit	-6145
▁cookies	-6146
▁coolers	-6147
▁cradles	-6148
▁current	-6149
▁directs	-6150
▁donkeys	-6151
▁dunking	-6152
▁eagerly	-6153
▁embrace	-6154
▁emerges	-6155
▁fiction	-6156
▁fingern	-6157
▁forming	-6158
▁gliding	-6159
▁handles	-6160
▁headset	-6161
▁herding	-6162
▁huddled	-6163
▁impress	-6164
▁inspect	-6165
▁javelin	-6166
▁jealous	-6167
▁kimonos	-6168
▁leashes	-6169
▁lowered	-6170
▁marches	-6171
▁massive	-6172
▁mothers	-6173
▁mustard	-6174
▁passion	-6175
▁peacock	-6176
▁perched	-6177
▁poodles	-6178
▁popcorn	-6179
▁posters	-6180
▁returns	-6181
▁rowboat	-6182
▁shelves	-6183
▁singers	-6184
▁slicing	-6185
▁snorkel	-6186
▁snowman	-6187
▁stretch	-6188
▁stylish	-6189
▁surfers	-6190
▁tambour	-6191
▁tightro	-6192
▁torches	-6193
▁tugging	-6194
▁underst	-6195
▁unident	-6196
▁unknown	-6197
▁unlucky	-6198
▁upright	-6199
▁utility	-6200
▁varying	-6201
▁volunte	-6202
▁weapons	-6203
▁whistle	-6204
▁winding	-6205
▁workman	-6206
▁yelling	-6207
lapidated	-6208
▁Marathon	-6209
▁artistic	-6210
▁backward	-6211
▁balanced	-6212
▁bounding	-6213
▁campsite	-6214
▁carousel	-6215
▁checkout	-6216
▁citizens	-6217
▁clearing	-6218
▁contents	-6219
▁crawling	-6220
▁critical	-6221
▁daylight	-6222
▁designer	-6223
▁director	-6224
▁dribbles	-6225
▁drilling	-6226
▁earrings	-6227
▁feathers	-6228
▁floaties	-6229
▁greenery	-6230
▁handling	-6231
▁heavyset	-6232
▁historic	-6233
▁holidays	-6234
▁homework	-6235
▁includes	-6236
▁insecure	-6237
▁interact	-6238
▁lingerie	-6239
▁merchant	-6240
▁monopoly	-6241
▁offering	-6242
▁pacifier	-6243
▁partying	-6244
▁passerby	-6245
▁recently	-6246
▁reclines	-6247
▁register	-6248
▁released	-6249
▁rounding	-6250
▁scantily	-6251
▁seagulls	-6252
▁shingles	-6253
▁suburban	-6254
▁sweaters	-6255
▁terminal	-6256
▁trimming	-6257
▁trombone	-6258
▁tumbling	-6259
▁vertical	-6260
▁vocalist	-6261
▁Americans	-6262
▁Bicyclist	-6263
▁Halloween	-6264
▁McDonalds	-6265
▁Shirtless	-6266
▁SpongeBob	-6267
▁accepting	-6268
▁apparatus	-6269
▁ascending	-6270
▁assistant	-6271
▁attendant	-6272
▁beginning	-6273
▁bookshelf	-6274
▁cafeteria	-6275
▁cartwheel	-6276
▁champagne	-6277
▁community	-6278
▁completed	-6279
▁confident	-6280
▁contempla	-6281
▁elephants	-6282
▁exploring	-6283
▁fireplace	-6284
▁forgiving	-6285
▁hairstyle	-6286
▁identical	-6287
▁makeshift	-6288
▁mannequin	-6289
▁operation	-6290
▁opponents	-6291
▁practical	-6292
▁searching	-6293
▁sensitive	-6294
▁shoeshine	-6295
▁struggles	-6296
▁suitcases	-6297
▁sweatsuit	-6298
▁toothache	-6299
▁Basketball	-6300
▁University	-6301
▁attraction	-6302
▁automobile	-6303
▁backstroke	-6304
▁barbecuing	-6305
▁caricature	-6306
▁comforting	-6307
▁conditions	-6308
▁convention	-6309
▁decorating	-6310
▁descending	-6311
▁entreprene	-6312
▁equestrian	-6313
▁excitement	-6314
▁exhibition	-6315
▁eyeglasses	-6316
▁graffitied	-6317
▁installing	-6318
▁magnifying	-6319
▁motorbikes	-6320
▁multicolor	-6321
▁parachutes	-6322
▁pedestrian	-6323
▁pinstriped	-6324
▁positioned	-6325
▁possession	-6326
▁snowcapped	-6327
▁struggling	-6328
▁technology	-6329
▁unfinished	-6330
▁vegetation	-6331
▁watercraft	-6332
▁watermelon	-6333
▁attentively	-6334
▁blindfolded	-6335
▁clothesline	-6336
▁competitors	-6337
▁electrician	-6338
▁electronics	-6339
▁expressions	-6340
▁instructing	-6341
▁interviewed	-6342
▁opportunity	-6343
▁parachuting	-6344
▁storefronts	-6345
▁sweatshirts	-6346
▁windbreaker	-6347
▁Photographer	-6348
▁Rollerblades	-6349
▁concentrates	-6350
▁entertaining	-6351
▁recreational	-6352
▁photographing	-6353
▁skateboarders	-6354
CE	-6355
MC	-6356
cs	-6357
ii	-6358
oy	-6359
sm	-6360
ta	-6361
vy	-6362
wh	-6363
ye	-6364
▁Z	-6365
Aid	-6366
ams	-6367
ari	-6368
azz	-6369
ben	-6370
bes	-6371
blo	-6372
die	-6373
eli	-6374
gas	-6375
gee	-6376
igs	-6377
kla	-6378
ksw	-6379
lds	-6380
lem	-6381
lls	-6382
lor	-6383
nna	-6384
ody	-6385
olf	-6386
omy	-6387
oof	-6388
orc	-6389
ory	-6390
osc	-6391
ott	-6392
rid	-6393
sps	-6394
thy	-6395
uct	-6396
uge	-6397
uis	-6398
uku	-6399
umo	-6400
una	-6401
unt	-6402
ura	-6403
xim	-6404
zil	-6405
▁30	-6406
▁50	-6407
▁En	-6408
▁La	-6409
▁Mr	-6410
▁My	-6411
▁No	-6412
▁Or	-6413
▁Qu	-6414
▁SU	-6415
▁Vi	-6416
▁Wa	-6417
▁du	-6418
▁er	-6419
▁su	-6420
▁zo	-6421
Cola	-6422
agen	-6423
airs	-6424
aler	-6425
amic	-6426
arer	-6427
arth	-6428
bles	-6429
bors	-6430
care	-6431
chie	-6432
coal	-6433
comm	-6434
ctop	-6435
deep	-6436
dges	-6437
dish	-6438
edos	-6439
eere	-6440
ells	-6441
emet	-6442
erts	-6443
fort	-6444
gaph	-6445
hold	-6446
homa	-6447
iday	-6448
ifts	-6449
inas	-6450
iser	-6451
itan	-6452
iver	-6453
izes	-6454
keep	-6455
kely	-6456
kins	-6457
lele	-6458
made	-6459
mage	-6460
maid	-6461
mons	-6462
muff	-6463
neck	-6464
oles	-6465
opsc	-6466
ores	-6467
orse	-6468
otch	-6469
ould	-6470
phic	-6471
pite	-6472
pong	-6473
real	-6474
rees	-6475
rica	-6476
rise	-6477
seen	-6478
ship	-6479
sted	-6480
teen	-6481
type	-6482
ubby	-6483
unds	-6484
velo	-6485
wdri	-6486
weed	-6487
yond	-6488
zens	-6489
▁100	-6490
▁200	-6491
▁All	-6492
▁Aut	-6493
▁Bur	-6494
▁Day	-6495
▁Gra	-6496
▁Har	-6497
▁His	-6498
▁Ice	-6499
▁Kay	-6500
▁Lou	-6501
▁Mot	-6502
▁Pit	-6503
▁Sun	-6504
▁Toy	-6505
▁Wal	-6506
▁Wet	-6507
▁You	-6508
▁amp	-6509
▁ann	-6510
▁anx	-6511
▁arr	-6512
▁ash	-6513
▁bor	-6514
▁bud	-6515
▁cou	-6516
▁cub	-6517
▁dip	-6518
▁div	-6519
▁dug	-6520
▁era	-6521
▁fru	-6522
▁gor	-6523
▁jar	-6524
▁law	-6525
▁lid	-6526
▁lim	-6527
▁lla	-6528
▁mad	-6529
▁paw	-6530
▁pep	-6531
▁plu	-6532
▁pom	-6533
▁rim	-6534
▁saf	-6535
▁sec	-6536
▁sip	-6537
▁tet	-6538
▁tip	-6539
▁uku	-6540
▁via	-6541
▁vig	-6542
▁web	-6543
alace	-6544
allic	-6545
amaha	-6546
andex	-6547
aries	-6548
bench	-6549
berty	-6550
brero	-6551
bucks	-6552
cited	-6553
comot	-6554
drawn	-6555
enger	-6556
field	-6557
fives	-6558
front	-6559
glass	-6560
gnant	-6561
grees	-6562
ician	-6563
ickey	-6564
icult	-6565
iller	-6566
imber	-6567
inary	-6568
ingly	-6569
leton	-6570
muffs	-6571
onies	-6572
orean	-6573
ropol	-6574
tends	-6575
using	-6576
verse	-6577
verty	-6578
white	-6579
woman	-6580
▁Bike	-6581
▁Cars	-6582
▁Cast	-6583
▁Gard	-6584
▁Life	-6585
▁Long	-6586
▁Nike	-6587
▁Okla	-6588
▁Park	-6589
▁Race	-6590
▁Russ	-6591
▁Side	-6592
▁View	-6593
▁Walk	-6594
▁With	-6595
▁arid	-6596
▁bagg	-6597
▁bark	-6598
▁bats	-6599
▁beat	-6600
▁best	-6601
▁bout	-6602
▁buoy	-6603
▁came	-6604
▁cent	-6605
▁comb	-6606
▁cord	-6607
▁crab	-6608
▁crib	-6609
▁crus	-6610
▁crut	-6611
▁dash	-6612
▁disk	-6613
▁dunk	-6614
▁dyed	-6615
▁else	-6616
▁evil	-6617
▁fant	-6618
▁fine	-6619
▁flea	-6620
▁flex	-6621
▁hips	-6622
▁loaf	-6623
▁mean	-6624
▁mesh	-6625
▁ming	-6626
▁mout	-6627
▁nine	-6628
▁note	-6629
▁once	-6630
▁opin	-6631
▁oxen	-6632
▁pane	-6633
▁pant	-6634
▁paws	-6635
▁poun	-6636
▁prim	-6637
▁prun	-6638
▁purs	-6639
▁rear	-6640
▁rude	-6641
▁shed	-6642
▁shru	-6643
▁situ	-6644
▁slab	-6645
▁slam	-6646
▁slip	-6647
▁slot	-6648
▁soil	-6649
▁sons	-6650
▁soon	-6651
▁sore	-6652
▁sumo	-6653
▁sunb	-6654
▁tend	-6655
▁torn	-6656
▁tram	-6657
▁trou	-6658
▁used	-6659
▁vast	-6660
▁wand	-6661
▁ways	-6662
▁weat	-6663
▁wigs	-6664
▁york	-6665
ancing	-6666
anting	-6667
ashing	-6668
ashore	-6669
athers	-6670
ctopus	-6671
earing	-6672
elcome	-6673
esting	-6674
getful	-6675
gyback	-6676
handed	-6677
ielder	-6678
ixture	-6679
moting	-6680
oscope	-6681
ottish	-6682
ournal	-6683
pering	-6684
ressed	-6685
riends	-6686
stance	-6687
trucks	-6688
ushing	-6689
▁About	-6690
▁Deere	-6691
▁Emerg	-6692
▁Grand	-6693
▁Happy	-6694
▁Hotel	-6695
▁Latin	-6696
▁Obama	-6697
▁Ocean	-6698
▁Spain	-6699
▁Vegas	-6700
▁appre	-6701
▁areas	-6702
▁avoid	-6703
▁blank	-6704
▁bloom	-6705
▁buggy	-6706
▁buses	-6707
▁casts	-6708
▁cause	-6709
▁cemet	-6710
▁chews	-6711
▁clust	-6712
▁cruel	-6713
▁dolly	-6714
▁domin	-6715
▁drops	-6716
▁dunes	-6717
▁elder	-6718
▁email	-6719
▁exits	-6720
▁flour	-6721
▁frown	-6722
▁gated	-6723
▁grima	-6724
▁grins	-6725
▁henna	-6726
▁hikes	-6727
▁hilly	-6728
▁hopsc	-6729
▁horns	-6730
▁impro	-6731
▁kilts	-6732
▁known	-6733
▁lakes	-6734
▁loose	-6735
▁mache	-6736
▁mates	-6737
▁medit	-6738
▁metro	-6739
▁moody	-6740
▁multi	-6741
▁needs	-6742
▁noisy	-6743
▁peach	-6744
▁peeks	-6745
▁pengu	-6746
▁pharm	-6747
▁piled	-6748
▁poems	-6749
▁pokes	-6750
▁prize	-6751
▁puffy	-6752
▁ramps	-6753
▁rises	-6754
▁roses	-6755
▁sales	-6756
▁scale	-6757
▁scary	-6758
▁scoop	-6759
▁scrap	-6760
▁seeds	-6761
▁separ	-6762
▁shave	-6763
▁sight	-6764
▁snake	-6765
▁snowf	-6766
▁sorts	-6767
▁spear	-6768
▁spicy	-6769
▁squat	-6770
▁steam	-6771
▁steer	-6772
▁stirs	-6773
▁storm	-6774
▁taste	-6775
▁texts	-6776
▁think	-6777
▁topic	-6778
▁tribe	-6779
▁trims	-6780
▁uncom	-6781
▁unwra	-6782
▁utens	-6783
▁wades	-6784
▁weave	-6785
▁weeds	-6786
▁weird	-6787
▁whole	-6788
▁wipes	-6789
▁wraps	-6790
▁wrong	-6791
aration	-6792
chenAid	-6793
flowers	-6794
gaphone	-6795
ificial	-6796
kswagen	-6797
orously	-6798
packing	-6799
parents	-6800
portant	-6801
shirted	-6802
strated	-6803
uddling	-6804
ughters	-6805
viewing	-6806
wearing	-6807
▁Arabic	-6808
▁Boston	-6809
▁Brazil	-6810
▁Crowds	-6811
▁Disney	-6812
▁During	-6813
▁French	-6814
▁Friday	-6815
▁Island	-6816
▁Korean	-6817
▁Market	-6818
▁Mickey	-6819
▁Motorc	-6820
▁Parade	-6821
▁Singer	-6822
▁Speedo	-6823
▁Sports	-6824
▁Yamaha	-6825
▁abroad	-6826
▁actors	-6827
▁asking	-6828
▁assemb	-6829
▁beards	-6830
▁bearer	-6831
▁beyond	-6832
▁bounce	-6833
▁bowler	-6834
▁bridal	-6835
▁bungee	-6836
▁cables	-6837
▁camper	-6838
▁chubby	-6839
▁closer	-6840
▁cooked	-6841
▁cookie	-6842
▁crayon	-6843
▁cruise	-6844
▁decide	-6845
▁eatery	-6846
▁engage	-6847
▁except	-6848
▁faster	-6849
▁firing	-6850
▁floppy	-6851
▁fluore	-6852
▁forces	-6853
▁formed	-6854
▁fourth	-6855
▁frames	-6856
▁frolic	-6857
▁ginger	-6858
▁govern	-6859
▁grooms	-6860
▁halter	-6861
▁helped	-6862
▁hidden	-6863
▁inline	-6864
▁intern	-6865
▁kettle	-6866
▁kiddie	-6867
▁kitten	-6868
▁layers	-6869
▁lemons	-6870
▁likely	-6871
▁litter	-6872
▁lonely	-6873
▁minisk	-6874
▁nicely	-6875
▁notice	-6876
▁offers	-6877
▁opened	-6878
▁orders	-6879
▁owners	-6880
▁partly	-6881
▁pickup	-6882
▁poised	-6883
▁polish	-6884
▁postal	-6885
▁potted	-6886
▁powder	-6887
▁prints	-6888
▁prizes	-6889
▁proble	-6890
▁progra	-6891
▁pulley	-6892
▁puzzle	-6893
▁quaint	-6894
▁rabbit	-6895
▁rehear	-6896
▁retail	-6897
▁roping	-6898
▁rounds	-6899
▁runway	-6900
▁sandal	-6901
▁sashes	-6902
▁satche	-6903
▁scared	-6904
▁shapes	-6905
▁shoots	-6906
▁siding	-6907
▁siting	-6908
▁skimpy	-6909
▁slices	-6910
▁sniffs	-6911
▁snowmo	-6912
▁spiked	-6913
▁spikes	-6914
▁stalks	-6915
▁steaks	-6916
▁steers	-6917
▁stools	-6918
▁straps	-6919
▁stride	-6920
▁sunhat	-6921
▁swampy	-6922
▁sweaty	-6923
▁tagged	-6924
▁taller	-6925
▁tastes	-6926
▁taught	-6927
▁thread	-6928
▁tosses	-6929
▁transp	-6930
▁troops	-6931
▁tuning	-6932
▁unseen	-6933
▁viewer	-6934
▁wallet	-6935
▁waring	-6936
▁washed	-6937
▁wicker	-6938
▁youths	-6939
vertible	-6940
▁College	-6941
▁Friends	-6942
▁Italian	-6943
▁Looking	-6944
▁Picture	-6945
▁Station	-6946
▁Teenage	-6947
▁adolesc	-6948
▁apparel	-6949
▁banging	-6950
▁begging	-6951
▁besides	-6952
▁bookbag	-6953
▁burgers	-6954
▁calling	-6955
▁campers	-6956
▁cartoon	-6957
▁caution	-6958
▁circuit	-6959
▁cleaned	-6960
▁compass	-6961
▁created	-6962
▁cubicle	-6963
▁cupcake	-6964
▁degrees	-6965
▁descend	-6966
▁despite	-6967
▁dolphin	-6968
▁drivers	-6969
▁dropped	-6970
▁exposed	-6971
▁fantasy	-6972
▁fighter	-6973
▁flatbed	-6974
▁freshly	-6975
▁hairnet	-6976
▁handleb	-6977
▁hauling	-6978
▁hooping	-6979
▁intense	-6980
▁keeping	-6981
▁ladders	-6982
▁lantern	-6983
▁letters	-6984
▁locomot	-6985
▁mailbox	-6986
▁mascara	-6987
▁mermaid	-6988
▁minivan	-6989
▁minutes	-6990
▁muzzles	-6991
▁noodles	-6992
▁octopus	-6993
▁options	-6994
▁packing	-6995
▁padding	-6996
▁pancake	-6997
▁parasol	-6998
▁partner	-6999
▁peeling	-7000
▁perhaps	-7001
▁persons	-7002
▁pillars	-7003
▁pirates	-7004
▁playpen	-7005
▁plowing	-7006
▁poverty	-7007
▁rabbits	-7008
▁receive	-7009
▁reddish	-7010
▁relaxed	-7011
▁ridding	-7012
▁roadway	-7013
▁rocking	-7014
▁seaweed	-7015
▁selfish	-7016
▁seniors	-7017
▁session	-7018
▁shields	-7019
▁slender	-7020
▁sloping	-7021
▁snowing	-7022
▁spandex	-7023
▁spanish	-7024
▁squares	-7025
▁statues	-7026
▁storage	-7027
▁strikes	-7028
▁studies	-7029
▁sucking	-7030
▁sunrise	-7031
▁tackles	-7032
▁tasting	-7033
▁terrace	-7034
▁terrier	-7035
▁tickets	-7036
▁tightly	-7037
▁trained	-7038
▁typical	-7039
▁ukulele	-7040
▁unpaved	-7041
▁walkers	-7042
▁warning	-7043
▁wheeler	-7044
▁winning	-7045
ashington	-7046
fashioned	-7047
forcement	-7048
▁Cyclists	-7049
▁Hispanic	-7050
▁Individu	-7051
▁Oklahoma	-7052
▁Oriental	-7053
▁Shoppers	-7054
▁Somebody	-7055
▁actively	-7056
▁adorable	-7057
▁aircraft	-7058
▁backache	-7059
▁basement	-7060
▁bathrobe	-7061
▁boulders	-7062
▁bracelet	-7063
▁breaking	-7064
▁bringing	-7065
▁brochure	-7066
▁carpeted	-7067
▁cemetery	-7068
▁charcoal	-7069
▁cheerful	-7070
▁chickens	-7071
▁coconuts	-7072
▁competes	-7073
▁controls	-7074
▁cowardly	-7075
▁crutches	-7076
▁cupcakes	-7077
▁directly	-7078
▁dominoes	-7079
▁drainage	-7080
▁earmuffs	-7081
▁emerging	-7082
▁engineer	-7083
▁everyone	-7084
▁extended	-7085
▁fetching	-7086
▁greeting	-7087
▁guarding	-7088
▁helmeted	-7089
▁hispanic	-7090
▁incoming	-7091
▁inflated	-7092
▁jewelery	-7093
▁kayakers	-7094
▁leafless	-7095
▁markings	-7096
▁medicine	-7097
▁memorial	-7098
▁metallic	-7099
▁metropol	-7100
▁occupied	-7101
▁operated	-7102
▁overcoat	-7103
▁overhang	-7104
▁pastries	-7105
▁pictured	-7106
▁pitchers	-7107
▁plucking	-7108
▁pressure	-7109
▁question	-7110
▁readying	-7111
▁receives	-7112
▁removing	-7113
▁roadwork	-7114
▁romantic	-7115
▁sausages	-7116
▁screwdri	-7117
▁sculptor	-7118
▁seashore	-7119
▁selfless	-7120
▁skeleton	-7121
▁solitary	-7122
▁sombrero	-7123
▁someones	-7124
▁spectate	-7125
▁stacking	-7126
▁superman	-7127
▁surgeons	-7128
▁swimwear	-7129
▁tattered	-7130
▁thinking	-7131
▁triangle	-7132
▁twirling	-7133
▁upcoming	-7134
▁waitress	-7135
▁weighing	-7136
▁wetsuits	-7137
▁Emergency	-7138
▁Gentleman	-7139
▁Greyhound	-7140
▁Starbucks	-7141
▁adventure	-7142
▁appearing	-7143
▁available	-7144
▁balconies	-7145
▁carpenter	-7146
▁chiseling	-7147
▁cityscape	-7148
▁classical	-7149
▁coveralls	-7150
▁currently	-7151
▁daughters	-7152
▁defenders	-7153
▁defensive	-7154
▁difficult	-7155
▁dribbling	-7156
▁extremely	-7157
▁forgetful	-7158
▁galloping	-7159
▁gymnastic	-7160
▁headbands	-7161
▁hopscotch	-7162
▁important	-7163
▁megaphone	-7164
▁messenger	-7165
▁motorboat	-7166
▁neighbors	-7167
▁observers	-7168
▁occurring	-7169
▁oversized	-7170
▁paintball	-7171
▁paintings	-7172
▁piggyback	-7173
▁projected	-7174
▁promoting	-7175
▁returning	-7176
▁sailboats	-7177
▁sculpting	-7178
▁selecting	-7179
▁smoothing	-7180
▁soldering	-7181
▁sponsored	-7182
▁sprinting	-7183
▁stairwell	-7184
▁stockings	-7185
▁submerged	-7186
▁substance	-7187
▁technique	-7188
▁tightrope	-7189
▁unpacking	-7190
▁weathered	-7191
▁wonderful	-7192
▁workbench	-7193
▁Bicyclists	-7194
▁Elementary	-7195
▁KitchenAid	-7196
▁artificial	-7197
▁celebrates	-7198
▁countertop	-7199
▁footbridge	-7200
▁foundation	-7201
▁frustrated	-7202
▁graduation	-7203
▁guitarists	-7204
▁impressive	-7205
▁instructor	-7206
▁kickboxing	-7207
▁mechanical	-7208
▁organizing	-7209
▁overturned	-7210
▁paintbrush	-7211
▁pretending	-7212
▁purchasing	-7213
▁retrieving	-7214
▁scratching	-7215
▁stationary	-7216
▁strawberry	-7217
▁structures	-7218
▁sunbathers	-7219
▁waterskier	-7220
▁whispering	-7221
▁basketballs	-7222
▁convertible	-7223
▁dilapidated	-7224
▁entertainer	-7225
▁fluorescent	-7226
▁hardworking	-7227
▁headscarves	-7228
▁preparation	-7229
▁stomachache	-7230
▁streetlight	-7231
▁videotaping	-7232
▁constructing	-7233
▁dramatically	-7234
▁entrepreneur	-7235
▁grandparents	-7236
▁mountainside	-7237
▁participates	-7238
▁passionately	-7239
▁snowboarders	-7240
▁surroundings	-7241
▁unidentified	-7242
▁Photographers	-7243
▁communicating	-7244
▁contemplating	-7245
▁demonstrating	-7246
▁international	-7247
▁photographers	-7248
▁professionals	-7249
▁rollerskaters	-7250
▁understanding	-7251
95	-7252
?"	-7253
AT	-7254
CK	-7255
EL	-7256
GO	-7257
IN	-7258
MA	-7259
ax	-7260
ba	-7261
fl	-7262
ij	-7263
pt	-7264
rd	-7265
ux	-7266
yl	-7267
The	-7268
aeo	-7269
aic	-7270
aki	-7271
att	-7272
bac	-7273
cir	-7274
cod	-7275
cro	-7276
ena	-7277
erg	-7278
erl	-7279
ged	-7280
gin	-7281
hen	-7282
ili	-7283
ism	-7284
ius	-7285
las	-7286
lif	-7287
log	-7288
mic	-7289
mut	-7290
nce	-7291
ndy	-7292
nes	-7293
nia	-7294
nov	-7295
omb	-7296
oos	-7297
ove	-7298
own	-7299
dex	-7300
hio	-7301
inj	-7302
pad	-7303
psy	-7304
rad	-7305
rew	-7306
rot	-7307
sem	-7308
son	-7309
ssy	-7310
tch	-7311
uma	-7312
ups	-7313
was	-7314
ymn	-7315
▁#5	-7316
▁#8	-7317
▁14	-7318
▁2.	-7319
▁24	-7320
▁25	-7321
▁Cl	-7322
▁DS	-7323
▁De	-7324
▁Ev	-7325
▁Go	-7326
▁Pr	-7327
▁Ri	-7328
▁dw	-7329
▁ir	-7330
▁tv	-7331
▁yu	-7332
abil	-7333
acas	-7334
aced	-7335
achi	-7336
ains	-7337
amar	-7338
anda	-7339
andy	-7340
ased	-7341
ason	-7342
atch	-7343
ault	-7344
bags	-7345
bell	-7346
blue	-7347
book	-7348
cker	-7349
clad	-7350
ctic	-7351
ecut	-7352
edan	-7353
eran	-7354
evil	-7355
fect	-7356
ffle	-7357
foam	-7358
free	-7359
gels	-7360
hats	-7361
hous	-7362
icef	-7363
ioed	-7364
ipop	-7365
ippy	-7366
isha	-7367
ived	-7368
izer	-7369
llie	-7370
lows	-7371
mosp	-7372
omas	-7373
pany	-7374
pass	-7375
rain	-7376
reds	-7377
rimp	-7378
rior	-7379
rows	-7380
stal	-7381
tock	-7382
ugar	-7383
ugby	-7384
uild	-7385
uing	-7386
uler	-7387
ully	-7388
urai	-7389
writ	-7390
yclo	-7391
▁Air	-7392
▁BMW	-7393
▁Cir	-7394
▁Dad	-7395
▁Dep	-7396
▁Emp	-7397
▁Eth	-7398
▁Few	-7399
ico	-7400
iod	-7401
jab	-7402
tig	-7403
aign	-7404
buds	-7405
chos	-7406
dyed	-7407
gent	-7408
ifor	-7409
jump	-7410
umes	-7411
▁Far	-7412
▁Fla	-7413
▁Gap	-7414
▁Joe	-7415
▁Ken	-7416
▁Mad	-7417
▁Med	-7418
▁Mom	-7419
▁Nin	-7420
▁Not	-7421
▁Ori	-7422
▁Pan	-7423
▁Pla	-7424
▁Pre	-7425
▁SUV	-7426
▁San	-7427
▁Sit	-7428
▁Ter	-7429
▁Tye	-7430
▁Wii	-7431
▁Wor	-7432
▁age	-7433
▁alp	-7434
▁ank	-7435
▁ast	-7436
▁awe	-7437
▁awn	-7438
▁bay	-7439
▁bee	-7440
▁boa	-7441
▁cer	-7442
▁fal	-7443
▁gay	-7444
▁ide	-7445
▁ink	-7446
▁iro	-7447
▁jug	-7448
▁kil	-7449
▁lat	-7450
▁led	-7451
▁lei	-7452
▁lin	-7453
▁mac	-7454
▁mob	-7455
▁owl	-7456
▁pel	-7457
▁rig	-7458
▁rit	-7459
▁rot	-7460
▁swo	-7461
▁tul	-7462
▁tum	-7463
▁ups	-7464
▁wit	-7465
▁yet	-7466
achsh	-7467
agers	-7468
allet	-7469
almon	-7470
ampoo	-7471
andel	-7472
andom	-7473
apple	-7474
atman	-7475
atown	-7476
bacco	-7477
cards	-7478
ciate	-7479
ckled	-7480
climb	-7481
clock	-7482
ctang	-7483
cured	-7484
doors	-7485
ember	-7486
ergic	-7487
erlin	-7488
geous	-7489
gling	-7490
guing	-7491
hoops	-7492
hroom	-7493
iachi	-7494
ijing	-7495
ilies	-7496
iskly	-7497
istry	-7498
itude	-7499
ON	-7500
col	-7501
hel	-7502
▁eg	-7503
gear	-7504
gles	-7505
shot	-7506
step	-7507
▁Bus	-7508
▁Cap	-7509
▁Sco	-7510
▁Sea	-7511
▁pud	-7512
▁tru	-7513
Pants	-7514
elled	-7515
icles	-7516
laden	-7517
layed	-7518
ledge	-7519
lings	-7520
looks	-7521
mates	-7522
olate	-7523
orter	-7524
proof	-7525
quely	-7526
rible	-7527
rical	-7528
ridor	-7529
riger	-7530
rored	-7531
shing	-7532
smith	-7533
sting	-7534
tendo	-7535
tling	-7536
uffel	-7537
unges	-7538
urous	-7539
utist	-7540
water	-7541
welve	-7542
▁Aust	-7543
▁Budd	-7544
▁Bull	-7545
▁Camp	-7546
▁Care	-7547
▁Cels	-7548
▁Cent	-7549
▁Chef	-7550
▁Cola	-7551
▁Crou	-7552
▁Deli	-7553
▁Down	-7554
▁Farm	-7555
▁Fast	-7556
▁Ford	-7557
▁Fore	-7558
▁Good	-7559
▁Gymn	-7560
▁Hard	-7561
▁Holl	-7562
▁Home	-7563
▁Lead	-7564
▁Lone	-7565
▁Main	-7566
▁Mets	-7567
▁Nine	-7568
▁Pops	-7569
▁Rena	-7570
▁Road	-7571
▁Team	-7572
▁bead	-7573
▁bunk	-7574
▁cact	-7575
▁capt	-7576
▁cert	-7577
▁chew	-7578
▁claw	-7579
▁coin	-7580
▁colo	-7581
▁cors	-7582
▁cris	-7583
▁cult	-7584
▁cush	-7585
▁cust	-7586
▁dalm	-7587
▁dent	-7588
▁desc	-7589
▁diag	-7590
▁dojo	-7591
▁dorm	-7592
▁dren	-7593
▁ecst	-7594
▁ends	-7595
▁exit	-7596
▁feed	-7597
▁fier	-7598
▁fist	-7599
▁flot	-7600
▁fris	-7601
▁glit	-7602
▁goof	-7603
▁grid	-7604
▁grip	-7605
▁hate	-7606
▁hawk	-7607
▁huts	-7608
▁jars	-7609
▁jazz	-7610
▁junk	-7611
▁leis	-7612
▁limo	-7613
▁loll	-7614
▁loop	-7615
▁mate	-7616
▁mock	-7617
▁neat	-7618
▁ninj	-7619
▁obsc	-7620
▁pace	-7621
▁pean	-7622
▁pear	-7623
▁pets	-7624
▁poet	-7625
▁rapp	-7626
▁rena	-7627
▁rent	-7628
▁resc	-7629
▁ripp	-7630
▁rise	-7631
▁rods	-7632
▁rose	-7633
▁safe	-7634
▁sari	-7635
▁scri	-7636
▁sexy	-7637
▁shit	-7638
▁sips	-7639
▁sket	-7640
▁smir	-7641
▁snar	-7642
▁sock	-7643
▁sour	-7644
▁spec	-7645
▁spre	-7646
▁stam	-7647
▁stub	-7648
▁styl	-7649
▁such	-7650
▁suds	-7651
▁susp	-7652
▁swer	-7653
▁toen	-7654
▁trap	-7655
▁trek	-7656
▁trio	-7657
▁tuba	-7658
▁twil	-7659
▁urin	-7660
▁veil	-7661
▁vers	-7662
▁vine	-7663
▁wade	-7664
▁yuan	-7665
acular	-7666
aeolog	-7667
aining	-7668
alleng	-7669
anitor	-7670
antage	-7671
araoke	-7672
codile	-7673
corder	-7674
elting	-7675
ertips	-7676
estyle	-7677
eteran	-7678
headed	-7679
iments	-7680
ionate	-7681
irline	-7682
ishing	-7683
isters	-7684
keeper	-7685
lagers	-7686
locked	-7687
lywood	-7688
mother	-7689
namese	-7690
ograph	-7691
onding	-7692
pleted	-7693
prints	-7694
ration	-7695
rofoam	-7696
rolled	-7697
ronaut	-7698
screen	-7699
stairs	-7700
stress	-7701
uffles	-7702
ulance	-7703
uminum	-7704
verage	-7705
washer	-7706
▁Coney	-7707
▁Elder	-7708
▁Great	-7709
▁Looks	-7710
▁Paris	-7711
▁Pizza	-7712
▁Rugby	-7713
▁Skier	-7714
▁South	-7715
▁actor	-7716
▁align	-7717
▁alike	-7718
▁appla	-7719
▁audio	-7720
▁beans	-7721
▁bears	-7722
▁beats	-7723
▁blade	-7724
▁blast	-7725
▁blown	-7726
▁bored	-7727
▁bowed	-7728
▁bulls	-7729
▁cages	-7730
▁cakes	-7731
▁canes	-7732
▁capes	-7733
▁chart	-7734
▁clams	-7735
▁clerk	-7736
▁colon	-7737
▁comed	-7738
▁cords	-7739
▁darts	-7740
▁ditch	-7741
▁dozen	-7742
▁dried	-7743
▁dries	-7744
▁drunk	-7745
▁dumps	-7746
▁dunks	-7747
▁enter	-7748
▁excav	-7749
▁expla	-7750
▁extra	-7751
▁fatig	-7752
▁feeds	-7753
▁ferry	-7754
▁figur	-7755
▁films	-7756
▁fists	-7757
▁force	-7758
▁fully	-7759
▁geese	-7760
▁gifts	-7761
▁goers	-7762
▁guest	-7763
▁gypsy	-7764
▁hedge	-7765
▁hijab	-7766
▁hitch	-7767
▁homes	-7768
▁honor	-7769
▁hoses	-7770
▁humid	-7771
▁hurry	-7772
▁index	-7773
▁indig	-7774
▁kinds	-7775
▁kneel	-7776
▁knits	-7777
▁ladle	-7778
▁latex	-7779
▁leafy	-7780
▁llama	-7781
▁manic	-7782
▁marks	-7783
▁meals	-7784
▁media	-7785
▁menus	-7786
▁might	-7787
▁mixed	-7788
▁mixes	-7789
▁monks	-7790
▁moved	-7791
▁ollie	-7792
▁olymp	-7793
▁optim	-7794
▁pages	-7795
▁pairs	-7796
▁panda	-7797
▁panel	-7798
▁parka	-7799
▁pause	-7800
▁poker	-7801
▁quilt	-7802
▁rakes	-7803
▁route	-7804
▁ruler	-7805
▁sands	-7806
▁sauna	-7807
▁secre	-7808
▁shake	-7809
▁shelf	-7810
▁sippy	-7811
▁sizes	-7812
▁sleds	-7813
▁smart	-7814
▁snows	-7815
▁solar	-7816
▁songs	-7817
▁spend	-7818
▁spits	-7819
▁spout	-7820
▁steth	-7821
▁stock	-7822
▁stony	-7823
▁suite	-7824
▁tasks	-7825
▁tasty	-7826
▁taxis	-7827
▁tells	-7828
▁tends	-7829
▁texas	-7830
▁threw	-7831
▁tiles	-7832
▁times	-7833
▁towed	-7834
▁trink	-7835
▁trips	-7836
▁trots	-7837
▁tutus	-7838
▁twent	-7839
▁twigs	-7840
▁views	-7841
▁visit	-7842
▁vivid	-7843
▁welds	-7844
▁wheat	-7845
▁whose	-7846
▁wield	-7847
▁windy	-7848
achioed	-7849
commend	-7850
creased	-7851
ersault	-7852
formers	-7853
icapped	-7854
iderman	-7855
ifornia	-7856
itation	-7857
lifting	-7858
merized	-7859
ometric	-7860
ortment	-7861
reached	-7862
reshing	-7863
ressing	-7864
undreds	-7865
▁Africa	-7866
▁Angels	-7867
▁Autumn	-7868
▁Batman	-7869
▁Berlin	-7870
▁Coffee	-7871
▁Commut	-7872
▁Dozens	-7873
▁Easter	-7874
▁Employ	-7875
▁Ethnic	-7876
▁France	-7877
▁Hikers	-7878
▁Jockey	-7879
▁Lakers	-7880
▁Latino	-7881
▁Mexico	-7882
▁Player	-7883
▁Skiers	-7884
▁Summer	-7885
▁Sunday	-7886
▁Toyota	-7887
▁Twelve	-7888
▁access	-7889
▁adding	-7890
▁aerial	-7891
▁amused	-7892
▁ashore	-7893
▁atmosp	-7894
▁awaits	-7895
▁awning	-7896
▁barbie	-7897
▁bathed	-7898
▁batons	-7899
▁beagle	-7900
▁blonds	-7901
▁blurry	-7902
▁bonnet	-7903
▁bouncy	-7904
▁braces	-7905
▁briefs	-7906
▁bullet	-7907
▁bumper	-7908
▁campus	-7909
▁canned	-7910
▁cereal	-7911
▁cheers	-7912
▁cleats	-7913
▁colder	-7914
▁contin	-7915
▁corral	-7916
▁county	-7917
▁cracks	-7918
▁crotch	-7919
▁crouch	-7920
▁cutoff	-7921
▁cycles	-7922
▁dandel	-7923
▁darkly	-7924
▁dealer	-7925
▁decals	-7926
▁digger	-7927
▁donuts	-7928
▁dreads	-7929
▁driven	-7930
▁duffel	-7931
▁dugout	-7932
▁enters	-7933
▁europe	-7934
▁execut	-7935
▁facade	-7936
▁fences	-7937
▁fleece	-7938
▁fliers	-7939
▁fridge	-7940
▁geisha	-7941
▁gently	-7942
▁gloomy	-7943
▁golfer	-7944
▁hatted	-7945
▁highly	-7946
▁holing	-7947
▁horror	-7948
▁itself	-7949
▁jogger	-7950
▁kicker	-7951
▁kissed	-7952
▁knight	-7953
▁knives	-7954
▁landsc	-7955
▁launch	-7956
▁leader	-7957
▁manual	-7958
▁marina	-7959
▁modest	-7960
▁mosaic	-7961
▁mosque	-7962
▁napkin	-7963
▁needed	-7964
▁noodle	-7965
▁online	-7966
▁outcro	-7967
▁parlor	-7968
▁pastel	-7969
▁pastor	-7970
▁patrol	-7971
▁paving	-7972
▁paying	-7973
▁picker	-7974
▁pointy	-7975
▁polite	-7976
▁poncho	-7977
▁poorly	-7978
▁popula	-7979
▁prayer	-7980
▁proper	-7981
▁ragged	-7982
▁refuge	-7983
▁region	-7984
▁reluct	-7985
▁remove	-7986
▁resear	-7987
▁ripped	-7988
▁ritual	-7989
▁rowers	-7990
▁safely	-7991
▁salmon	-7992
▁scoops	-7993
▁secure	-7994
▁shaded	-7995
▁shrimp	-7996
▁signal	-7997
▁simult	-7998
▁sledge	-7999
▁sleigh	-8000
▁slowly	-8001
▁sparse	-8002
▁spiral	-8003
▁sponge	-8004
▁squirt	-8005
▁states	-8006
▁stormy	-8007
▁strewn	-8008
▁strobe	-8009
▁talkie	-8010
▁tanned	-8011
▁themed	-8012
▁timber	-8013
▁treats	-8014
▁trough	-8015
▁tulips	-8016
▁twirls	-8017
▁unicef	-8018
▁unison	-8019
▁uphill	-8020
▁vacant	-8021
▁waited	-8022
▁waking	-8023
▁walker	-8024
▁walkie	-8025
▁warmer	-8026
▁warmly	-8027
▁winded	-8028
▁zombie	-8029
boarders	-8030
daughter	-8031
kerchief	-8032
ximately	-8033
▁Austral	-8034
▁Beijing	-8035
▁Celsius	-8036
▁Company	-8037
▁Dressed	-8038
▁Excited	-8039
▁Gymnast	-8040
▁Pitcher	-8041
▁Sitting	-8042
▁Student	-8043
▁Western	-8044
▁Workmen	-8045
▁Younger	-8046
▁actress	-8047
▁admires	-8048
▁advance	-8049
▁agility	-8050
▁answers	-8051
▁applied	-8052
▁aquatic	-8053
▁arguing	-8054
▁arrival	-8055
▁attired	-8056
▁awnings	-8057
▁baggage	-8058
▁bagpipe	-8059
▁banquet	-8060
▁battery	-8061
▁boating	-8062
▁bouncer	-8063
▁bounces	-8064
▁briskly	-8065
▁cabinet	-8066
▁capital	-8067
▁captain	-8068
▁ceramic	-8069
▁changed	-8070
▁climbed	-8071
▁cobbled	-8072
▁collide	-8073
▁content	-8074
▁crashed	-8075
▁crashes	-8076
▁crystal	-8077
▁culture	-8078
▁curling	-8079
▁cushion	-8080
▁defends	-8081
▁delayed	-8082
▁dentist	-8083
▁diverse	-8084
▁ducking	-8085
▁dustpan	-8086
▁earbuds	-8087
▁engages	-8088
▁extends	-8089
▁extreme	-8090
▁festive	-8091
▁fitness	-8092
▁flamboy	-8093
▁flights	-8094
▁flooded	-8095
▁focuses	-8096
▁forrest	-8097
▁fortune	-8098
▁freeway	-8099
▁garment	-8100
▁graphic	-8101
▁grounds	-8102
▁grouped	-8103
▁growing	-8104
▁hammers	-8105
▁handful	-8106
▁healthy	-8107
▁hurdles	-8108
▁infants	-8109
▁ironing	-8110
▁journal	-8111
▁layered	-8112
▁liberty	-8113
▁logical	-8114
▁lottery	-8115
▁lounges	-8116
▁machete	-8117
▁manhole	-8118
▁meaning	-8119
▁monster	-8120
▁mopping	-8121
▁natural	-8122
▁nursing	-8123
▁overall	-8124
▁patches	-8125
▁perfect	-8126
▁pierced	-8127
▁pitched	-8128
▁pitches	-8129
▁plumber	-8130
▁pockets	-8131
▁ponchos	-8132
▁ponders	-8133
▁popping	-8134
▁popular	-8135
▁pouting	-8136
▁powered	-8137
▁presses	-8138
▁prevent	-8139
▁propane	-8140
▁proudly	-8141
▁provide	-8142
▁pruning	-8143
▁pursued	-8144
▁racquet	-8145
▁railway	-8146
▁records	-8147
▁rectang	-8148
▁regular	-8149
▁related	-8150
▁removed	-8151
▁removes	-8152
▁rooster	-8153
▁samurai	-8154
▁sandpit	-8155
▁satchel	-8156
▁screams	-8157
▁secured	-8158
▁shading	-8159
▁shampoo	-8160
▁shelter	-8161
▁sipping	-8162
▁snowfla	-8163
▁solider	-8164
▁spiking	-8165
▁spilled	-8166
▁spreads	-8167
▁sprints	-8168
▁stained	-8169
▁statute	-8170
▁staying	-8171
▁sticker	-8172
▁streaks	-8173
▁streams	-8174
▁subject	-8175
▁sunhats	-8176
▁takeout	-8177
▁technic	-8178
▁telling	-8179
▁testing	-8180
▁textile	-8181
▁tobacco	-8182
▁toilets	-8183
▁trouble	-8184
▁turbans	-8185
▁tuxedos	-8186
▁vacuums	-8187
▁violins	-8188
▁yawning	-8189
▁zombies	-8190
▁Athletes	-8191
▁Colorful	-8192
▁Homeless	-8193
▁Monopoly	-8194
▁Nintendo	-8195
▁Overhead	-8196
▁Scottish	-8197
▁Soldiers	-8198
▁allergic	-8199
▁aluminum	-8200
▁animated	-8201
▁approach	-8202
▁arranged	-8203
▁assembly	-8204
▁attaches	-8205
▁backhand	-8206
▁battling	-8207
▁blacktop	-8208
▁bordered	-8209
▁campaign	-8210
▁canister	-8211
▁captured	-8212
▁captures	-8213
▁challeng	-8214
▁charging	-8215
▁contains	-8216
▁corridor	-8217
▁darkness	-8218
▁descends	-8219
▁desolate	-8220
▁desserts	-8221
▁directed	-8222
▁drenched	-8223
▁dwelling	-8224
▁elevator	-8225
▁enclosed	-8226
▁equipped	-8227
▁explorer	-8228
▁explores	-8229
▁exposing	-8230
▁families	-8231
▁featured	-8232
▁fluently	-8233
▁forklift	-8234
▁frosting	-8235
▁gorgeous	-8236
▁graduate	-8237
▁gripping	-8238
▁handmade	-8239
▁headgear	-8240
▁horizont	-8241
▁huddling	-8242
▁informal	-8243
▁innertub	-8244
▁interior	-8245
▁intimate	-8246
▁investig	-8247
▁investor	-8248
▁lakeside	-8249
▁landmark	-8250
▁lassoing	-8251
▁launches	-8252
▁leotards	-8253
▁littered	-8254
▁lollipop	-8255
▁maintain	-8256
▁maneuver	-8257
▁mirrored	-8258
▁mistakes	-8259
▁mushroom	-8260
▁nibbling	-8261
▁numbered	-8262
▁observed	-8263
▁onlooker	-8264
▁opinions	-8265
▁ornament	-8266
▁overpass	-8267
▁packages	-8268
▁parasail	-8269
▁peaceful	-8270
▁pharmacy	-8271
▁pleasant	-8272
▁plugging	-8273
▁potatoes	-8274
▁pregnant	-8275
▁pressing	-8276
▁pretends	-8277
▁princess	-8278
▁pumpkins	-8279
▁recliner	-8280
▁referees	-8281
▁refriger	-8282
▁services	-8283
▁shadowed	-8284
▁sheepdog	-8285
▁smirking	-8286
▁snowbank	-8287
▁snowshoe	-8288
▁sparkler	-8289
▁speakers	-8290
▁spending	-8291
▁supervis	-8292
▁sweating	-8293
▁tethered	-8294
▁towering	-8295
▁trumpets	-8296
▁twilight	-8297
▁underway	-8298
▁uniquely	-8299
▁utensils	-8300
▁wheeling	-8301
▁windsurf	-8302
▁wrapping	-8303
▁Fisherman	-8304
▁Fishermen	-8305
▁Hollister	-8306
▁Teenagers	-8307
▁addresses	-8308
▁advantage	-8309
▁affection	-8310
▁astronaut	-8311
▁bordering	-8312
▁camcorder	-8313
▁cameramen	-8314
▁challenge	-8315
▁chemistry	-8316
▁collected	-8317
▁coverings	-8318
▁craftsman	-8319
▁crocodile	-8320
▁depicting	-8321
▁distorted	-8322
▁enclosure	-8323
▁expensive	-8324
▁explosion	-8325
▁flotation	-8326
▁geometric	-8327
▁grimacing	-8328
▁halloween	-8329
▁hamburger	-8330
▁happening	-8331
▁heartbeat	-8332
▁inspiring	-8333
▁keyboards	-8334
▁languages	-8335
▁launching	-8336
▁livestock	-8337
▁maneuvers	-8338
▁miniskirt	-8339
▁mustached	-8340
▁notebooks	-8341
▁overlooks	-8342
▁patiently	-8343
▁patriotic	-8344
▁piercings	-8345
▁playhouse	-8346
▁ponytails	-8347
▁portraits	-8348
▁positions	-8349
▁primitive	-8350
▁protester	-8351
▁rainstorm	-8352
▁recommend	-8353
▁retriever	-8354
▁reviewing	-8355
▁seemingly	-8356
▁shielding	-8357
▁similarly	-8358
▁situation	-8359
▁sparklers	-8360
▁spreading	-8361
▁sprinkled	-8362
▁sprinkles	-8363
▁squinting	-8364
▁straining	-8365
▁strumming	-8366
▁temporary	-8367
▁tricycles	-8368
▁unusually	-8369
▁villagers	-8370
▁violinist	-8371
▁wristband	-8372
▁California	-8373
▁Firetrucks	-8374
▁Washington	-8375
▁addressing	-8376
▁appreciate	-8377
▁assortment	-8378
▁atmosphere	-8379
▁ballerinas	-8380
▁barricades	-8381
▁blacksmith	-8382
▁blossoming	-8383
▁butchering	-8384
▁concession	-8385
▁dishwasher	-8386
▁electrical	-8387
▁elementary	-8388
▁entertains	-8389
▁enthusiasm	-8390
▁everywhere	-8391
▁fingernail	-8392
▁fingertips	-8393
▁flashlight	-8394
▁footprints	-8395
▁formations	-8396
▁government	-8397
▁hamburgers	-8398
▁handlebars	-8399
▁healthcare	-8400
▁jackhammer	-8401
▁mannequins	-8402
▁meditating	-8403
▁mesmerized	-8404
▁navigating	-8405
▁optimistic	-8406
▁outfielder	-8407
▁powerpoint	-8408
▁procession	-8409
▁protesters	-8410
▁rappelling	-8411
▁refreshing	-8412
▁rehearsing	-8413
▁responding	-8414
▁saxophones	-8415
▁schoolgirl	-8416
▁seamstress	-8417
▁skillfully	-8418
▁somersault	-8419
▁sprinkling	-8420
▁surfboards	-8421
▁tambourine	-8422
▁turtleneck	-8423
▁videotapes	-8424
▁vigorously	-8425
▁waterproof	-8426
▁youngsters	-8427
▁Individuals	-8428
▁Renaissance	-8429
▁Snowboarder	-8430
▁SquarePants	-8431
▁accompanies	-8432
▁adventurous	-8433
▁beautifully	-8434
▁congregated	-8435
▁electricity	-8436
▁enforcement	-8437
▁engineering	-8438
▁entertained	-8439
▁grandmother	-8440
▁instruction	-8441
▁maneuvering	-8442
▁mustachioed	-8443
▁outcropping	-8444
▁rectangular	-8445
▁renaissance	-8446
▁restaurants	-8447
▁screwdriver	-8448
▁spectacular	-8449
▁stethoscope	-8450
▁uncompleted	-8451
▁wildflowers	-8452
▁woodworking	-8453
▁architecture	-8454
▁congregating	-8455
▁demonstrates	-8456
▁handkerchief	-8457
▁metropolitan	-8458
▁outstreached	-8459
▁participants	-8460
▁representing	-8461
▁simultaneous	-8462
▁streetlights	-8463
▁transporting	-8464
▁communication	-8465
▁compassionate	-8466
▁documentaries	-8467
▁entertainment	-8468
▁granddaughter	-8469
▁professionally	-8470
000	-8471
CKS	-8472
EGO	-8473
MCA	-8474
WAT	-8475
afe	-8476
iki	-8477
tti	-8478
▁28	-8479
▁6.	-8480
▁63	-8481
▁96	-8482
▁DI	-8483
▁Dr	-8484
▁UF	-8485
▁Ur	-8486
,000	-8487
Love	-8488
abst	-8489
ancy	-8490
auty	-8491
avan	-8492
bbly	-8493
bbon	-8494
bike	-8495
cano	-8496
cass	-8497
ccol	-8498
cons	-8499
xyg	-8500
▁18	-8501
▁LA	-8502
▁Li	-8503
awas	-8504
bust	-8505
eeps	-8506
flip	-8507
golf	-8508
ials	-8509
isco	-8510
lits	-8511
mong	-8512
oons	-8513
orah	-8514
orth	-8515
outh	-8516
pact	-8517
poms	-8518
prov	-8519
rank	-8520
rics	-8521
uish	-8522
ushi	-8523
zaar	-8524
▁195	-8525
▁80'	-8526
▁Atl	-8527
▁Dav	-8528
▁Jim	-8529
▁Las	-8530
▁LeB	-8531
▁Los	-8532
▁Mrs	-8533
▁Nes	-8534
▁Rep	-8535
▁Sty	-8536
▁Tea	-8537
▁Yan	-8538
▁alt	-8539
▁avi	-8540
▁awk	-8541
▁mex	-8542
▁sac	-8543
▁syr	-8544
▁zig	-8545
ables	-8546
acled	-8547
amond	-8548
ashed	-8549
bbery	-8550
block	-8551
chase	-8552
chers	-8553
cisco	-8554
color	-8555
ddles	-8556
dging	-8557
dlers	-8558
drift	-8559
eogra	-8560
erior	-8561
essel	-8562
ffort	-8563
fring	-8564
gerid	-8565
heast	-8566
hetti	-8567
horse	-8568
ictor	-8569
ifter	-8570
illas	-8571
imney	-8572
lamic	-8573
laska	-8574
lence	-8575
maids	-8576
mined	-8577
mused	-8578
naked	-8579
nalia	-8580
ograp	-8581
onald	-8582
ongol	-8583
ooter	-8584
opper	-8585
orker	-8586
ormal	-8587
ortar	-8588
orugh	-8589
ously	-8590
rests	-8591
rigin	-8592
robed	-8593
scast	-8594
shake	-8595
stery	-8596
story	-8597
ucked	-8598
ucker	-8599
XX	-8600
icu	-8601
zag	-8602
▁Ge	-8603
anad	-8604
aver	-8605
cell	-8606
dies	-8607
hell	-8608
pole	-8609
rocs	-8610
shes	-8611
tter	-8612
unny	-8613
urry	-8614
▁Gri	-8615
▁Nur	-8616
▁abs	-8617
▁cha	-8618
▁cob	-8619
▁due	-8620
▁gam	-8621
▁hol	-8622
▁pam	-8623
▁wok	-8624
aders	-8625
claim	-8626
eller	-8627
ellig	-8628
ishes	-8629
lurry	-8630
ugged	-8631
ulent	-8632
ultry	-8633
unken	-8634
urday	-8635
uthor	-8636
venir	-8637
wined	-8638
xford	-8639
xygen	-8640
▁2008	-8641
▁Arch	-8642
▁Balt	-8643
▁Bank	-8644
▁Bird	-8645
▁Calv	-8646
▁Chev	-8647
▁Euro	-8648
▁Flag	-8649
▁Gold	-8650
▁Hero	-8651
▁Isra	-8652
▁Just	-8653
▁Keny	-8654
▁Komo	-8655
▁Louv	-8656
▁Marx	-8657
▁Mich	-8658
▁Mike	-8659
▁Mond	-8660
▁Most	-8661
▁Muzz	-8662
▁Navy	-8663
▁Near	-8664
▁Need	-8665
▁Pass	-8666
▁Pipe	-8667
▁Port	-8668
▁Prin	-8669
▁Prof	-8670
▁SWAT	-8671
▁Sled	-8672
▁Sout	-8673
▁Time	-8674
▁Viet	-8675
▁Well	-8676
▁Wond	-8677
▁YMCA	-8678
▁agit	-8679
▁ally	-8680
▁ampl	-8681
▁bins	-8682
▁bits	-8683
▁bomb	-8684
▁bulb	-8685
▁buys	-8686
▁clen	-8687
▁cork	-8688
▁cuis	-8689
▁dull	-8690
▁euro	-8691
▁exha	-8692
▁eyel	-8693
▁faux	-8694
▁fenc	-8695
▁gamb	-8696
▁grin	-8697
▁herd	-8698
▁hope	-8699
AH	-8700
got	-8701
▁Up	-8702
angs	-8703
eers	-8704
irst	-8705
ooth	-8706
uman	-8707
utch	-8708
wall	-8709
▁Bal	-8710
▁Dom	-8711
▁Fro	-8712
▁Law	-8713
▁Mac	-8714
▁Tra	-8715
▁ere	-8716
▁gut	-8717
▁hoe	-8718
▁lun	-8719
▁non	-8720
▁piz	-8721
▁rea	-8722
▁rin	-8723
ccoli	-8724
eners	-8725
esame	-8726
first	-8727
iches	-8728
iners	-8729
▁Bald	-8730
▁Bare	-8731
▁Dame	-8732
▁From	-8733
▁adds	-8734
▁anor	-8735
▁chun	-8736
▁copy	-8737
▁ecle	-8738
▁feel	-8739
▁hide	-8740
▁hurt	-8741
▁iced	-8742
▁inno	-8743
▁jets	-8744
▁jost	-8745
▁knot	-8746
▁laps	-8747
▁lava	-8748
▁lego	-8749
▁lond	-8750
▁mine	-8751
▁mugs	-8752
▁nips	-8753
▁nuts	-8754
▁oars	-8755
▁peas	-8756
▁peek	-8757
▁pies	-8758
▁pigs	-8759
▁powd	-8760
▁priv	-8761
▁puff	-8762
▁rags	-8763
▁reco	-8764
▁reen	-8765
▁samp	-8766
▁serv	-8767
▁silk	-8768
▁size	-8769
▁skew	-8770
▁skys	-8771
▁slim	-8772
▁slum	-8773
▁supp	-8774
▁toll	-8775
▁tort	-8776
▁trim	-8777
▁true	-8778
▁twin	-8779
▁vase	-8780
▁wavy	-8781
▁weak	-8782
acious	-8783
ailand	-8784
akland	-8785
amaran	-8786
amsung	-8787
anadas	-8788
anging	-8789
angled	-8790
appled	-8791
araunt	-8792
atersk	-8793
beater	-8794
casing	-8795
casion	-8796
chieve	-8797
craper	-8798
dotted	-8799
%.	-8800
inn	-8801
ugs	-8802
urn	-8803
won	-8804
▁40	-8805
▁OU	-8806
alom	-8807
bird	-8808
esus	-8809
five	-8810
mped	-8811
ndar	-8812
nded	-8813
olin	-8814
umer	-8815
ythe	-8816
▁Amp	-8817
▁Att	-8818
▁Egy	-8819
▁Pad	-8820
▁Reg	-8821
▁Tan	-8822
▁cue	-8823
▁shy	-8824
aired	-8825
laces	-8826
tying	-8827
▁King	-8828
▁bibs	-8829
▁crag	-8830
▁dumb	-8831
▁fund	-8832
▁pork	-8833
▁putt	-8834
▁toes	-8835
actory	-8836
ension	-8837
father	-8838
flower	-8839
heeled	-8840
hiking	-8841
houses	-8842
iances	-8843
ibling	-8844
iddles	-8845
idence	-8846
igator	-8847
indeer	-8848
ineken	-8849
ippers	-8850
ivated	-8851
lation	-8852
legged	-8853
mallow	-8854
nesota	-8855
okemon	-8856
presso	-8857
prised	-8858
quence	-8859
racted	-8860
raiser	-8861
ramble	-8862
rences	-8863
rewing	-8864
ricans	-8865
ricate	-8866
ricket	-8867
semble	-8868
stride	-8869
themed	-8870
uddles	-8871
umably	-8872
uments	-8873
uvenir	-8874
vatory	-8875
velope	-8876
weiser	-8877
▁Adult	-8878
▁After	-8879
▁Attra	-8880
▁Beach	-8881
▁Block	-8882
▁Brick	-8883
▁Broad	-8884
▁Buddh	-8885
▁Chefs	-8886
▁Cooks	-8887
▁Crocs	-8888
▁Cyclo	-8889
▁Darth	-8890
▁David	-8891
▁Giant	-8892
▁Hello	-8893
▁Human	-8894
▁Italy	-8895
▁James	-8896
▁Jesus	-8897
▁Johns	-8898
▁Kawas	-8899
BA	-8900
GA	-8901
KE	-8902
OI	-8903
VE	-8904
▁0	-8905
UBA	-8906
enn	-8907
loo	-8908
mig	-8909
wan	-8910
yor	-8911
▁Da	-8912
CUBA	-8913
cken	-8914
ingy	-8915
ucer	-8916
upid	-8917
▁Jul	-8918
▁Mic	-8919
▁Sal	-8920
▁atm	-8921
▁did	-8922
▁fel	-8923
bread	-8924
build	-8925
check	-8926
igloo	-8927
ipula	-8928
phony	-8929
uston	-8930
veyor	-8931
walks	-8932
▁July	-8933
▁Penn	-8934
▁Tank	-8935
▁bale	-8936
▁econ	-8937
▁frog	-8938
▁hipp	-8939
▁manu	-8940
▁plow	-8941
▁stum	-8942
Guitar	-8943
ioneer	-8944
lifted	-8945
umping	-8946
▁Kitty	-8947
▁Micha	-8948
▁Newly	-8949
▁Pabst	-8950
▁Paint	-8951
▁Pilot	-8952
▁Power	-8953
▁Rider	-8954
▁SCUBA	-8955
▁Scuba	-8956
▁Space	-8957
▁Story	-8958
▁Thurs	-8959
▁Vehic	-8960
▁Water	-8961
▁allow	-8962
▁aloud	-8963
▁alter	-8964
▁ankle	-8965
▁aston	-8966
▁bagel	-8967
▁bands	-8968
▁billi	-8969
▁braid	-8970
▁bucks	-8971
▁caged	-8972
▁capri	-8973
▁cells	-8974
▁chief	-8975
▁chili	-8976
▁clips	-8977
▁conif	-8978
▁could	-8979
▁crack	-8980
▁defla	-8981
▁demol	-8982
▁devil	-8983
▁dingy	-8984
▁drape	-8985
▁eagle	-8986
▁egret	-8987
▁ended	-8988
▁entry	-8989
▁faced	-8990
▁fanny	-8991
▁feels	-8992
▁filed	-8993
▁fires	-8994
▁flame	-8995
▁flaps	-8996
▁flier	-8997
▁fluid	-8998
▁focal	-8999
AM	-9000
AR	-9001
EP	-9002
Ex	-9003
ME	-9004
▁)	-9005
OME	-9006
alo	-9007
bum	-9008
elp	-9009
lot	-9010
sco	-9011
sue	-9012
▁Ac	-9013
▁pf	-9014
inar	-9015
itas	-9016
load	-9017
stop	-9018
▁For	-9019
▁Ser	-9020
▁Whe	-9021
▁ber	-9022
▁cuc	-9023
▁hog	-9024
▁raw	-9025
acent	-9026
aming	-9027
illac	-9028
▁Year	-9029
▁Zune	-9030
▁bell	-9031
▁buck	-9032
▁hops	-9033
▁jous	-9034
▁kelp	-9035
▁lace	-9036
▁moun	-9037
▁toil	-9038
circle	-9039
ivious	-9040
ribing	-9041
tailed	-9042
▁Earth	-9043
▁Rocks	-9044
▁album	-9045
▁based	-9046
▁divid	-9047
▁faith	-9048
▁fling	-9049
▁fours	-9050
▁funky	-9051
▁goofy	-9052
▁grain	-9053
▁grave	-9054
▁graze	-9055
▁herbs	-9056
▁heron	-9057
▁hides	-9058
▁hoist	-9059
▁hokey	-9060
▁hydra	-9061
▁ideas	-9062
▁intri	-9063
▁irrit	-9064
▁issue	-9065
▁knock	-9066
▁lapse	-9067
▁latin	-9068
▁limbs	-9069
▁locks	-9070
▁loses	-9071
▁magic	-9072
▁maple	-9073
▁mason	-9074
▁matad	-9075
▁meats	-9076
▁melon	-9077
▁meter	-9078
▁misty	-9079
▁moose	-9080
▁mulch	-9081
▁names	-9082
▁necks	-9083
▁ninja	-9084
▁oddly	-9085
▁owned	-9086
▁packs	-9087
▁parks	-9088
▁pasta	-9089
▁plans	-9090
▁polit	-9091
▁proje	-9092
▁props	-9093
▁quart	-9094
▁racks	-9095
▁rates	-9096
▁respe	-9097
▁roots	-9098
▁sauce	-9099
EN	-9100
Th	-9101
ae	-9102
sy	-9103
▁.	-9104
gun	-9105
hin	-9106
uve	-9107
▁Iz	-9108
▁VW	-9109
▁fu	-9110
▁wi	-9111
dist	-9112
iker	-9113
inky	-9114
jack	-9115
kart	-9116
kemp	-9117
oors	-9118
race	-9119
▁Kle	-9120
▁Pee	-9121
▁Top	-9122
▁Tur	-9123
▁dir	-9124
▁doo	-9125
▁rat	-9126
anter	-9127
ascar	-9128
crowd	-9129
kempt	-9130
reeze	-9131
urful	-9132
▁Tall	-9133
▁cola	-9134
▁lett	-9135
▁role	-9136
▁shut	-9137
▁upra	-9138
▁wits	-9139
ctural	-9140
lanter	-9141
▁Klein	-9142
▁baker	-9143
▁blues	-9144
▁brook	-9145
▁cough	-9146
▁crabs	-9147
▁mauve	-9148
▁refre	-9149
▁remod	-9150
▁scrim	-9151
▁sedan	-9152
▁sends	-9153
▁sense	-9154
▁shish	-9155
▁shots	-9156
▁sites	-9157
▁slips	-9158
▁slung	-9159
▁smock	-9160
▁snail	-9161
▁soapy	-9162
▁solid	-9163
▁spiky	-9164
▁squir	-9165
▁stake	-9166
▁starf	-9167
▁steak	-9168
▁stout	-9169
▁sugar	-9170
▁sushi	-9171
▁swirl	-9172
▁swung	-9173
▁syrup	-9174
▁taped	-9175
▁tears	-9176
▁tests	-9177
▁thing	-9178
▁thous	-9179
▁tilts	-9180
▁tough	-9181
▁trade	-9182
▁treed	-9183
▁troop	-9184
▁twins	-9185
▁uncle	-9186
▁vault	-9187
▁wands	-9188
▁wants	-9189
▁wines	-9190
▁winks	-9191
▁would	-9192
▁wrapp	-9193
▁yells	-9194
▁zooms	-9195
Eastern	-9196
adillac	-9197
agement	-9198
aghetti	-9199
eye	-9200
lly	-9201
mar	-9202
ran	-9203
rog	-9204
run	-9205
▁Av	-9206
▁RV	-9207
▁dj	-9208
▁ga	-9209
anny	-9210
arit	-9211
days	-9212
umbs	-9213
▁Bar	-9214
▁May	-9215
▁Seg	-9216
▁Wee	-9217
▁atv	-9218
▁ker	-9219
▁sta	-9220
▁wre	-9221
class	-9222
ibles	-9223
iders	-9224
venue	-9225
▁Comp	-9226
▁Scoo	-9227
▁Very	-9228
▁dies	-9229
▁glue	-9230
▁idle	-9231
▁isle	-9232
▁lave	-9233
▁scan	-9234
▁slou	-9235
▁stap	-9236
▁tear	-9237
▁ward	-9238
formal	-9239
ggress	-9240
thumbs	-9241
▁Foods	-9242
▁Their	-9243
▁comic	-9244
▁ferns	-9245
▁gates	-9246
▁hobby	-9247
▁igloo	-9248
▁irons	-9249
▁mowed	-9250
▁parap	-9251
▁renov	-9252
▁scope	-9253
▁setup	-9254
▁shift	-9255
▁snugg	-9256
▁steal	-9257
alendar	-9258
ancisco	-9259
apanese	-9260
aturday	-9261
blading	-9262
brimmed	-9263
cessing	-9264
chested	-9265
crowded	-9266
cturing	-9267
cussion	-9268
dresser	-9269
eranian	-9270
floored	-9271
fringed	-9272
hammers	-9273
ilizing	-9274
lechase	-9275
llution	-9276
lookers	-9277
ometers	-9278
onsible	-9279
scooter	-9280
shments	-9281
speaker	-9282
ticular	-9283
uperman	-9284
▁Alaska	-9285
▁Artist	-9286
▁Blurry	-9287
▁Brides	-9288
▁Calvin	-9289
▁Canada	-9290
▁Capris	-9291
▁Castro	-9292
▁Circus	-9293
▁Diners	-9294
▁Eleven	-9295
▁Engine	-9296
▁Farmer	-9297
▁Golden	-9298
▁Harlem	-9299
US	-9300
das	-9301
elo	-9302
how	-9303
kee	-9304
nas	-9305
owa	-9306
pri	-9307
ulk	-9308
Free	-9309
ases	-9310
dled	-9311
elve	-9312
gons	-9313
lets	-9314
pard	-9315
ssed	-9316
ulic	-9317
urst	-9318
usta	-9319
▁Fin	-9320
▁Gen	-9321
▁Sch	-9322
▁Tim	-9323
▁Tri	-9324
▁fra	-9325
▁moo	-9326
agues	-9327
arian	-9328
icked	-9329
uding	-9330
▁Hand	-9331
▁Iowa	-9332
▁Mach	-9333
▁Pelo	-9334
▁Tree	-9335
▁coke	-9336
▁corg	-9337
▁eyeb	-9338
▁hero	-9339
▁lack	-9340
▁page	-9341
▁simp	-9342
abilia	-9343
addled	-9344
apples	-9345
change	-9346
former	-9347
urance	-9348
▁Could	-9349
▁Rican	-9350
▁frant	-9351
▁herit	-9352
▁judge	-9353
▁lodge	-9354
▁sewer	-9355
▁slump	-9356
▁smear	-9357
▁sodas	-9358
▁tress	-9359
Welcome	-9360
painted	-9361
tingent	-9362
▁Hopper	-9363
▁Horses	-9364
▁LeBron	-9365
▁Louvre	-9366
▁Needle	-9367
▁Nurses	-9368
▁Oxford	-9369
▁Palace	-9370
▁Racing	-9371
▁Ribbon	-9372
▁Scooby	-9373
▁Scouts	-9374
▁Seated	-9375
▁Segway	-9376
▁Sesame	-9377
▁Shorts	-9378
▁Skater	-9379
▁Spider	-9380
▁States	-9381
▁Stones	-9382
▁United	-9383
▁Victor	-9384
▁Violin	-9385
▁Wonder	-9386
▁alpine	-9387
▁angels	-9388
▁announ	-9389
▁anorak	-9390
▁answer	-9391
▁antiqu	-9392
▁asians	-9393
▁assign	-9394
▁author	-9395
▁backed	-9396
▁baking	-9397
▁barbed	-9398
▁bazaar	-9399
AL	-9400
abo	-9401
agu	-9402
ole	-9403
▁13	-9404
alie	-9405
chet	-9406
gued	-9407
ieve	-9408
love	-9409
main	-9410
mind	-9411
rect	-9412
tore	-9413
▁MMA	-9414
▁asp	-9415
▁bug	-9416
▁die	-9417
▁gap	-9418
▁sno	-9419
enous	-9420
pants	-9421
ycler	-9422
▁Ball	-9423
▁Bill	-9424
▁Coke	-9425
▁Keep	-9426
▁bone	-9427
▁bust	-9428
▁crow	-9429
▁gyro	-9430
▁kabo	-9431
▁kill	-9432
▁lets	-9433
▁mild	-9434
▁mime	-9435
▁perf	-9436
▁pred	-9437
▁ribs	-9438
▁sash	-9439
▁sews	-9440
▁snoo	-9441
▁sous	-9442
▁tote	-9443
▁worn	-9444
arding	-9445
inders	-9446
inding	-9447
merica	-9448
minded	-9449
nished	-9450
vation	-9451
▁aloft	-9452
▁aside	-9453
▁grips	-9454
▁pretz	-9455
▁sucks	-9456
itively	-9457
▁Baller	-9458
▁beaker	-9459
▁beauty	-9460
▁become	-9461
▁binder	-9462
▁blasts	-9463
▁blinds	-9464
▁bloody	-9465
▁bodies	-9466
▁border	-9467
▁bowled	-9468
▁braids	-9469
▁breeze	-9470
▁budget	-9471
▁builds	-9472
▁burger	-9473
▁burrit	-9474
▁bushel	-9475
▁busily	-9476
▁busker	-9477
▁calmly	-9478
▁chisel	-9479
▁choppy	-9480
▁chores	-9481
▁clasps	-9482
▁clever	-9483
▁client	-9484
▁cliffs	-9485
▁closes	-9486
▁common	-9487
▁compos	-9488
▁copies	-9489
▁creepy	-9490
▁cutter	-9491
▁dachsh	-9492
▁dalmat	-9493
▁daring	-9494
▁decked	-9495
▁dental	-9496
▁detail	-9497
▁develo	-9498
▁diaper	-9499
▁%	-9500
▁vo	-9501
ools	-9502
rine	-9503
tage	-9504
▁Cam	-9505
▁Cor	-9506
▁Fat	-9507
▁Lab	-9508
▁Ore	-9509
▁Pet	-9510
▁Pot	-9511
▁UFC	-9512
▁War	-9513
▁lif	-9514
▁spa	-9515
▁vat	-9516
iance	-9517
istro	-9518
urely	-9519
▁Fair	-9520
▁Rail	-9521
▁Thai	-9522
▁Wood	-9523
▁clog	-9524
▁dipl	-9525
▁grim	-9526
▁less	-9527
▁mold	-9528
▁moss	-9529
▁seal	-9530
▁skit	-9531
▁stem	-9532
▁tugs	-9533
atever	-9534
boards	-9535
ctions	-9536
wister	-9537
yellow	-9538
▁Dober	-9539
▁amber	-9540
▁array	-9541
▁conce	-9542
▁hairy	-9543
▁later	-9544
▁nears	-9545
▁offer	-9546
▁plume	-9547
▁state	-9548
▁thong	-9549
▁trave	-9550
actment	-9551
istered	-9552
redible	-9553
vention	-9554
▁Guitar	-9555
▁Series	-9556
▁bagpip	-9557
▁bistro	-9558
▁bucked	-9559
▁charge	-9560
▁diners	-9561
▁drawer	-9562
▁drifts	-9563
▁eccent	-9564
▁ecstat	-9565
▁effort	-9566
▁ensure	-9567
▁evenly	-9568
▁exotic	-9569
▁expect	-9570
▁exting	-9571
▁failed	-9572
▁falcon	-9573
▁festiv	-9574
▁fierce	-9575
▁filmed	-9576
▁flashy	-9577
▁flutes	-9578
▁frilly	-9579
▁fronds	-9580
▁frothy	-9581
▁frowns	-9582
▁gallon	-9583
▁garish	-9584
▁garter	-9585
▁glassy	-9586
▁glides	-9587
▁grades	-9588
▁grains	-9589
▁grasps	-9590
▁guests	-9591
▁guides	-9592
▁hairdo	-9593
▁hamper	-9594
▁header	-9595
▁hedges	-9596
▁height	-9597
▁helper	-9598
▁hitter	-9599
ffy	-9600
sea	-9601
acts	-9602
ffin	-9603
game	-9604
pool	-9605
rict	-9606
take	-9607
▁Ado	-9608
▁Bes	-9609
▁Row	-9610
▁Sur	-9611
▁add	-9612
▁obl	-9613
▁unt	-9614
▁voc	-9615
ceful	-9616
geles	-9617
imore	-9618
▁Dane	-9619
▁Fans	-9620
▁Fest	-9621
▁Hind	-9622
▁bake	-9623
▁camo	-9624
▁clip	-9625
▁date	-9626
▁fare	-9627
▁flap	-9628
▁glow	-9629
▁hors	-9630
▁mane	-9631
▁peep	-9632
▁pout	-9633
▁sick	-9634
▁turf	-9635
biling	-9636
decker	-9637
ulture	-9638
▁Astro	-9639
▁Every	-9640
▁Notre	-9641
▁bales	-9642
▁bares	-9643
▁brigh	-9644
▁chore	-9645
▁decla	-9646
▁hello	-9647
▁liter	-9648
▁loves	-9649
▁medal	-9650
▁pamph	-9651
▁shine	-9652
▁union	-9653
▁Bright	-9654
▁Sveral	-9655
▁Volley	-9656
▁bitter	-9657
▁cavern	-9658
▁frisbe	-9659
▁hollow	-9660
▁hooked	-9661
▁hoping	-9662
▁hugged	-9663
▁humans	-9664
▁hunter	-9665
▁illust	-9666
▁insect	-9667
▁jagged	-9668
▁joking	-9669
▁jostle	-9670
▁juggle	-9671
▁kimono	-9672
▁lasted	-9673
▁leaped	-9674
▁learns	-9675
▁licked	-9676
▁linens	-9677
▁lizard	-9678
▁loader	-9679
▁locker	-9680
▁london	-9681
▁loudly	-9682
▁lovers	-9683
▁mainly	-9684
▁majest	-9685
▁mallet	-9686
▁manner	-9687
▁mantle	-9688
▁manure	-9689
▁masses	-9690
▁medals	-9691
▁median	-9692
▁melons	-9693
▁miners	-9694
▁mingle	-9695
▁moored	-9696
▁mortar	-9697
▁mounds	-9698
▁murals	-9699
ggle	-9700
▁ign	-9701
count	-9702
iffel	-9703
▁aims	-9704
▁barn	-9705
▁beds	-9706
▁ener	-9707
▁gener	-9708
▁spare	-9709
▁hazard	-9710
▁intert	-9711
▁myster	-9712
▁neatly	-9713
▁normal	-9714
▁novels	-9715
▁obstru	-9716
▁origin	-9717
▁oxygen	-9718
▁pajama	-9719
▁palace	-9720
▁parrot	-9721
▁passer	-9722
▁pastry	-9723
▁patchy	-9724
▁pearls	-9725
▁pedals	-9726
▁period	-9727
▁piling	-9728
▁placid	-9729
▁planes	-9730
▁planet	-9731
▁plaque	-9732
▁poetry	-9733
▁raging	-9734
▁rather	-9735
▁reason	-9736
▁rescue	-9737
▁resour	-9738
▁restra	-9739
▁rifles	-9740
▁rimmed	-9741
▁rocker	-9742
▁rocket	-9743
▁rugged	-9744
▁rusted	-9745
▁saucer	-9746
▁saving	-9747
▁scores	-9748
▁scythe	-9749
▁secret	-9750
▁serene	-9751
▁shabby	-9752
▁shawls	-9753
▁shined	-9754
▁shouts	-9755
▁shrine	-9756
▁simple	-9757
▁simply	-9758
▁sketch	-9759
▁skulls	-9760
▁slalom	-9761
▁sleepy	-9762
▁sliced	-9763
▁snoopy	-9764
▁soaked	-9765
▁softly	-9766
▁source	-9767
▁sparks	-9768
▁spirit	-9769
▁splits	-9770
▁spoons	-9771
▁squash	-9772
▁stamps	-9773
▁stayed	-9774
▁steals	-9775
▁stoops	-9776
▁strips	-9777
▁stroke	-9778
▁strums	-9779
▁strung	-9780
▁stupid	-9781
▁styled	-9782
▁sucker	-9783
▁suited	-9784
▁sweets	-9785
▁swoops	-9786
▁taping	-9787
▁teeter	-9788
▁tilted	-9789
▁tinsel	-9790
▁tinted	-9791
▁tipped	-9792
▁topped	-9793
▁toting	-9794
▁trails	-9795
▁treads	-9796
▁trendy	-9797
▁tucked	-9798
▁twenty	-9799
▁unload	-9800
▁urinal	-9801
▁varied	-9802
▁vessel	-9803
▁victim	-9804
▁violet	-9805
▁vision	-9806
▁waffle	-9807
▁wagons	-9808
▁watery	-9809
▁welder	-9810
▁worked	-9811
▁wounds	-9812
▁wrench	-9813
▁wrists	-9814
▁zigzag	-9815
allowing	-9816
chievous	-9817
climbing	-9818
distance	-9819
elligent	-9820
emporary	-9821
fighting	-9822
friendly	-9823
hernalia	-9824
idential	-9825
itasking	-9826
itioning	-9827
ographed	-9828
ongolian	-9829
operated	-9830
painting	-9831
radoodle	-9832
▁Airline	-9833
▁Airways	-9834
▁Angeles	-9835
▁Athlete	-9836
▁Atlanta	-9837
▁Central	-9838
▁Cricket	-9839
▁Evening	-9840
▁Factory	-9841
▁Farmers	-9842
▁Firemen	-9843
▁Forever	-9844
▁Gardens	-9845
▁Groucho	-9846
▁Holding	-9847
▁Houston	-9848
▁Indians	-9849
▁Islamic	-9850
▁Jackson	-9851
▁Jockeys	-9852
▁Joggers	-9853
▁Kayaker	-9854
▁Medical	-9855
▁Michael	-9856
▁Muzzled	-9857
▁Orioles	-9858
▁Patrick	-9859
▁Pokemon	-9860
▁Profile	-9861
▁Rodgers	-9862
▁Russian	-9863
▁Samsung	-9864
▁Skiiers	-9865
▁Soldier	-9866
▁Sundays	-9867
▁Swimmer	-9868
▁Terrier	-9869
▁Veteran	-9870
▁Waiting	-9871
▁Walkers	-9872
▁Walking	-9873
▁Walkman	-9874
▁Watersk	-9875
▁Welcome	-9876
▁Workman	-9877
▁achieve	-9878
▁actions	-9879
▁anticip	-9880
▁anxious	-9881
▁armored	-9882
▁ascends	-9883
▁assists	-9884
▁average	-9885
▁aviator	-9886
▁backing	-9887
▁bandage	-9888
▁batting	-9889
▁bemused	-9890
▁blankly	-9891
▁boaters	-9892
▁bombard	-9893
▁bonding	-9894
▁bonfire	-9895
▁bottled	-9896
▁bowties	-9897
▁brimmed	-9898
▁buffalo	-9899
▁builder	-9900
▁bulldog	-9901
▁bundles	-9902
▁burying	-9903
▁busking	-9904
▁buttons	-9905
▁caravan	-9906
▁cartons	-9907
▁cashier	-9908
▁cheered	-9909
▁chested	-9910
▁chimney	-9911
▁chipper	-9912
▁chisels	-9913
▁chopped	-9914
▁circles	-9915
▁citizen	-9916
▁closing	-9917
▁coached	-9918
▁coconut	-9919
▁collaps	-9920
▁collect	-9921
▁comfort	-9922
▁condoms	-9923
▁correct	-9924
▁corsage	-9925
▁cottage	-9926
▁couches	-9927
▁cracked	-9928
▁crammed	-9929
▁cramped	-9930
▁crayola	-9931
▁crushed	-9932
▁cuisine	-9933
▁cupping	-9934
▁custody	-9935
▁cutouts	-9936
▁decided	-9937
▁decides	-9938
▁delight	-9939
▁diamond	-9940
▁downing	-9941
▁drawers	-9942
▁dribble	-9943
▁drunken	-9944
▁dueling	-9945
▁dumping	-9946
▁enjoyed	-9947
▁erected	-9948
▁exhaust	-9949
▁explore	-9950
▁farming	-9951
▁feeling	-9952
▁fencers	-9953
▁fetches	-9954
▁fiddles	-9955
▁fishnet	-9956
▁fitting	-9957
▁fixture	-9958
▁flexing	-9959
▁flipped	-9960
▁floored	-9961
▁folders	-9962
▁forearm	-9963
▁freight	-9964
▁frolics	-9965
▁glances	-9966
▁glowing	-9967
▁golfers	-9968
▁graying	-9969
▁grilled	-9970
▁grinder	-9971
▁guiding	-9972
▁halfway	-9973
▁hamming	-9974
▁handgun	-9975
▁handler	-9976
▁harvest	-9977
▁hatchet	-9978
▁hoodies	-9979
▁housing	-9980
▁howling	-9981
▁humping	-9982
▁hunting	-9983
▁incense	-9984
▁invited	-9985
▁janitor	-9986
▁joggers	-9987
▁juggler	-9988
▁karaoke	-9989
▁kayaker	-9990
▁knitted	-9991
▁knotted	-9992
▁leashed	-9993
▁letting	-9994
▁lettuce	-9995
▁lockers	-9996
▁manager	-9997
▁maracas	-9998
▁marshal	-9999
▁martini	-10000
▁masonry	-10001
▁massage	-10002
▁matador	-10003
▁matches	-10004
▁measure	-10005
▁melting	-10006
▁mexican	-10007
▁milling	-10008
▁mirrors	-10009
▁miscell	-10010
▁mixture	-10011
▁motions	-10012
▁mustang	-10013
▁natives	-10014
▁necktie	-10015
▁nibbles	-10016
▁offered	-10017
▁operate	-10018
▁oversee	-10019
▁paddled	-10020
▁paneled	-10021
▁passage	-10022
▁pasture	-10023
▁patriot	-10024
▁patties	-10025
▁peanuts	-10026
▁pebbles	-10027
▁pelican	-10028
▁penguin	-10029
▁peppers	-10030
▁peruses	-10031
▁physics	-10032
▁placard	-10033
▁plaster	-10034
▁platter	-10035
▁plywood	-10036
▁podiums	-10037
▁pompoms	-10038
▁poultry	-10039
▁pounces	-10040
▁pretend	-10041
▁printer	-10042
▁private	-10043
▁problem	-10044
▁program	-10045
▁punches	-10046
▁puzzled	-10047
▁quartet	-10048
▁quietly	-10049
▁quilted	-10050
▁rackets	-10051
▁recycle	-10052
▁release	-10053
▁respond	-10054
▁results	-10055
▁rinsing	-10056
▁rushing	-10057
▁saddled	-10058
▁samples	-10059
▁sausage	-10060
▁schools	-10061
▁scoring	-10062
▁screens	-10063
▁scruffy	-10064
▁secures	-10065
▁selects	-10066
▁seminar	-10067
▁sending	-10068
▁serious	-10069
▁shadowy	-10070
▁showers	-10071
▁shuttle	-10072
▁sibling	-10073
▁sisters	-10074
▁skinned	-10075
▁slumped	-10076
▁soaking	-10077
▁solving	-10078
▁spinner	-10079
▁squirts	-10080
▁started	-10081
▁styling	-10082
▁stylist	-10083
▁suspect	-10084
▁swerves	-10085
▁tackler	-10086
▁targets	-10087
▁teaches	-10088
▁thorugh	-10089
▁tipping	-10090
▁tongues	-10091
▁trading	-10092
▁trooper	-10093
▁turkeys	-10094
▁twister	-10095
▁unkempt	-10096
▁unwraps	-10097
▁version	-10098
▁volcano	-10099
▁wanting	-10100
▁warmers	-10101
▁warrior	-10102
▁washers	-10103
▁watered	-10104
▁weights	-10105
▁western	-10106
▁wetland	-10107
▁workmen	-10108
▁worried	-10109
▁worship	-10110
▁wrangle	-10111
migration	-10112
ographies	-10113
pectacled	-10114
provoking	-10115
▁Buddhist	-10116
▁Business	-10117
▁Heineken	-10118
▁Kawasaki	-10119
▁Michigan	-10120
▁Outdoors	-10121
▁Painters	-10122
▁Popsicle	-10123
▁Saturday	-10124
▁Sidewalk	-10125
▁Standing	-10126
▁Swimmers	-10127
▁Thailand	-10128
▁Thursday	-10129
▁adjacent	-10130
▁appropri	-10131
▁assisted	-10132
▁assorted	-10133
▁attacked	-10134
▁attended	-10135
▁awaiting	-10136
▁backflip	-10137
▁ballroom	-10138
▁bicycler	-10139
▁blooming	-10140
▁boutique	-10141
▁broccoli	-10142
▁brothers	-10143
▁brownish	-10144
▁calendar	-10145
▁canoeing	-10146
▁careless	-10147
▁cellular	-10148
▁certific	-10149
▁chemical	-10150
▁churning	-10151
▁circuits	-10152
▁clenches	-10153
▁clicking	-10154
▁colonial	-10155
▁comedies	-10156
▁comforts	-10157
▁consider	-10158
▁consoles	-10159
▁consults	-10160
▁contorts	-10161
▁conveyor	-10162
▁costumed	-10163
▁counters	-10164
▁coworker	-10165
▁creation	-10166
▁creature	-10167
▁culinary	-10168
▁cultural	-10169
▁curbside	-10170
▁curtains	-10171
▁deciding	-10172
▁deflated	-10173
▁depicted	-10174
▁didgerid	-10175
▁district	-10176
▁doorstep	-10177
▁downward	-10178
▁dragster	-10179
▁drawings	-10180
▁dressing	-10181
▁drummers	-10182
▁drumming	-10183
▁eclectic	-10184
▁embraces	-10185
▁emptying	-10186
▁engaging	-10187
▁ensemble	-10188
▁envelope	-10189
▁espresso	-10190
▁european	-10191
▁examined	-10192
▁executes	-10193
▁explains	-10194
▁exterior	-10195
▁eyeliner	-10196
▁farmland	-10197
▁fatigues	-10198
▁finishes	-10199
▁flexible	-10200
▁flinging	-10201
▁forecast	-10202
▁forehand	-10203
▁formally	-10204
▁frowning	-10205
▁function	-10206
▁gambling	-10207
▁garments	-10208
▁glancing	-10209
▁glittery	-10210
▁grinning	-10211
▁growling	-10212
▁handbags	-10213
▁handhold	-10214
▁handsome	-10215
▁hardware	-10216
▁heritage	-10217
▁hipsters	-10218
▁hitching	-10219
▁horsemen	-10220
▁hovering	-10221
▁hundreds	-10222
▁inclined	-10223
▁involves	-10224
▁japanese	-10225
▁jousting	-10226
▁kerchief	-10227
▁language	-10228
▁lavender	-10229
▁lemonade	-10230
▁lowering	-10231
▁magician	-10232
▁manipula	-10233
▁mariachi	-10234
▁messages	-10235
▁mingling	-10236
▁modeling	-10237
▁national	-10238
▁navigate	-10239
▁newscast	-10240
▁occasion	-10241
▁occurred	-10242
▁olympics	-10243
▁oncoming	-10244
▁openings	-10245
▁outboard	-10246
▁outfield	-10247
▁overcast	-10248
▁paddlers	-10249
▁pancakes	-10250
▁peddling	-10251
▁penguins	-10252
▁personal	-10253
▁possible	-10254
▁pouncing	-10255
▁powdered	-10256
▁prepping	-10257
▁pretzels	-10258
▁problems	-10259
▁proclaim	-10260
▁programs	-10261
▁reacting	-10262
▁reaction	-10263
▁received	-10264
▁recorder	-10265
▁reflects	-10266
▁releases	-10267
▁remember	-10268
▁reporter	-10269
▁retrieve	-10270
▁riverbed	-10271
▁routines	-10272
▁salesman	-10273
▁saluting	-10274
▁saxophon	-10275
▁scrabble	-10276
▁scramble	-10277
▁screened	-10278
▁securing	-10279
▁sequence	-10280
▁shacking	-10281
▁showgirl	-10282
▁shuffles	-10283
▁sideline	-10284
▁slamming	-10285
▁smelling	-10286
▁snarling	-10287
▁software	-10288
▁somebody	-10289
▁souvenir	-10290
▁sparsely	-10291
▁speckled	-10292
▁squirrel	-10293
▁squirted	-10294
▁starfish	-10295
▁steering	-10296
▁stopping	-10297
▁stricken	-10298
▁stronger	-10299
▁struggle	-10300
▁stubborn	-10301
▁stunning	-10302
▁superior	-10303
▁supports	-10304
▁swaddled	-10305
▁symphony	-10306
▁teachers	-10307
▁thatched	-10308
▁toenails	-10309
▁traverse	-10310
▁treeless	-10311
▁trekking	-10312
▁trinkets	-10313
▁typewrit	-10314
▁upraised	-10315
▁upturned	-10316
▁vaulting	-10317
▁violence	-10318
▁weekdays	-10319
▁whisking	-10320
▁wielding	-10321
▁wildfire	-10322
▁wrestles	-10323
aeologists	-10324
▁Australia	-10325
▁Baltimore	-10326
▁Challenge	-10327
▁Commuters	-10328
▁Crouching	-10329
▁Employees	-10330
▁Enrolling	-10331
▁Minnesota	-10332
▁Onlookers	-10333
▁Southeast	-10334
▁Spiderman	-10335
▁Styrofoam	-10336
▁alcoholic	-10337
▁ambulance	-10338
▁amplifier	-10339
▁anxiously	-10340
▁attaching	-10341
▁attacking	-10342
▁attentive	-10343
▁bagpipers	-10344
▁bandannas	-10345
▁barricade	-10346
▁brochures	-10347
▁bystander	-10348
▁caressing	-10349
▁catamaran	-10350
▁chinatown	-10351
▁civilians	-10352
▁clipboard	-10353
▁clustered	-10354
▁coastline	-10355
▁collision	-10356
▁colourful	-10357
▁comforter	-10358
▁completes	-10359
▁contained	-10360
▁contested	-10361
▁converses	-10362
▁cornfield	-10363
▁crumbling	-10364
▁curiously	-10365
▁dandelion	-10366
▁defending	-10367
▁designing	-10368
▁detergent	-10369
▁discusses	-10370
▁documents	-10371
▁donations	-10372
▁downwards	-10373
▁eccentric	-10374
▁empanadas	-10375
▁exercises	-10376
▁figurines	-10377
▁fishermen	-10378
▁freestyle	-10379
▁furiously	-10380
▁graffited	-10381
▁guidebook	-10382
▁handshake	-10383
▁harvested	-10384
▁headfirst	-10385
▁headlight	-10386
▁household	-10387
▁hydraulic	-10388
▁imitation	-10389
▁increased	-10390
▁inflating	-10391
▁innertube	-10392
▁intricate	-10393
▁intrigued	-10394
▁invention	-10395
▁irritated	-10396
▁kickboxer	-10397
▁knowledge	-10398
▁leisurely	-10399
▁lettering	-10400
▁manicured	-10401
▁oblivious	-10402
▁officials	-10403
▁ourselves	-10404
▁paperback	-10405
▁pineapple	-10406
▁platforms	-10407
▁pollution	-10408
▁postcards	-10409
▁preschool	-10410
▁presented	-10411
▁propeller	-10412
▁questions	-10413
▁reclining	-10414
▁recycling	-10415
▁regularly	-10416
▁releasing	-10417
▁reluctant	-10418
▁repairman	-10419
▁repelling	-10420
▁reporters	-10421
▁residence	-10422
▁scaffolds	-10423
▁scrapping	-10424
▁scrimmage	-10425
▁scrubbing	-10426
▁separated	-10427
▁separates	-10428
▁shoelaces	-10429
▁shrubbery	-10430
▁sidewalks	-10431
▁slingshot	-10432
▁snowdrift	-10433
▁snowstorm	-10434
▁snowsuits	-10435
▁snuggling	-10436
▁spaghetti	-10437
▁spattered	-10438
▁stainless	-10439
▁streamers	-10440
▁streaming	-10441
▁stumbling	-10442
▁submerges	-10443
▁sunflower	-10444
▁supported	-10445
▁surprised	-10446
▁technical	-10447
▁terminals	-10448
▁thousands	-10449
▁tortillas	-10450
▁treatment	-10451
▁turbulent	-10452
▁underside	-10453
▁volunteer	-10454
▁wineglass	-10455
▁wondering	-10456
▁Attractive	-10457
▁Lifeguards	-10458
▁Motorcycle	-10459
▁Performers	-10460
▁Sunglasses	-10461
▁Vietnamese	-10462
▁Volkswagen	-10463
▁Waterskier	-10464
▁acrobatics	-10465
▁adolescent	-10466
▁animatedly	-10467
▁applauding	-10468
▁appliances	-10469
▁approached	-10470
▁assistance	-10471
▁blackboard	-10472
▁bridesmaid	-10473
▁briefcases	-10474
▁captivated	-10475
▁classmates	-10476
▁colleagues	-10477
▁connection	-10478
▁consulting	-10479
▁containers	-10480
▁contestant	-10481
▁contingent	-10482
▁delivering	-10483
▁describing	-10484
▁determined	-10485
▁distracted	-10486
▁escalators	-10487
▁fairground	-10488
▁flamboyant	-10489
▁fundraiser	-10490
▁greenhouse	-10491
▁historical	-10492
▁horizontal	-10493
▁indigenous	-10494
▁informally	-10495
▁interviews	-10496
▁kilometers	-10497
▁lifeguards	-10498
▁lighthouse	-10499
▁literature	-10500
▁locomotive	-10501
▁management	-10502
▁mattresses	-10503
▁mysterious	-10504
▁ornamental	-10505
▁particular	-10506
▁patrolling	-10507
▁percussion	-10508
▁pineapples	-10509
▁politician	-10510
▁pomeranian	-10511
▁population	-10512
▁presumably	-10513
▁previously	-10514
▁projection	-10515
▁protectors	-10516
▁reflecting	-10517
▁registered	-10518
▁respective	-10519
▁restaraunt	-10520
▁sandwiches	-10521
▁scientific	-10522
▁selections	-10523
▁showcasing	-10524
▁silverware	-10525
▁skyscraper	-10526
▁smartphone	-10527
▁snorkeling	-10528
▁snowflakes	-10529
▁snowmobile	-10530
▁spotlights	-10531
▁suspension	-10532
▁swallowing	-10533
▁sweatpants	-10534
▁technician	-10535
▁thoughtful	-10536
▁throughout	-10537
▁travelling	-10538
▁unfriendly	-10539
▁vegetarian	-10540
▁volkswagen	-10541
▁volunteers	-10542
▁wakeboards	-10543
▁waterfalls	-10544
▁windowsill	-10545
▁windsurfer	-10546
▁Bridesmaids	-10547
▁Maintenance	-10548
▁auditioning	-10549
▁biographies	-10550
▁breakdances	-10551
▁candlelight	-10552
▁challenging	-10553
▁communicate	-10554
▁compartment	-10555
▁conditioner	-10556
▁contestants	-10557
▁discovering	-10558
▁elaborately	-10559
▁ethnicities	-10560
▁experiments	-10561
▁fingernails	-10562
▁frantically	-10563
▁gingerbread	-10564
▁hairdresser	-10565
▁handicapped	-10566
▁headdresses	-10567
▁hitchhiking	-10568
▁improvement	-10569
▁instructors	-10570
▁intelligent	-10571
▁jackhammers	-10572
▁locomotives	-10573
▁loudspeaker	-10574
▁masterpiece	-10575
▁memorabilia	-10576
▁mischievous	-10577
▁parachutist	-10578
▁participant	-10579
▁reflections	-10580
▁researchers	-10581
▁residential	-10582
▁responsible	-10583
▁specialized	-10584
▁supervision	-10585
▁surfboarder	-10586
▁tambourines	-10587
▁transformer	-10588
▁Motorcyclist	-10589
▁Rollerblader	-10590
▁announcement	-10591
▁breaststroke	-10592
▁congregation	-10593
▁ecstatically	-10594
▁enthusiastic	-10595
▁illuminating	-10596
▁instructions	-10597
▁metalworking	-10598
▁multitasking	-10599
▁refreshments	-10600
▁refrigerator	-10601
▁respectively	-10602
▁rollerblader	-10603
▁sledgehammer	-10604
▁snowmobiling	-10605
▁steeplechase	-10606
▁wakeboarding	-10607
▁accompaniment	-10608
▁approximately	-10609
▁architectural	-10610
▁choreographed	-10611
▁competitively	-10612
▁concentrating	-10613
▁handkerchiefs	-10614
▁miscellaneous	-10615
▁paraphernalia	-10616
▁simultaneously	-10617
00'	-10618
AGA	-10619
AHL	-10620
ALK	-10621
DIN	-10622
EEP	-10623
ELL	-10624
END	-10625
ENS	-10626
GAT	-10627
OIS	-10628
RAH	-10629
RON	-10630
Thr	-10631
UCK	-10632
USI	-10633
VER	-10634
axe	-10635
eXX	-10636
eva	-10637
saf	-10638
0095	-10639
AHLA	-10640
Boom	-10641
Boss	-10642
Cafe	-10643
DDIN	-10644
EVER	-10645
Exod	-10646
Frog	-10647
GAIN	-10648
IGAT	-10649
LEEP	-10650
LUCK	-10651
Nove	-10652
OCKS	-10653
OISE	-10654
RONA	-10655
TAGA	-10656
TELL	-10657
Teva	-10658
USIC	-10659
Wiki	-10660
asse	-10661
axis	-10662
coln	-10663
dged	-10664
eXXX	-10665
inci	-10666
lemt	-10667
lova	-10668
safe	-10669
ulot	-10670
winn	-10671
▁145	-10672
▁2.5	-10673
▁24,	-10674
▁25.	-10675
▁500	-10676
▁ACE	-10677
▁DIO	-10678
▁DMC	-10679
▁GON	-10680
▁ICE	-10681
▁JAL	-10682
▁LaF	-10683
▁NYC	-10684
▁OUT	-10685
▁WEL	-10686
▁Zoo	-10687
▁abd	-10688
▁cyl	-10689
▁gao	-10690
▁kuk	-10691
▁suv	-10692
▁wih	-10693
5,000	-10694
ADDIN	-10695
AHLAK	-10696
Cyclo	-10697
ENSKE	-10698
Grace	-10699
▁84	-10700
Gasm	-10701
horn	-10702
iefs	-10703
ltie	-10704
▁WAR	-10705
LIGAT	-10706
Marit	-10707
NEVER	-10708
RAHAM	-10709
South	-10710
agpie	-10711
brick	-10712
camer	-10713
eader	-10714
epdog	-10715
erole	-10716
erris	-10717
eturn	-10718
evils	-10719
faced	-10720
garit	-10721
gizer	-10722
hells	-10723
idgin	-10724
iliar	-10725
krain	-10726
lorid	-10727
maine	-10728
marks	-10729
ndola	-10730
nosed	-10731
noyed	-10732
ocacy	-10733
ocide	-10734
olfer	-10735
orthy	-10736
rador	-10737
repid	-10738
ridge	-10739
ritus	-10740
rizes	-10741
rokee	-10742
rothy	-10743
spicu	-10744
sycho	-10745
thmic	-10746
ueblo	-10747
uxury	-10748
women	-10749
▁2.52	-10750
▁20%.	-10751
▁50%.	-10752
▁5003	-10753
▁ATMs	-10754
▁Bugs	-10755
▁Corg	-10756
▁Corp	-10757
▁Dani	-10758
▁Dave	-10759
▁Dead	-10760
▁Deer	-10761
▁Dele	-10762
▁Dept	-10763
▁Easy	-10764
▁Genp	-10765
▁Gras	-10766
▁Huge	-10767
▁Hunt	-10768
▁Iran	-10769
▁Jasm	-10770
▁Leaf	-10771
▁Matt	-10772
▁Moms	-10773
▁Next	-10774
▁Ohio	-10775
▁PitB	-10776
▁Plat	-10777
▁Prec	-10778
▁Puma	-10779
▁Quiz	-10780
▁Rhin	-10781
▁Riot	-10782
▁Rows	-10783
▁SOME	-10784
▁Stev	-10785
▁Stew	-10786
▁Turk	-10787
▁Wait	-10788
▁When	-10789
▁aero	-10790
▁arcs	-10791
▁asht	-10792
▁berm	-10793
▁dete	-10794
▁diry	-10795
▁eeye	-10796
▁egde	-10797
▁fixt	-10798
▁foos	-10799
▁#7	-10800
Pray	-10801
brew	-10802
post	-10803
vote	-10804
ammon	-10805
inety	-10806
liner	-10807
paint	-10808
pover	-10809
roney	-10810
ylons	-10811
▁Bass	-10812
▁Reen	-10813
▁Swit	-10814
▁frag	-10815
▁fray	-10816
▁glam	-10817
▁hunt	-10818
▁idly	-10819
▁jigs	-10820
▁kaki	-10821
▁kiln	-10822
▁kwon	-10823
▁lawy	-10824
▁nerf	-10825
▁ohio	-10826
▁pizz	-10827
▁rims	-10828
▁risk	-10829
▁rott	-10830
▁staf	-10831
▁sync	-10832
▁tiki	-10833
▁unoc	-10834
▁vaul	-10835
▁void	-10836
▁webp	-10837
BLIGAT	-10838
Exodus	-10839
Prayer	-10840
Thomas	-10841
aderie	-10842
alcons	-10843
alties	-10844
amedic	-10845
anford	-10846
arlova	-10847
asonic	-10848
aterer	-10849
atrics	-10850
avelin	-10851
besman	-10852
buster	-10853
donald	-10854
driven	-10855
enguin	-10856
ercury	-10857
flying	-10858
fordsh	-10859
gammon	-10860
garita	-10861
hantly	-10862
hereal	-10863
iscons	-10864
lorida	-10865
member	-10866
monger	-10867
omatic	-10868
omingo	-10869
picker	-10870
ptized	-10871
quaint	-10872
reived	-10873
ronded	-10874
safely	-10875
uisian	-10876
ulprit	-10877
ummage	-10878
urries	-10879
worthy	-10880
ythmic	-10881
▁1800'	-10882
▁1950'	-10883
▁2.52.	-10884
▁Ample	-10885
▁Artis	-10886
▁Barbe	-10887
▁Biker	-10888
▁Binky	-10889
▁Booth	-10890
▁Braun	-10891
▁Busch	-10892
▁Capit	-10893
▁Chris	-10894
▁Citiz	-10895
▁Diner	-10896
▁Dutch	-10897
▁Egypt	-10898
▁Event	-10899
fox	-10900
nfo	-10901
Info	-10902
bald	-10903
▁Tae	-10904
ifact	-10905
quoia	-10906
rails	-10907
▁Club	-10908
▁cozy	-10909
▁larg	-10910
▁mows	-10911
▁slat	-10912
earded	-10913
esbies	-10914
hopper	-10915
ingham	-10916
nehill	-10917
ormous	-10918
ximate	-10919
▁Exuma	-10920
▁Fancy	-10921
▁Farms	-10922
▁Fatig	-10923
▁Force	-10924
▁Funny	-10925
▁Grant	-10926
▁Grill	-10927
▁Grizz	-10928
▁Handy	-10929
▁Harro	-10930
▁Hindu	-10931
▁Jewel	-10932
▁Kites	-10933
▁Labor	-10934
▁Louis	-10935
▁Madag	-10936
▁Nancy	-10937
▁Nanny	-10938
▁Nesqu	-10939
▁Outdo	-10940
▁Panel	-10941
▁Perla	-10942
▁Quatt	-10943
▁Quinn	-10944
▁Quizn	-10945
▁Raids	-10946
▁Revel	-10947
▁Roose	-10948
▁SUCKS	-10949
▁SWATC	-10950
▁Sandy	-10951
▁Saris	-10952
▁Scout	-10953
▁Seuss	-10954
▁Steak	-10955
▁Store	-10956
▁Sunny	-10957
▁Swamp	-10958
▁Takes	-10959
▁Taxis	-10960
▁Tehel	-10961
▁Thorn	-10962
▁Tools	-10963
▁Torah	-10964
▁Train	-10965
▁Tribe	-10966
▁Union	-10967
▁Urban	-10968
▁Villa	-10969
▁Virou	-10970
▁Wader	-10971
▁Watch	-10972
▁abdom	-10973
▁acorn	-10974
▁aimed	-10975
▁altar	-10976
▁ashen	-10977
▁bells	-10978
▁billy	-10979
▁cacti	-10980
▁caffe	-10981
▁corgi	-10982
▁crank	-10983
▁crisp	-10984
▁crocs	-10985
▁culot	-10986
▁curvy	-10987
▁defle	-10988
▁domed	-10989
▁dutch	-10990
▁faint	-10991
▁fauna	-10992
▁fleet	-10993
▁fumes	-10994
▁glows	-10995
▁grizz	-10996
▁iPods	-10997
▁inste	-10998
▁irish	-10999
▁69	-11000
eked	-11001
fitt	-11002
irky	-11003
pads	-11004
tags	-11005
▁126	-11006
▁697	-11007
▁Adi	-11008
▁McC	-11009
cepts	-11010
cific	-11011
dynam	-11012
kebox	-11013
opula	-11014
▁Hipp	-11015
▁Mohe	-11016
▁awes	-11017
▁gigg	-11018
▁zipp	-11019
elwood	-11020
ensely	-11021
imeter	-11022
itored	-11023
popula	-11024
tained	-11025
urfers	-11026
▁Adiro	-11027
▁Dared	-11028
▁Dirty	-11029
▁Lavig	-11030
▁Swiff	-11031
▁accel	-11032
▁disgu	-11033
▁elong	-11034
▁heaps	-11035
▁kabob	-11036
▁ketch	-11037
▁knobs	-11038
▁knoll	-11039
▁knows	-11040
▁looms	-11041
▁madly	-11042
▁maker	-11043
▁maxim	-11044
▁numer	-11045
▁plugs	-11046
▁polls	-11047
▁ponti	-11048
▁pudgy	-11049
▁punct	-11050
▁ranch	-11051
▁resem	-11052
▁rotis	-11053
▁sawed	-11054
▁senor	-11055
▁sifts	-11056
▁slate	-11057
▁solem	-11058
▁spani	-11059
▁sphin	-11060
▁stabb	-11061
▁tamed	-11062
▁torii	-11063
▁torto	-11064
▁trous	-11065
▁uncon	-11066
▁unfam	-11067
▁until	-11068
▁urged	-11069
▁veter	-11070
▁vicin	-11071
▁vocab	-11072
▁voice	-11073
▁wiped	-11074
America	-11075
abilize	-11076
arkasse	-11077
bearded	-11078
berries	-11079
besides	-11080
builder	-11081
cameras	-11082
casters	-11083
cheeked	-11084
ciation	-11085
dappled	-11086
dynamic	-11087
eranium	-11088
erences	-11089
ermaine	-11090
errible	-11091
erstore	-11092
excited	-11093
fficked	-11094
fitters	-11095
handled	-11096
hesizer	-11097
ilation	-11098
inantly	-11099
azda	-11100
eeze	-11101
sues	-11102
▁Bmx	-11103
▁elf	-11104
▁idi	-11105
eaths	-11106
ooked	-11107
poned	-11108
rised	-11109
▁Jude	-11110
▁korn	-11111
▁mint	-11112
▁peew	-11113
▁silo	-11114
bobank	-11115
cooked	-11116
ibians	-11117
▁Baker	-11118
▁Bucks	-11119
▁Judea	-11120
▁Marsh	-11121
▁Marug	-11122
▁Mazda	-11123
▁bundt	-11124
▁icing	-11125
▁idiot	-11126
▁moutn	-11127
▁pumps	-11128
▁remem	-11129
▁remot	-11130
allions	-11131
ensions	-11132
factory	-11133
ifiable	-11134
incloth	-11135
lantern	-11136
mingham	-11137
nicking	-11138
ningham	-11139
olation	-11140
olution	-11141
oothies	-11142
pectors	-11143
penguin	-11144
perhaps	-11145
renmark	-11146
robatic	-11147
rorizes	-11148
runched	-11149
rushing	-11150
smoking	-11151
surance	-11152
trolled	-11153
unteers	-11154
uthhoop	-11155
warming	-11156
xiously	-11157
▁Amster	-11158
▁Argent	-11159
▁Ballet	-11160
▁Burger	-11161
▁Caster	-11162
▁Centre	-11163
▁Chevro	-11164
▁Chiefs	-11165
▁ChinaT	-11166
▁Cirque	-11167
▁Comput	-11168
▁DAHLAK	-11169
▁Deleon	-11170
▁Donald	-11171
▁Eiffel	-11172
▁Garden	-11173
▁Genpac	-11174
▁Geogra	-11175
▁Golfer	-11176
▁Hebrew	-11177
▁Hippie	-11178
▁Killer	-11179
▁Magpie	-11180
▁Maruga	-11181
▁McCain	-11182
▁Miller	-11183
▁Nicely	-11184
▁Number	-11185
▁PADDIN	-11186
▁PENSKE	-11187
▁Patron	-11188
▁Petron	-11189
▁Photoj	-11190
▁Prince	-11191
▁Protes	-11192
▁Riders	-11193
▁Runner	-11194
▁Scient	-11195
▁Steers	-11196
▁Stevie	-11197
▁Texans	-11198
▁Toront	-11199
▁93	-11200
aiin	-11201
exas	-11202
hook	-11203
hral	-11204
iorg	-11205
rome	-11206
zhou	-11207
▁Lex	-11208
Texas	-11209
arral	-11210
drome	-11211
inets	-11212
ovely	-11213
rades	-11214
utral	-11215
waiin	-11216
▁Dior	-11217
▁Look	-11218
ickets	-11219
iorgio	-11220
katers	-11221
rouded	-11222
terior	-11223
▁angst	-11224
▁calcu	-11225
▁creme	-11226
▁fargo	-11227
▁outgo	-11228
▁penny	-11229
▁snook	-11230
▁wards	-11231
Skaters	-11232
Tickets	-11233
angzhou	-11234
aparral	-11235
erially	-11236
hralled	-11237
iorment	-11238
lodrome	-11239
▁Lovely	-11240
▁Patrol	-11241
▁Ukrain	-11242
▁Vendor	-11243
▁Viewed	-11244
▁Viking	-11245
▁Wheels	-11246
▁Wooden	-11247
▁abstra	-11248
▁ankles	-11249
▁arctic	-11250
▁ascend	-11251
▁assume	-11252
▁avenue	-11253
▁baggie	-11254
▁beaver	-11255
▁bermud	-11256
▁bubbly	-11257
▁bunker	-11258
▁busted	-11259
▁cactus	-11260
▁calist	-11261
▁callig	-11262
▁carrot	-11263
▁chairl	-11264
▁chilly	-11265
▁clergy	-11266
▁climes	-11267
▁cocked	-11268
▁coffin	-11269
▁comedy	-11270
▁confed	-11271
▁confus	-11272
▁convin	-11273
▁coping	-11274
▁corgie	-11275
▁craftz	-11276
▁crisis	-11277
▁crusta	-11278
▁cucumb	-11279
▁cultiv	-11280
▁custod	-11281
▁dapple	-11282
▁decort	-11283
▁deploy	-11284
▁diagra	-11285
▁diesel	-11286
▁dispen	-11287
▁dodges	-11288
▁doughn	-11289
▁dozing	-11290
▁drople	-11291
▁econom	-11292
▁eiffel	-11293
▁energy	-11294
▁ensues	-11295
▁eyelas	-11296
▁ferris	-11297
▁fiddle	-11298
▁filets	-11299
iko	-11300
▁(2	-11301
ghai	-11302
munk	-11303
purs	-11304
▁Eik	-11305
▁Tai	-11306
ellon	-11307
etown	-11308
hills	-11309
hpurs	-11310
lobes	-11311
maneu	-11312
▁Shan	-11313
▁demo	-11314
▁radi	-11315
▁tuss	-11316
Reader	-11317
▁Carol	-11318
▁Cello	-11319
▁Derby	-11320
▁Seiko	-11321
▁Shier	-11322
▁Wells	-11323
▁beech	-11324
▁birth	-11325
▁brawl	-11326
▁crawl	-11327
▁depos	-11328
▁fetal	-11329
▁relig	-11330
▁skunk	-11331
ibility	-11332
odhpurs	-11333
weaking	-11334
▁Aerial	-11335
▁Mellon	-11336
▁Taiwan	-11337
▁Taking	-11338
▁admits	-11339
▁centur	-11340
▁douses	-11341
▁forked	-11342
▁frayed	-11343
▁fresco	-11344
▁fright	-11345
▁gaggle	-11346
▁galore	-11347
▁gigant	-11348
▁giggle	-11349
▁global	-11350
▁glossy	-11351
▁goggle	-11352
▁gothic	-11353
▁greets	-11354
▁growth	-11355
▁gutter	-11356
▁heeled	-11357
▁hippie	-11358
▁hosted	-11359
▁hunger	-11360
▁hungry	-11361
▁icicle	-11362
▁injury	-11363
▁inspir	-11364
▁jigsaw	-11365
▁keeper	-11366
▁kimino	-11367
▁knolls	-11368
▁lattic	-11369
▁lawyer	-11370
▁lesson	-11371
▁levels	-11372
▁llamas	-11373
▁lodged	-11374
▁lumber	-11375
▁luxury	-11376
▁majore	-11377
▁manufa	-11378
▁meticu	-11379
▁mousta	-11380
▁mowers	-11381
▁multim	-11382
▁nascar	-11383
▁ninjas	-11384
▁obscen	-11385
▁obtain	-11386
▁occupy	-11387
▁outrun	-11388
▁oxford	-11389
▁panama	-11390
▁pebbly	-11391
▁pepper	-11392
▁perked	-11393
▁pidgin	-11394
▁pizzas	-11395
▁please	-11396
▁pledge	-11397
▁plumes	-11398
▁pounds	-11399
CEF	-11400
ICEF	-11401
efit	-11402
iams	-11403
lmed	-11404
lsea	-11405
zmat	-11406
▁Ars	-11407
NICEF	-11408
itten	-11409
steen	-11410
vises	-11411
▁Arms	-11412
▁Lets	-11413
▁dirk	-11414
▁maps	-11415
▁pews	-11416
▁saws	-11417
▁zoom	-11418
istern	-11419
▁Arsen	-11420
▁Carne	-11421
▁Paddy	-11422
▁Tebow	-11423
▁accur	-11424
▁anten	-11425
▁baggy	-11426
▁dishd	-11427
▁freef	-11428
▁humor	-11429
▁humve	-11430
▁immed	-11431
illiams	-11432
whelmed	-11433
▁Carneg	-11434
▁Cheese	-11435
▁Columb	-11436
▁UNICEF	-11437
▁Yorkie	-11438
▁accomm	-11439
▁desper	-11440
▁floaty	-11441
▁hazmat	-11442
▁hearth	-11443
▁humvee	-11444
▁immedi	-11445
▁mitten	-11446
▁permed	-11447
▁pooper	-11448
▁precar	-11449
▁prison	-11450
▁prohib	-11451
▁promin	-11452
▁psycho	-11453
▁pulpit	-11454
▁radars	-11455
▁rattle	-11456
▁realty	-11457
▁rememb	-11458
▁rental	-11459
▁retake	-11460
▁riffle	-11461
▁rottwe	-11462
▁sacked	-11463
▁sacred	-11464
▁safari	-11465
▁salute	-11466
▁saxaph	-11467
▁scored	-11468
▁scrape	-11469
▁sensei	-11470
▁sermon	-11471
▁shrubs	-11472
▁shrugs	-11473
▁sickle	-11474
▁sifter	-11475
▁snatch	-11476
▁snooze	-11477
▁soaker	-11478
▁sounds	-11479
▁specim	-11480
▁spectr	-11481
▁sphinx	-11482
▁spices	-11483
▁staffs	-11484
▁stocky	-11485
▁stoned	-11486
▁stylus	-11487
▁submar	-11488
▁sunlit	-11489
▁superv	-11490
▁swipes	-11491
▁switch	-11492
▁tandom	-11493
▁teases	-11494
▁tether	-11495
▁toothp	-11496
▁trolly	-11497
▁trudge	-11498
▁tussle	-11499
uroc	-11500
▁Soy	-11501
▁Spr	-11502
House	-11503
about	-11504
bikes	-11505
grets	-11506
lenty	-11507
ology	-11508
urney	-11509
urora	-11510
urosc	-11511
▁Spar	-11512
▁diap	-11513
▁lama	-11514
atured	-11515
blader	-11516
ellent	-11517
ghouse	-11518
liders	-11519
wheels	-11520
▁Graph	-11521
▁boule	-11522
▁choke	-11523
▁eggpl	-11524
▁furoc	-11525
▁layup	-11526
▁momma	-11527
▁paced	-11528
▁reced	-11529
▁reeds	-11530
▁slums	-11531
▁tomat	-11532
llHouse	-11533
natured	-11534
▁Aurora	-11535
▁Sooner	-11536
▁Sparks	-11537
▁Spring	-11538
▁Sprite	-11539
▁boulev	-11540
▁chestn	-11541
▁chests	-11542
▁dusted	-11543
▁gurney	-11544
▁plenty	-11545
▁portly	-11546
▁unfort	-11547
▁unsure	-11548
▁untang	-11549
▁unwary	-11550
▁vaults	-11551
▁versus	-11552
▁vocals	-11553
▁waders	-11554
▁wander	-11555
▁warped	-11556
▁weaves	-11557
▁weighs	-11558
▁wields	-11559
▁wiring	-11560
▁woolly	-11561
▁wrecks	-11562
▁wristw	-11563
BLIGATOI	-11564
Birthday	-11565
Maritime	-11566
Thriller	-11567
ailboats	-11568
allation	-11569
altitude	-11570
araderie	-11571
checkout	-11572
creaming	-11573
eligious	-11574
ellished	-11575
entially	-11576
ethereal	-11577
ggerated	-11578
inactors	-11579
ioration	-11580
irations	-11581
isconsin	-11582
iverpool	-11583
iversary	-11584
lanterns	-11585
levision	-11586
lympians	-11587
mbulance	-11588
mingbird	-11589
novative	-11590
ntertain	-11591
ordinary	-11592
phibians	-11593
plashing	-11594
plements	-11595
questing	-11596
riptions	-11597
ropology	-11598
roximate	-11599
▁4.	-11600
▁49	-11601
▁iM	-11602
Sara	-11603
▁err	-11604
arney	-11605
igger	-11606
money	-11607
ushka	-11608
▁angr	-11609
▁fara	-11610
▁iMac	-11611
Barney	-11612
bushka	-11613
buting	-11614
iceman	-11615
icemen	-11616
isible	-11617
league	-11618
pected	-11619
summer	-11620
▁Bunny	-11621
▁carol	-11622
▁crims	-11623
▁dense	-11624
▁erase	-11625
▁incub	-11626
▁nanny	-11627
▁sleek	-11628
▁spoof	-11629
▁twink	-11630
hythmic	-11631
▁SWATCH	-11632
▁Tigger	-11633
▁consid	-11634
▁decent	-11635
▁halves	-11636
▁panels	-11637
▁transl	-11638
idoscope	-11639
ributing	-11640
screwing	-11641
specific	-11642
strapped	-11643
superman	-11644
taughter	-11645
tionship	-11646
uctively	-11647
udweiser	-11648
ugarland	-11649
ustached	-11650
vaulting	-11651
vergreen	-11652
volution	-11653
▁Adirond	-11654
▁Adolesc	-11655
▁Aggress	-11656
▁Arabian	-11657
▁Artisan	-11658
▁Artwork	-11659
▁Average	-11660
▁Bicycle	-11661
▁Brewing	-11662
▁Campers	-11663
▁Capitol	-11664
▁Carcass	-11665
▁Chevron	-11666
▁Climber	-11667
▁Comcast	-11668
▁Comical	-11669
▁Comment	-11670
▁Compact	-11671
▁Cooking	-11672
▁Culture	-11673
▁Cycling	-11674
▁Cyclone	-11675
▁Daniels	-11676
▁Domingo	-11677
▁Dorothy	-11678
▁England	-11679
▁Fairway	-11680
▁Falcons	-11681
▁Farmosa	-11682
▁Females	-11683
▁Firefox	-11684
▁Florida	-11685
▁Foreign	-11686
▁GONTAGA	-11687
▁Germany	-11688
▁Graying	-11689
▁Highway	-11690
▁Husband	-11691
▁Lexmark	-11692
▁Liberty	-11693
▁Luggage	-11694
▁Machine	-11695
▁Mercury	-11696
▁Minivan	-11697
▁Mohegan	-11698
▁Mondays	-11699
mits	-11700
soph	-11701
▁281	-11702
▁Arc	-11703
▁keg	-11704
arlet	-11705
blade	-11706
izoph	-11707
lator	-11708
lette	-11709
rette	-11710
retty	-11711
sophy	-11712
▁281.	-11713
▁Izab	-11714
▁Pupp	-11715
▁Tech	-11716
▁blew	-11717
▁dips	-11718
▁kegs	-11719
▁pint	-11720
nessed	-11721
ophone	-11722
ropane	-11723
ystand	-11724
▁Elton	-11725
▁Teens	-11726
▁china	-11727
▁dunce	-11728
▁inlet	-11729
▁label	-11730
▁longh	-11731
▁popup	-11732
▁retro	-11733
▁robed	-11734
▁roper	-11735
▁skips	-11736
▁soaks	-11737
▁tacky	-11738
▁whips	-11739
aclette	-11740
chizoph	-11741
pposing	-11742
ulfully	-11743
▁Blacks	-11744
▁Canyon	-11745
▁Izabel	-11746
▁Pretty	-11747
▁eyeing	-11748
▁messes	-11749
▁shiney	-11750
▁symmet	-11751
▁visits	-11752
▁visual	-11753
axophone	-11754
building	-11755
changing	-11756
etnamese	-11757
igerette	-11758
ilosophy	-11759
opefully	-11760
▁Bystand	-11761
▁Monster	-11762
▁Mooring	-11763
▁Neurosc	-11764
▁Notting	-11765
▁Oakland	-11766
▁Outback	-11767
▁Outdoor	-11768
▁Outside	-11769
▁PADDING	-11770
▁Passeng	-11771
▁Patrons	-11772
▁Peloton	-11773
▁Pioneer	-11774
▁PitBull	-11775
▁Placing	-11776
▁Playing	-11777
▁Polaris	-11778
▁Preteen	-11779
▁Propane	-11780
▁Puppies	-11781
▁Quattro	-11782
▁Raining	-11783
▁Reading	-11784
▁Redhead	-11785
▁Regency	-11786
▁Rhinest	-11787
▁Running	-11788
▁Russell	-11789
▁Schwinn	-11790
▁Seagull	-11791
▁Sheltie	-11792
▁Shepard	-11793
▁Speedos	-11794
▁SportsC	-11795
▁Stewart	-11796
▁Surfers	-11797
▁Swiffer	-11798
▁Teacher	-11799
obs	-11800
▁UV	-11801
▁UW	-11802
Jobs	-11803
bute	-11804
cafe	-11805
ewis	-11806
goon	-11807
semb	-11808
vres	-11809
▁AVE	-11810
▁Ugg	-11811
▁Ups	-11812
▁que	-11813
bsled	-11814
mpics	-11815
ordic	-11816
utees	-11817
uvres	-11818
▁AVED	-11819
▁coca	-11820
▁napa	-11821
▁orbs	-11822
▁ramb	-11823
ampard	-11824
ftsman	-11825
igital	-11826
ricult	-11827
ympics	-11828
▁AVEDA	-11829
▁Amput	-11830
▁Hands	-11831
▁Hindi	-11832
▁Lewis	-11833
▁Upset	-11834
▁chute	-11835
▁combs	-11836
▁freck	-11837
▁freed	-11838
▁queen	-11839
▁scamp	-11840
oeuvres	-11841
ription	-11842
workers	-11843
▁Mature	-11844
▁Nordic	-11845
▁assess	-11846
▁behalf	-11847
▁bluish	-11848
▁comics	-11849
▁lagoon	-11850
▁rambun	-11851
▁resemb	-11852
▁smocks	-11853
▁stalls	-11854
▁straws	-11855
alympics	-11856
ollywood	-11857
raftsman	-11858
▁Amputee	-11859
▁Colored	-11860
▁Digital	-11861
▁Lampard	-11862
▁Nescafe	-11863
▁Toronto	-11864
▁Turkish	-11865
▁Twister	-11866
▁Variety	-11867
▁Working	-11868
▁abandon	-11869
▁abdomen	-11870
▁accepts	-11871
▁accross	-11872
▁aggress	-11873
▁agitate	-11874
▁airline	-11875
▁alpacas	-11876
▁america	-11877
▁amorous	-11878
▁antenna	-11879
▁ashtray	-11880
▁awarded	-11881
▁awkward	-11882
▁barbell	-11883
▁barbers	-11884
▁batsman	-11885
▁beakers	-11886
▁bearers	-11887
▁beaters	-11888
▁benefit	-11889
▁berries	-11890
▁biplane	-11891
▁blended	-11892
▁blender	-11893
▁bobsled	-11894
▁bonnets	-11895
▁borader	-11896
▁borders	-11897
▁bouncey	-11898
▁breaths	-11899
sia	-11900
abab	-11901
abet	-11902
edia	-11903
fram	-11904
hodo	-11905
hoes	-11906
plan	-11907
uese	-11908
ungi	-11909
ungy	-11910
▁Cab	-11911
▁Gho	-11912
▁Hab	-11913
▁Inf	-11914
▁Peo	-11915
▁Pho	-11916
anger	-11917
hodod	-11918
ungie	-11919
ungry	-11920
▁LEGO	-11921
▁kang	-11922
▁kung	-11923
▁ploy	-11924
▁sang	-11925
framed	-11926
hockey	-11927
phabet	-11928
planes	-11929
topped	-11930
uchsia	-11931
uguese	-11932
▁Chung	-11933
▁Ghost	-11934
▁Habit	-11935
▁Offic	-11936
▁Peoop	-11937
▁Phoen	-11938
▁brash	-11939
▁carab	-11940
▁engul	-11941
▁grove	-11942
▁kabab	-11943
▁kanga	-11944
▁lungi	-11945
▁opera	-11946
▁orang	-11947
▁stead	-11948
▁wells	-11949
illiant	-11950
service	-11951
▁Cabins	-11952
▁GRAHAM	-11953
▁Goalie	-11954
▁Hungry	-11955
▁Infant	-11956
▁Inside	-11957
▁Karate	-11958
▁Ranger	-11959
▁Trucks	-11960
▁advice	-11961
▁bungie	-11962
▁cupped	-11963
▁engulf	-11964
▁furred	-11965
▁grungy	-11966
▁novice	-11967
▁nylons	-11968
▁rhodod	-11969
▁seller	-11970
▁sloped	-11971
▁Habitat	-11972
▁Peoople	-11973
▁Phoenix	-11974
▁bracing	-11975
▁bravery	-11976
▁brighly	-11977
▁brighty	-11978
▁broaden	-11979
▁broadly	-11980
▁buckled	-11981
▁bulldoz	-11982
▁bumping	-11983
▁bunched	-11984
▁caboose	-11985
▁canteen	-11986
▁carpent	-11987
▁castles	-11988
▁chalked	-11989
▁changes	-11990
▁charges	-11991
▁charted	-11992
▁cistern	-11993
▁cleaver	-11994
▁combing	-11995
▁conduct	-11996
▁conifer	-11997
▁connect	-11998
▁consist	-11999
IGO	-12000
lmo	-12001
ski	-12002
▁1.	-12003
Elmo	-12004
GIGO	-12005
affe	-12006
ania	-12007
arib	-12008
haki	-12009
▁Raw	-12010
▁urg	-12011
▁wmo	-12012
Carib	-12013
GIGOL	-12014
ctern	-12015
mover	-12016
sided	-12017
▁Para	-12018
▁Prep	-12019
▁burq	-12020
▁cran	-12021
▁dais	-12022
▁diet	-12023
▁erod	-12024
▁fern	-12025
▁hulk	-12026
▁oval	-12027
▁pups	-12028
▁seaw	-12029
▁swab	-12030
GIGOLO	-12031
ernard	-12032
hawkss	-12033
iraffe	-12034
laught	-12035
spania	-12036
spread	-12037
▁Bread	-12038
▁Khaki	-12039
▁Peeps	-12040
▁becom	-12041
▁burly	-12042
▁burqa	-12043
▁cases	-12044
▁cripp	-12045
▁embla	-12046
▁flyer	-12047
▁gunsh	-12048
▁meets	-12049
▁mules	-12050
▁stern	-12051
▁wmoan	-12052
finders	-12053
ristian	-12054
slaught	-12055
▁Angles	-12056
▁Guards	-12057
▁angles	-12058
▁cranky	-12059
▁crunch	-12060
▁emblaz	-12061
▁funnel	-12062
▁ignore	-12063
▁sculpt	-12064
▁seawor	-12065
▁servic	-12066
Cariboos	-12067
essional	-12068
▁Channel	-12069
▁Espania	-12070
▁becomes	-12071
▁bernard	-12072
▁console	-12073
▁consume	-12074
▁contact	-12075
▁contrac	-12076
▁cookers	-12077
▁cooktop	-12078
▁crimson	-12079
▁croquet	-12080
▁crunchy	-12081
▁cuddles	-12082
▁cutoffs	-12083
▁daisies	-12084
▁dangles	-12085
▁dashiki	-12086
▁daycare	-12087
▁deposit	-12088
▁depress	-12089
▁deserts	-12090
▁details	-12091
▁diagram	-12092
▁diction	-12093
▁diploma	-12094
▁dipping	-12095
▁divider	-12096
▁dollars	-12097
▁eReader	-12098
▁edibles	-12099
cura	-12100
ibit	-12101
nics	-12102
▁AMC	-12103
▁Inc	-12104
▁Uni	-12105
alike	-12106
arsal	-12107
heres	-12108
uckle	-12109
▁lids	-12110
▁tubs	-12111
▁twig	-12112
ayette	-12113
henics	-12114
orized	-12115
quette	-12116
▁Acura	-12117
▁Chevy	-12118
▁Conna	-12119
▁Wendy	-12120
▁counc	-12121
▁immen	-12122
▁intro	-12123
▁react	-12124
▁repel	-12125
▁rowdy	-12126
▁rowed	-12127
▁troll	-12128
▁tubas	-12129
▁wedge	-12130
hearsal	-12131
shining	-12132
sserole	-12133
tective	-12134
▁Connah	-12135
▁Marvel	-12136
▁active	-12137
▁bathro	-12138
▁cigars	-12139
▁counry	-12140
▁exibit	-12141
▁extrav	-12142
▁intent	-12143
▁mining	-12144
▁muscle	-12145
▁pursed	-12146
▁repels	-12147
▁replic	-12148
▁shears	-12149
▁whales	-12150
aporized	-12151
ashioned	-12152
covering	-12153
▁Concord	-12154
▁Uniform	-12155
▁chaotic	-12156
▁collars	-12157
▁council	-12158
▁empties	-12159
▁energet	-12160
▁experts	-12161
▁eyebrow	-12162
▁fabrics	-12163
▁faraway	-12164
▁fastens	-12165
▁fathers	-12166
▁fearing	-12167
▁feature	-12168
▁ferment	-12169
▁fishbow	-12170
▁fragile	-12171
▁freedom	-12172
▁further	-12173
▁garages	-12174
▁glamour	-12175
▁gliders	-12176
▁golfing	-12177
▁gondola	-12178
▁gorilla	-12179
▁grandma	-12180
▁griddle	-12181
▁hangong	-12182
▁heavier	-12183
▁helpers	-12184
▁hippies	-12185
▁hoisted	-12186
▁homeste	-12187
▁horsing	-12188
▁hurling	-12189
▁icicles	-12190
▁immense	-12191
▁improve	-12192
▁include	-12193
▁indians	-12194
▁insects	-12195
▁install	-12196
▁instead	-12197
▁introdu	-12198
▁jukebox	-12199
cio	-12200
ifi	-12201
ify	-12202
▁34	-12203
▁38	-12204
▁Vo	-12205
dune	-12206
lena	-12207
leth	-12208
thon	-12209
ushy	-12210
word	-12211
▁Inj	-12212
▁gna	-12213
Where	-12214
asino	-12215
bster	-12216
grown	-12217
idges	-12218
▁Bush	-12219
▁Gwan	-12220
▁Pige	-12221
▁Rays	-12222
▁Vons	-12223
▁Vuit	-12224
▁anth	-12225
▁earn	-12226
▁wifi	-12227
▁wipe	-12228
▁wise	-12229
▁zips	-12230
atcher	-12231
atives	-12232
culine	-12233
imilar	-12234
▁Crist	-12235
▁Voice	-12236
▁blush	-12237
▁exams	-12238
▁forth	-12239
▁pleth	-12240
▁socio	-12241
▁spays	-12242
▁stays	-12243
▁turna	-12244
Watcher	-12245
▁Casino	-12246
▁Cristy	-12247
▁Period	-12248
▁Pigeon	-12249
▁Selena	-12250
▁slushy	-12251
▁supple	-12252
ifferent	-12253
imilarly	-12254
▁Bridges	-12255
▁Chelsea	-12256
▁Graffit	-12257
▁Injured	-12258
▁Latinos	-12259
▁Persons	-12260
▁Vuitton	-12261
▁closeby	-12262
▁customs	-12263
▁drapped	-12264
▁gnawing	-12265
▁killing	-12266
▁largest	-12267
▁leaders	-12268
▁lessons	-12269
▁lioness	-12270
▁loafers	-12271
▁lobster	-12272
▁loggers	-12273
▁lunging	-12274
▁mailman	-12275
▁majoret	-12276
▁manages	-12277
▁masters	-12278
▁milking	-12279
▁mission	-12280
▁monkeys	-12281
▁mooning	-12282
▁moutain	-12283
▁mudding	-12284
▁mystery	-12285
▁napkins	-12286
▁nations	-12287
▁neutral	-12288
▁novelty	-12289
▁oakland	-12290
▁obscene	-12291
▁olympic	-12292
▁opinion	-12293
▁orangut	-12294
▁organic	-12295
▁organiz	-12296
▁packets	-12297
▁panties	-12298
▁partial	-12299
banz	-12300
duck	-12301
lins	-12302
nude	-12303
tens	-12304
▁Bug	-12305
▁Pug	-12306
attoo	-12307
avins	-12308
banzo	-12309
blown	-12310
handi	-12311
insed	-12312
keyes	-12313
resco	-12314
serie	-12315
▁Pens	-12316
▁fits	-12317
▁info	-12318
artins	-12319
fresco	-12320
serves	-12321
syduck	-12322
▁Alley	-12323
▁Machu	-12324
▁Organ	-12325
▁RoadW	-12326
▁Sport	-12327
▁caban	-12328
▁croos	-12329
▁embro	-12330
▁flatt	-12331
▁laser	-12332
▁loser	-12333
▁physi	-12334
▁prist	-12335
▁quite	-12336
▁rival	-12337
▁roofs	-12338
attooed	-12339
hatever	-12340
ilities	-12341
▁Ghandi	-12342
▁Grouch	-12343
▁Penske	-12344
▁Ravins	-12345
▁allude	-12346
▁bikins	-12347
▁burned	-12348
▁cabana	-12349
▁clears	-12350
▁conser	-12351
▁elders	-12352
▁heater	-12353
▁impact	-12354
▁incred	-12355
▁plains	-12356
▁posted	-12357
▁rinsed	-12358
▁scarfs	-12359
▁sights	-12360
▁tentat	-12361
Whatever	-12362
illowing	-12363
▁Kicking	-12364
▁Marlins	-12365
▁Martins	-12366
▁Muslims	-12367
▁Psyduck	-12368
▁Shepher	-12369
▁courtes	-12370
▁infield	-12371
▁kangaro	-12372
▁kittens	-12373
▁liquids	-12374
▁noddles	-12375
▁peasant	-12376
▁peddler	-12377
▁peddles	-12378
▁pensive	-12379
▁perfume	-12380
▁physiqu	-12381
▁pickaxe	-12382
▁pickoff	-12383
▁pilings	-12384
▁pinches	-12385
▁playmat	-12386
▁pleased	-12387
▁plushie	-12388
▁podcast	-12389
▁pontiac	-12390
▁pontoon	-12391
▁portion	-12392
▁potters	-12393
▁pressed	-12394
▁presume	-12395
▁profane	-12396
▁profile	-12397
▁puddles	-12398
▁pulleys	-12399
▁Ko	-12400
mber	-12401
nsed	-12402
pric	-12403
uffe	-12404
▁Box	-12405
▁Ins	-12406
▁Ker	-12407
▁Kla	-12408
▁ecl	-12409
▁kaz	-12410
berde	-12411
bians	-12412
decor	-12413
lydes	-12414
omber	-12415
peace	-12416
rices	-12417
rulee	-12418
uffle	-12419
▁Auto	-12420
▁Boat	-12421
▁Carh	-12422
▁Stap	-12423
▁Stop	-12424
▁muff	-12425
▁serp	-12426
lensed	-12427
lydesd	-12428
priced	-12429
sbians	-12430
▁Ahead	-12431
▁Boxes	-12432
▁Fruit	-12433
▁Kerry	-12434
▁Klaus	-12435
▁Minny	-12436
▁alarm	-12437
▁alert	-12438
▁eclip	-12439
▁grade	-12440
▁indep	-12441
▁kazoo	-12442
▁peels	-12443
▁plows	-12444
▁regal	-12445
▁tatoo	-12446
artuffe	-12447
berdeen	-12448
nington	-12449
▁Actors	-12450
▁Koffee	-12451
▁bomber	-12452
▁brulee	-12453
▁cannot	-12454
▁creams	-12455
▁creamy	-12456
▁disney	-12457
▁docked	-12458
▁edging	-12459
▁intens	-12460
▁prices	-12461
▁server	-12462
▁stradd	-12463
November	-12464
▁Carhart	-12465
▁Clydesd	-12466
▁Country	-12467
▁Staples	-12468
▁ballons	-12469
▁coloful	-12470
▁divided	-12471
▁eclipse	-12472
▁errands	-12473
▁handsaw	-12474
▁hilltop	-12475
▁inwards	-12476
▁muffler	-12477
▁netting	-12478
▁newsboy	-12479
▁punting	-12480
▁ranging	-12481
▁ravaged	-12482
▁realign	-12483
▁recedes	-12484
▁recital	-12485
▁recline	-12486
▁recoils	-12487
▁reeling	-12488
▁reenact	-12489
▁regains	-12490
▁remains	-12491
▁removal	-12492
▁rinding	-12493
▁rippled	-12494
▁ripples	-12495
▁rubbing	-12496
▁ruffles	-12497
▁rusting	-12498
▁sacking	-12499
▁39	-12500
Stop	-12501
abee	-12502
aval	-12503
cely	-12504
mats	-12505
mout	-12506
osen	-12507
shed	-12508
avage	-12509
idday	-12510
mWiki	-12511
oshes	-12512
pring	-12513
▁Heav	-12514
▁Pope	-12515
▁erup	-12516
▁glee	-12517
▁icon	-12518
▁moms	-12519
▁nike	-12520
▁stab	-12521
Spring	-12522
ctures	-12523
owered	-12524
rashed	-12525
▁Naval	-12526
▁arbor	-12527
▁blowt	-12528
▁butto	-12529
▁chats	-12530
▁flops	-12531
▁heats	-12532
▁indul	-12533
▁slipp	-12534
▁squid	-12535
▁stabs	-12536
lamWiki	-12537
mouthed	-12538
powered	-12539
uckabee	-12540
▁Fisher	-12541
▁Gidday	-12542
▁Potato	-12543
▁Thomas	-12544
▁chosen	-12545
▁decors	-12546
▁distur	-12547
▁entire	-12548
▁flagon	-12549
▁joyous	-12550
▁nobody	-12551
▁onions	-12552
▁viking	-12553
▁woodsy	-12554
andering	-12555
sections	-12556
shingles	-12557
▁Amsterd	-12558
▁Cyclist	-12559
▁Panther	-12560
▁chasers	-12561
▁corners	-12562
▁handout	-12563
▁poached	-12564
▁sailors	-12565
▁scratch	-12566
▁seaside	-12567
▁secrets	-12568
▁seeming	-12569
▁serpent	-12570
▁shaping	-12571
▁sharply	-12572
▁sheepdo	-12573
▁shepard	-12574
▁shocked	-12575
▁shoeing	-12576
▁shooing	-12577
▁shooter	-12578
▁shopper	-12579
▁sicking	-12580
▁sidecar	-12581
▁skewers	-12582
▁sledder	-12583
▁slopped	-12584
▁smelled	-12585
▁sneaker	-12586
▁snooker	-12587
▁snowmen	-12588
▁spaniel	-12589
▁sparkly	-12590
▁splayed	-12591
▁squeals	-12592
▁stabbed	-12593
▁stables	-12594
▁stances	-12595
▁stapler	-12596
▁steamed	-12597
▁stomped	-12598
▁stripey	-12599
▁JP	-12600
▁NE	-12601
pose	-12602
wich	-12603
▁Jet	-12604
▁NER	-12605
▁pea	-12606
▁pew	-12607
ashas	-12608
etash	-12609
▁Cost	-12610
▁Deep	-12611
▁Jeep	-12612
▁NERF	-12613
▁mono	-12614
▁stuc	-12615
▁vise	-12616
▁wint	-12617
▁yong	-12618
acific	-12619
ctical	-12620
hooded	-12621
menian	-12622
suited	-12623
urpose	-12624
▁Bears	-12625
▁Neigh	-12626
▁Rally	-12627
▁Vinci	-12628
▁chops	-12629
▁cordu	-12630
▁emery	-12631
▁exped	-12632
▁fixed	-12633
▁folic	-12634
▁leapf	-12635
▁oxfor	-12636
▁spong	-12637
▁toots	-12638
▁units	-12639
▁writh	-12640
andwich	-12641
ementos	-12642
erately	-12643
rentice	-12644
ustangs	-12645
▁Costco	-12646
▁Jersey	-12647
▁Return	-12648
▁curled	-12649
▁curren	-12650
▁pebble	-12651
▁prunes	-12652
▁stucco	-12653
▁viewed	-12654
▁wintry	-12655
ipurpose	-12656
▁Janitor	-12657
▁Justice	-12658
▁Pacific	-12659
▁Warrior	-12660
▁corduro	-12661
▁crowned	-12662
▁equally	-12663
▁florist	-12664
▁heather	-12665
▁hurting	-12666
▁managed	-12667
▁oppress	-12668
▁oppsing	-12669
▁oxfords	-12670
▁shortly	-12671
▁sponges	-12672
▁stencil	-12673
▁strives	-12674
▁stubble	-12675
▁swetash	-12676
▁swifter	-12677
▁takeing	-12678
▁tapping	-12679
▁tatooed	-12680
▁tearing	-12681
▁tellers	-12682
▁texture	-12683
▁thinner	-12684
▁tickles	-12685
▁toaster	-12686
▁tomatos	-12687
▁topping	-12688
▁trident	-12689
▁tripods	-12690
▁tubular	-12691
▁tugboat	-12692
▁tumbles	-12693
▁unclear	-12694
▁unloads	-12695
▁unlocks	-12696
▁unoccup	-12697
▁vatican	-12698
▁vaulter	-12699
puc	-12700
▁21	-12701
▁22	-12702
Turf	-12703
ease	-12704
fish	-12705
mish	-12706
pucc	-12707
reco	-12708
rish	-12709
vish	-12710
what	-12711
▁70'	-12712
▁Mae	-12713
bones	-12714
▁Cold	-12715
▁Diet	-12716
▁Hulk	-12717
▁Leak	-12718
▁Quit	-12719
▁Such	-12720
▁axes	-12721
▁deco	-12722
▁easy	-12723
▁joke	-12724
▁weig	-12725
aneled	-12726
odates	-12727
opcorn	-12728
ounsel	-12729
pening	-12730
puccin	-12731
recogn	-12732
▁Hmong	-12733
▁Irish	-12734
▁Lunch	-12735
▁World	-12736
▁bills	-12737
▁medat	-12738
▁pouch	-12739
▁prays	-12740
▁pullo	-12741
▁sails	-12742
▁slabs	-12743
garding	-12744
paneled	-12745
▁Ginger	-12746
▁Harley	-12747
▁annual	-12748
▁exists	-12749
▁helemt	-12750
▁lances	-12751
▁lavish	-12752
▁patent	-12753
▁shared	-12754
▁stoney	-12755
puccinos	-12756
recogniz	-12757
▁Counsel	-12758
▁Opening	-12759
▁Popcorn	-12760
▁RollerB	-12761
▁blazing	-12762
▁blemish	-12763
▁blueish	-12764
▁budgets	-12765
▁curlers	-12766
▁leaking	-12767
▁longish	-12768
▁matched	-12769
▁pointer	-12770
▁rollers	-12771
▁vikings	-12772
▁violist	-12773
▁visitor	-12774
▁weating	-12775
▁webpage	-12776
▁weighed	-12777
▁welders	-12778
▁wieners	-12779
▁winters	-12780
▁withdra	-12781
▁wrapper	-12782
▁wrecked	-12783
aggerated	-12784
appearing	-12785
arterback	-12786
bradoodle	-12787
checkered	-12788
ckingbird	-12789
companied	-12790
decorated	-12791
elicopter	-12792
eographic	-12793
fordshire	-12794
ificantly	-12795
ification	-12796
irmingham	-12797
leadingly	-12798
monitored	-12799
gym	-12800
▁EC	-12801
▁Eb	-12802
appo	-12803
ommy	-12804
tics	-12805
▁End	-12806
▁Rou	-12807
appro	-12808
etime	-12809
hetic	-12810
irder	-12811
loved	-12812
plate	-12813
toons	-12814
▁Ebay	-12815
▁Happ	-12816
▁Only	-12817
▁atyl	-12818
▁dons	-12819
▁drab	-12820
▁husk	-12821
▁naps	-12822
▁pens	-12823
▁puma	-12824
ctious	-12825
eltics	-12826
iggles	-12827
necked	-12828
opened	-12829
▁Euros	-12830
▁Groom	-12831
▁Roule	-12832
▁Tommy	-12833
▁breed	-12834
▁clime	-12835
▁crime	-12836
▁crush	-12837
▁dials	-12838
▁fring	-12839
▁keeps	-12840
▁knead	-12841
▁repla	-12842
▁shook	-12843
▁vigil	-12844
appoint	-12845
emonstr	-12846
sthetic	-12847
▁Chairs	-12848
▁Gloved	-12849
▁Living	-12850
▁afterm	-12851
▁bigger	-12852
▁clings	-12853
▁fringe	-12854
▁girder	-12855
▁handym	-12856
▁necess	-12857
▁peddal	-12858
▁rained	-12859
▁tented	-12860
▁threes	-12861
achshund	-12862
▁Celtics	-12863
▁Happily	-12864
▁Rouleur	-12865
▁Wiggles	-12866
▁bridled	-12867
▁draping	-12868
▁eatable	-12869
▁planked	-12870
▁seconds	-12871
▁sweeper	-12872
noxiously	-12873
nthesizer	-12874
ominantly	-12875
ournalist	-12876
regarding	-12877
sparkasse	-12878
umberjack	-12879
umphantly	-12880
unciation	-12881
unningham	-12882
ventional	-12883
▁Aberdeen	-12884
▁Alliance	-12885
▁Applebee	-12886
▁Armenian	-12887
▁Barbecue	-12888
▁Birthday	-12889
▁Brenmark	-12890
▁Brightly	-12891
▁Cadillac	-12892
▁Carhartt	-12893
▁Carolina	-12894
▁Casterol	-12895
▁Clippers	-12896
▁Columbia	-12897
▁Commuter	-12898
▁Computer	-12899
TON	-12900
▁"4	-12901
▁"5	-12902
▁"8	-12903
▁KI	-12904
▁Ry	-12905
MAKE	-12906
bama	-12907
mart	-12908
nses	-12909
sary	-12910
spoo	-12911
vals	-12912
▁"4"	-12913
▁"85	-12914
▁Fac	-12915
▁KIS	-12916
▁Lac	-12917
▁Nev	-12918
▁Res	-12919
▁Rit	-12920
▁Ron	-12921
▁wiz	-12922
Obama	-12923
acist	-12924
artic	-12925
bbins	-12926
epper	-12927
ipple	-12928
ishas	-12929
itals	-12930
ulary	-12931
▁"85"	-12932
▁Hodo	-12933
▁KISS	-12934
▁Orph	-12935
▁Rest	-12936
▁Ritz	-12937
▁Rome	-12938
▁Room	-12939
▁Ryan	-12940
▁calz	-12941
▁dart	-12942
▁eyep	-12943
▁wolf	-12944
artans	-12945
corner	-12946
ertise	-12947
ppings	-12948
ranged	-12949
scross	-12950
spired	-12951
▁Nevad	-12952
▁Resta	-12953
▁Whack	-12954
▁catac	-12955
▁funer	-12956
▁goals	-12957
▁horiz	-12958
▁ovals	-12959
▁whats	-12960
articip	-12961
corting	-12962
redding	-12963
spooled	-12964
▁Facial	-12965
▁Nevada	-12966
▁Pepper	-12967
▁Rescue	-12968
▁exited	-12969
▁eyepie	-12970
▁lenses	-12971
▁nipple	-12972
▁rights	-12973
▁rosary	-12974
▁towing	-12975
inspired	-12976
▁Geishas	-12977
▁Karaoke	-12978
▁Lacross	-12979
▁Orphans	-12980
▁Restaur	-12981
▁Robbins	-12982
▁bricked	-12983
▁calzone	-12984
▁canines	-12985
▁catacom	-12986
▁funeral	-12987
▁makings	-12988
▁redwood	-12989
▁strokes	-12990
▁tracked	-12991
▁walmart	-12992
▁wizards	-12993
scrossing	-12994
▁Concords	-12995
▁Crouched	-12996
▁Demonstr	-12997
▁Downhill	-12998
▁Downtown	-12999
Pod	-13000
ode	-13001
pod	-13002
▁DH	-13003
▁DU	-13004
Ohio	-13005
boys	-13006
ikin	-13007
odes	-13008
riev	-13009
▁DHL	-13010
▁Des	-13011
▁Doo	-13012
▁fez	-13013
abled	-13014
brand	-13015
itize	-13016
orial	-13017
▁Code	-13018
▁Ipod	-13019
▁WALK	-13020
▁aflo	-13021
▁afro	-13022
isodes	-13023
packed	-13024
stumed	-13025
versal	-13026
▁Armed	-13027
▁Obser	-13028
▁engra	-13029
▁griev	-13030
▁grits	-13031
▁primp	-13032
▁rosey	-13033
anitize	-13034
branded	-13035
pisodes	-13036
written	-13037
▁Design	-13038
▁Israel	-13039
▁Random	-13040
▁afloat	-13041
▁banjos	-13042
▁bather	-13043
▁courts	-13044
▁fanned	-13045
▁plying	-13046
▁repeat	-13047
▁struck	-13048
▁Cowboys	-13049
▁Indoors	-13050
▁apprehe	-13051
▁dappled	-13052
▁lightly	-13053
▁manikin	-13054
▁scrubby	-13055
▁travers	-13056
▁Costumed	-13057
▁Designer	-13058
▁Festival	-13059
▁Genocide	-13060
▁GlamWiki	-13061
▁Graffiti	-13062
▁Grandmas	-13063
▁Grizzles	-13064
▁Handbook	-13065
▁Handyman	-13066
▁Huckabee	-13067
▁Hundreds	-13068
▁Izabella	-13069
▁Jermaine	-13070
▁Kuthhoop	-13071
▁Labrador	-13072
▁Marching	-13073
▁Mariachi	-13074
▁Mcdonald	-13075
▁Memorial	-13076
▁Muscular	-13077
▁Musician	-13078
▁Mustangs	-13079
▁Paddlers	-13080
▁Panthers	-13081
▁Peterson	-13082
▁Petronas	-13083
▁Pictures	-13084
▁Portland	-13085
▁Pregnant	-13086
▁Princess	-13087
▁Rabobank	-13088
▁Raclette	-13089
▁Rawlings	-13090
▁Reporter	-13091
▁Scantily	-13092
▁Schipper	-13093
▁Shanghai	-13094
▁Sledding	-13095
▁Spartans	-13096
▁Speakers	-13097
▁Stanford	-13098
▁Starting	-13099
▁#1	-13100
▁Em	-13101
▁Ru	-13102
asts	-13103
pier	-13104
velt	-13105
▁#19	-13106
▁Kok	-13107
ambor	-13108
atted	-13109
ender	-13110
inted	-13111
level	-13112
ravel	-13113
reams	-13114
stric	-13115
utted	-13116
▁Izod	-13117
▁Muse	-13118
▁Past	-13119
▁Ruby	-13120
▁Smok	-13121
▁alle	-13122
▁flav	-13123
▁jams	-13124
▁luck	-13125
arthen	-13126
ending	-13127
itness	-13128
manent	-13129
venous	-13130
▁Lasts	-13131
▁SLEEP	-13132
▁Wheel	-13133
▁alleg	-13134
▁flare	-13135
▁fools	-13136
▁grump	-13137
▁laces	-13138
▁polle	-13139
leeping	-13140
printed	-13141
▁Clause	-13142
▁Museum	-13143
▁Pastry	-13144
▁Smoked	-13145
▁Tambor	-13146
▁barker	-13147
▁disast	-13148
▁dreams	-13149
▁dunked	-13150
▁gender	-13151
▁grumpy	-13152
▁jutted	-13153
▁lampsh	-13154
▁locksm	-13155
▁peruse	-13156
▁pizzer	-13157
▁pollen	-13158
▁random	-13159
▁search	-13160
▁smiley	-13161
▁transf	-13162
▁wedded	-13163
▁yawing	-13164
counters	-13165
piercing	-13166
raveling	-13167
ravenous	-13168
stricted	-13169
▁Couples	-13170
▁Earthen	-13171
▁Fitness	-13172
▁Madison	-13173
▁Vehicle	-13174
▁checker	-13175
▁comical	-13176
▁cracker	-13177
▁fending	-13178
▁grayish	-13179
▁hawaiin	-13180
▁permits	-13181
▁swatted	-13182
▁treated	-13183
▁Sleeping	-13184
▁Subjects	-13185
▁Superman	-13186
▁Surround	-13187
▁Swimming	-13188
▁Tartuffe	-13189
▁Tattooed	-13190
▁Teenager	-13191
▁Upstairs	-13192
▁Williams	-13193
▁abstract	-13194
▁accurate	-13195
▁advocacy	-13196
▁aerially	-13197
▁affected	-13198
▁africans	-13199
▁58	-13200
aron	-13201
ddin	-13202
fere	-13203
tort	-13204
▁Nik	-13205
▁Spy	-13206
▁Vis	-13207
▁rio	-13208
▁yak	-13209
berly	-13210
ddies	-13211
▁Rich	-13212
▁beak	-13213
▁canc	-13214
▁hydr	-13215
▁infe	-13216
▁jade	-13217
▁leak	-13218
▁marl	-13219
▁slud	-13220
▁zero	-13221
effort	-13222
endent	-13223
laddin	-13224
lished	-13225
piring	-13226
▁Aaron	-13227
▁DIEGO	-13228
▁Husky	-13229
▁Nikon	-13230
▁appet	-13231
▁cance	-13232
▁canop	-13233
▁cloak	-13234
▁disin	-13235
▁hiply	-13236
▁hoods	-13237
▁marri	-13238
▁paste	-13239
▁pasts	-13240
▁saver	-13241
▁slant	-13242
▁trell	-13243
athalie	-13244
hooping	-13245
tortion	-13246
▁Domino	-13247
▁Droney	-13248
▁Eddies	-13249
▁Spyder	-13250
▁String	-13251
▁arrest	-13252
▁burrow	-13253
▁chance	-13254
▁chaper	-13255
▁drills	-13256
▁edible	-13257
▁marlbo	-13258
▁sludge	-13259
bankment	-13260
▁Aladdin	-13261
▁Arsenal	-13262
▁bermuda	-13263
▁disinte	-13264
▁marking	-13265
▁rioting	-13266
▁slanted	-13267
▁soaring	-13268
▁stoking	-13269
▁trellis	-13270
erspiring	-13271
▁Nathalie	-13272
▁Richards	-13273
▁Visitors	-13274
▁agricult	-13275
▁airfield	-13276
▁airwoman	-13277
▁alfresco	-13278
▁allowing	-13279
▁alphabet	-13280
▁altitude	-13281
▁amputees	-13282
▁antennae	-13283
▁anterior	-13284
▁apparent	-13285
▁armstand	-13286
▁astonish	-13287
▁babushka	-13288
▁ballgame	-13289
▁bandaged	-13290
▁banister	-13291
▁battered	-13292
▁beanbags	-13293
▁beanches	-13294
▁becoming	-13295
▁bedrooms	-13296
▁bleached	-13297
▁blossoms	-13298
▁bluejack	-13299
six	-13300
▁Ly	-13301
epee	-13302
goti	-13303
kiis	-13304
▁Chi	-13305
▁Cho	-13306
▁Lad	-13307
▁Lay	-13308
▁Lin	-13309
▁Neg	-13310
nisla	-13311
raphy	-13312
stend	-13313
▁Ally	-13314
▁Chan	-13315
▁Chic	-13316
▁Chin	-13317
▁Line	-13318
▁Loun	-13319
▁Lypp	-13320
▁Volv	-13321
▁muss	-13322
▁pays	-13323
▁tomb	-13324
abilly	-13325
amming	-13326
nislaw	-13327
stends	-13328
▁Choir	-13329
▁Fired	-13330
▁Negro	-13331
▁Volvo	-13332
▁bathe	-13333
▁cocks	-13334
▁coeds	-13335
▁fired	-13336
▁innoc	-13337
▁medow	-13338
▁newss	-13339
▁preps	-13340
▁tails	-13341
ricates	-13342
▁95,000	-13343
▁Chicag	-13344
▁Gators	-13345
▁Jacket	-13346
▁Ladies	-13347
▁Laying	-13348
▁Lounge	-13349
▁baring	-13350
▁barist	-13351
▁dozens	-13352
▁mussel	-13353
▁negoti	-13354
▁newsst	-13355
▁paired	-13356
▁sweats	-13357
▁teepee	-13358
▁tiller	-13359
ronislaw	-13360
▁Chicago	-13361
▁Lincoln	-13362
▁Lyppens	-13363
▁backdro	-13364
▁barista	-13365
▁jamming	-13366
▁swinger	-13367
▁trainer	-13368
▁treadle	-13369
ubricates	-13370
▁Railroad	-13371
▁bodyless	-13372
▁bookcase	-13373
▁boundary	-13374
▁branched	-13375
▁branding	-13376
▁bulletin	-13377
▁bullhorn	-13378
▁bullring	-13379
▁burritos	-13380
▁butchers	-13381
▁butterfl	-13382
▁buttocks	-13383
▁buttoned	-13384
▁cabinets	-13385
▁cacthing	-13386
▁cadillac	-13387
▁caffeine	-13388
▁canceled	-13389
▁canopies	-13390
▁cartload	-13391
▁cemented	-13392
▁centered	-13393
▁chipmunk	-13394
▁chipping	-13395
▁circling	-13396
▁clasping	-13397
▁clusters	-13398
▁coaching	-13399
ACE	-13400
▁08	-13401
▁5-	-13402
▁Yp	-13403
ACES	-13404
lamp	-13405
omez	-13406
plex	-13407
some	-13408
uthw	-13409
▁Dri	-13410
▁Ens	-13411
▁Lam	-13412
▁Yon	-13413
▁aft	-13414
▁urn	-13415
ACESH	-13416
atess	-13417
dough	-13418
overs	-13419
pless	-13420
uster	-13421
ustle	-13422
zards	-13423
▁attr	-13424
▁deal	-13425
▁dome	-13426
▁exub	-13427
▁mike	-13428
▁moth	-13429
▁saro	-13430
▁wuth	-13431
ACESHO	-13432
endron	-13433
erican	-13434
erizon	-13435
plexed	-13436
uishes	-13437
undown	-13438
▁Coeds	-13439
▁Fence	-13440
▁Gomez	-13441
▁Lambs	-13442
▁Tired	-13443
▁Yongs	-13444
▁bandm	-13445
▁glare	-13446
▁mouse	-13447
▁speck	-13448
ACESHOP	-13449
atessen	-13450
entence	-13451
licated	-13452
plessly	-13453
uthwest	-13454
▁Buster	-13455
▁Driver	-13456
▁Russia	-13457
▁Ypoung	-13458
▁coated	-13459
▁exuber	-13460
▁hooker	-13461
▁hustle	-13462
▁saroog	-13463
▁stripy	-13464
▁trikes	-13465
▁vested	-13466
FACESHOP	-13467
american	-13468
eraniums	-13469
ourdough	-13470
sentence	-13471
▁Griffin	-13472
▁Nesquik	-13473
▁Verizon	-13474
▁Yongsan	-13475
▁dealers	-13476
▁dusting	-13477
▁lizards	-13478
▁roomful	-13479
▁rundown	-13480
▁spheres	-13481
▁stocked	-13482
EFACESHOP	-13483
sponsored	-13484
▁Broadway	-13485
▁Ensuring	-13486
▁Foursome	-13487
▁Reindeer	-13488
▁bandmate	-13489
▁collects	-13490
▁collided	-13491
▁colonist	-13492
▁composed	-13493
▁composer	-13494
▁comrades	-13495
▁conceale	-13496
▁concepts	-13497
▁confeder	-13498
▁congress	-13499
haw	-13500
oha	-13501
▁DV	-13502
▁GA	-13503
▁Gy	-13504
bull	-13505
hake	-13506
▁Bag	-13507
▁DVD	-13508
▁GAP	-13509
▁Gay	-13510
▁Sha	-13511
▁fry	-13512
agant	-13513
hawks	-13514
▁Game	-13515
▁Gate	-13516
▁Gian	-13517
▁Gyro	-13518
▁Ices	-13519
▁Jump	-13520
▁Shoe	-13521
▁balm	-13522
▁bask	-13523
▁flew	-13524
▁gull	-13525
▁knel	-13526
▁lull	-13527
▁tang	-13528
chdown	-13529
having	-13530
kshake	-13531
▁GameC	-13532
▁Glass	-13533
▁Jumps	-13534
▁basks	-13535
▁bioha	-13536
▁brake	-13537
▁clubs	-13538
▁gulls	-13539
▁knelt	-13540
▁smell	-13541
▁tango	-13542
▁tanks	-13543
falling	-13544
herical	-13545
▁Giants	-13546
▁Ground	-13547
▁Shakes	-13548
▁Turkey	-13549
▁footed	-13550
▁footst	-13551
▁longer	-13552
▁musket	-13553
▁oldest	-13554
▁oversh	-13555
▁reacts	-13556
▁turing	-13557
▁unable	-13558
ouchdown	-13559
▁GameCub	-13560
▁Gateway	-13561
▁defense	-13562
▁hipster	-13563
▁longing	-13564
▁mansion	-13565
▁pitbull	-13566
▁tangled	-13567
▁tribute	-13568
▁utensil	-13569
▁waiters	-13570
Touchdown	-13571
▁GameCube	-13572
▁Seahawks	-13573
▁Shakespe	-13574
▁ShoeGasm	-13575
▁compared	-13576
▁conifers	-13577
▁conspicu	-13578
▁consumer	-13579
▁continue	-13580
▁convince	-13581
▁cordoned	-13582
▁corduroy	-13583
▁coughing	-13584
▁counting	-13585
▁courtesy	-13586
▁cowgirls	-13587
▁creeping	-13588
▁crippled	-13589
▁cruising	-13590
▁cucumber	-13591
▁cuddling	-13592
▁culottes	-13593
▁cupboard	-13594
▁currency	-13595
▁dangling	-13596
▁deadline	-13597
▁dealersh	-13598
▁decision	-13599
OIN	-13600
bak	-13601
ogs	-13602
oky	-13603
ggan	-13604
mies	-13605
nies	-13606
okay	-13607
wled	-13608
▁Avr	-13609
▁Tok	-13610
▁deb	-13611
▁thr	-13612
ELOIN	-13613
abble	-13614
alled	-13615
elbak	-13616
ndogs	-13617
psing	-13618
uries	-13619
uties	-13620
▁Show	-13621
▁Tent	-13622
▁Tiss	-13623
▁begs	-13624
▁brun	-13625
▁bugs	-13626
▁cosp	-13627
▁flus	-13628
▁furn	-13629
▁snok	-13630
allies	-13631
boggan	-13632
ruding	-13633
▁Avril	-13634
▁Tokyo	-13635
▁clogs	-13636
▁coupe	-13637
▁flick	-13638
▁getup	-13639
▁juicy	-13640
▁scrip	-13641
▁smoky	-13642
▁soled	-13643
▁thirt	-13644
fishing	-13645
forward	-13646
truding	-13647
▁Corgis	-13648
▁arched	-13649
▁birdie	-13650
▁brunet	-13651
▁capped	-13652
▁danger	-13653
▁darker	-13654
▁duties	-13655
▁emerge	-13656
▁finale	-13657
▁knocks	-13658
▁losing	-13659
▁roofer	-13660
▁snokel	-13661
▁suites	-13662
▁thirty	-13663
▁thrill	-13664
▁Newborn	-13665
▁Tissues	-13666
▁armband	-13667
▁bunnies	-13668
▁cosplay	-13669
▁dogsled	-13670
▁flushed	-13671
▁furnace	-13672
▁handled	-13673
▁joining	-13674
▁outward	-13675
▁paining	-13676
▁pursing	-13677
▁rallies	-13678
▁seesaws	-13679
▁Camelbak	-13680
▁appalled	-13681
▁armbands	-13682
▁brindled	-13683
▁brownies	-13684
▁champion	-13685
▁corndogs	-13686
▁coupling	-13687
▁debating	-13688
▁declared	-13689
▁declares	-13690
▁decorate	-13691
▁delivers	-13692
▁deployed	-13693
▁deserved	-13694
▁detector	-13695
▁diapered	-13696
▁diplomas	-13697
▁disabled	-13698
▁disaster	-13699
gue	-13700
ilf	-13701
oth	-13702
tus	-13703
vul	-13704
▁EL	-13705
aded	-13706
both	-13707
spra	-13708
▁Lon	-13709
▁Lot	-13710
▁cel	-13711
▁cos	-13712
▁dew	-13713
▁dil	-13714
▁wis	-13715
estry	-13716
order	-13717
rovul	-13718
uming	-13719
▁Adid	-13720
▁Hend	-13721
▁Hilf	-13722
▁Hill	-13723
▁Wine	-13724
▁bail	-13725
▁burk	-13726
▁coil	-13727
▁otus	-13728
▁outD	-13729
▁toad	-13730
lowers	-13731
▁Bride	-13732
▁Image	-13733
▁Longh	-13734
▁Stuff	-13735
▁Waist	-13736
▁dilig	-13737
▁folks	-13738
▁outer	-13739
▁rogue	-13740
▁seeks	-13741
▁wisks	-13742
istling	-13743
uisiana	-13744
▁Adidas	-13745
▁Before	-13746
▁Border	-13747
▁Hendri	-13748
▁Riding	-13749
▁burkas	-13750
▁celery	-13751
▁cosmet	-13752
▁invent	-13753
▁skewer	-13754
▁weiner	-13755
rovulcan	-13756
spraying	-13757
▁Flowers	-13758
▁Hendrix	-13759
▁Longhor	-13760
▁Mayores	-13761
▁caterer	-13762
▁chilled	-13763
▁glitter	-13764
▁needing	-13765
▁otuside	-13766
▁Hilfiger	-13767
▁Humanity	-13768
▁Officers	-13769
▁Quitting	-13770
▁Sheepdog	-13771
▁agitated	-13772
▁cleavage	-13773
▁discover	-13774
▁doghouse	-13775
▁dolphins	-13776
▁dominate	-13777
▁doorways	-13778
▁downcast	-13779
▁downstep	-13780
▁drafting	-13781
▁eggplant	-13782
▁eighteen	-13783
▁elbowing	-13784
▁elements	-13785
▁embroide	-13786
▁enormous	-13787
▁entwined	-13788
▁ethereal	-13789
▁experien	-13790
▁eyebrows	-13791
▁eyeglass	-13792
▁farmhand	-13793
▁fashions	-13794
▁feathery	-13795
▁fiercely	-13796
▁figurine	-13797
▁fishbowl	-13798
▁fishnets	-13799
dos	-13800
orv	-13801
Sorv	-13802
gain	-13803
itti	-13804
lest	-13805
ndue	-13806
peze	-13807
rags	-13808
vest	-13809
▁Bru	-13810
▁coo	-13811
▁tae	-13812
fitti	-13813
lados	-13814
swing	-13815
▁Monk	-13816
▁Whis	-13817
▁Yarm	-13818
▁acts	-13819
▁anch	-13820
▁beet	-13821
▁brat	-13822
▁forl	-13823
▁loan	-13824
berian	-13825
cloudy	-13826
gainst	-13827
ilence	-13828
oolest	-13829
▁Bruce	-13830
▁bratw	-13831
▁bumpy	-13832
▁lapel	-13833
▁tuxes	-13834
butting	-13835
coolest	-13836
housing	-13837
iberian	-13838
mallows	-13839
vestite	-13840
▁Yarmul	-13841
▁anchor	-13842
▁beetle	-13843
▁centip	-13844
▁fondue	-13845
▁hanger	-13846
▁obstac	-13847
▁preppy	-13848
▁recipe	-13849
▁rustle	-13850
▁shares	-13851
▁sporty	-13852
▁spouts	-13853
▁stitch	-13854
Sorvette	-13855
ysically	-13856
▁Against	-13857
▁Artists	-13858
▁Basking	-13859
▁Gelados	-13860
▁Whistle	-13861
▁climate	-13862
▁coastal	-13863
▁cooling	-13864
▁doubles	-13865
▁fairway	-13866
▁forlorn	-13867
▁patched	-13868
▁silence	-13869
▁singlet	-13870
▁slicked	-13871
▁trapeze	-13872
▁turtles	-13873
▁violent	-13874
▁Siberian	-13875
▁Yarmulke	-13876
▁centiped	-13877
▁exhibits	-13878
▁fixtures	-13879
▁flagpole	-13880
▁flailing	-13881
▁flashing	-13882
▁flavored	-13883
▁flicking	-13884
▁flippers	-13885
▁flurries	-13886
▁flyovers	-13887
▁footrace	-13888
▁forestry	-13889
▁fourteen	-13890
▁frisbeen	-13891
▁frisbees	-13892
▁galoshes	-13893
▁gardener	-13894
▁gasoline	-13895
▁gigantic	-13896
▁giggling	-13897
▁governor	-13898
▁graceful	-13899
38	-13900
61	-13901
xe	-13902
38,	-13903
Doo	-13904
chu	-13905
ept	-13906
▁Au	-13907
▁Di	-13908
▁Lu	-13909
▁ls	-13910
cuit	-13911
elan	-13912
omic	-13913
risk	-13914
utal	-13915
▁11:	-13916
▁30'	-13917
▁661	-13918
▁Axe	-13919
▁Son	-13920
▁Tab	-13921
▁boc	-13922
Melan	-13923
redit	-13924
▁#38,	-13925
▁11:2	-13926
▁Fort	-13927
▁Luke	-13928
▁anyt	-13929
▁jugs	-13930
▁wast	-13931
alized	-13932
inkled	-13933
iscuit	-13934
joying	-13935
ocated	-13936
▁11:27	-13937
▁Jeeps	-13938
▁Santo	-13939
▁barks	-13940
▁bocce	-13941
▁drift	-13942
▁handc	-13943
▁inver	-13944
▁minst	-13945
▁petri	-13946
▁polos	-13947
▁swept	-13948
▁waste	-13949
Melanie	-13950
ographs	-13951
utality	-13952
▁Picchu	-13953
▁Sonoma	-13954
▁applic	-13955
▁atomic	-13956
▁ballot	-13957
▁credit	-13958
▁deadly	-13959
▁delive	-13960
▁dollar	-13961
▁examin	-13962
▁halway	-13963
▁lifter	-13964
▁murder	-13965
▁outfut	-13966
▁outise	-13967
▁pueblo	-13968
▁slinky	-13969
▁snakes	-13970
▁sneeze	-13971
inkering	-13972
▁Careful	-13973
▁Located	-13974
▁barrows	-13975
▁biscuit	-13976
▁sequoia	-13977
andalized	-13978
▁Enjoying	-13979
▁anything	-13980
▁baptized	-13981
▁grafitti	-13982
▁grandson	-13983
▁greenish	-13984
▁grimaces	-13985
▁grownups	-13986
▁gunshots	-13987
▁haircuts	-13988
▁handcart	-13989
▁handwork	-13990
▁handymen	-13991
▁happened	-13992
▁headless	-13993
▁headlong	-13994
▁hoisting	-13995
▁hometown	-13996
▁horizons	-13997
▁horrible	-13998
▁hulahoop	-13999
bra	-14000
▁94	-14001
▁CY	-14002
arie	-14003
eden	-14004
even	-14005
loop	-14006
onne	-14007
▁CYF	-14008
▁aff	-14009
▁ram	-14010
Happy	-14011
rocks	-14012
▁CYFD	-14013
▁Rela	-14014
▁Stri	-14015
▁bait	-14016
▁mown	-14017
▁toed	-14018
inesse	-14019
▁Heavy	-14020
▁Relax	-14021
▁Sedan	-14022
▁bushe	-14023
▁finds	-14024
▁lived	-14025
▁panes	-14026
▁proff	-14027
▁shark	-14028
▁stile	-14029
amrocks	-14030
feeding	-14031
getable	-14032
▁Prarie	-14033
▁Stripe	-14034
▁affair	-14035
▁airman	-14036
▁bikina	-14037
▁bowing	-14038
▁hijabs	-14039
▁hummer	-14040
▁judged	-14041
▁kabobs	-14042
▁mounts	-14043
▁noisem	-14044
▁shells	-14045
▁stilet	-14046
▁sweden	-14047
▁tumble	-14048
▁uneven	-14049
▁Burning	-14050
▁bobbing	-14051
▁bushels	-14052
▁clerics	-14053
▁fawning	-14054
▁finesse	-14055
▁giraffe	-14056
▁honored	-14057
▁playful	-14058
▁replica	-14059
▁scraper	-14060
▁Converse	-14061
▁Relaxing	-14062
▁bleeding	-14063
▁humanoid	-14064
▁humorous	-14065
▁hurdlers	-14066
▁hurrying	-14067
▁hydrated	-14068
▁identity	-14069
▁incident	-14070
▁industry	-14071
▁informed	-14072
▁inground	-14073
▁innocent	-14074
▁inspired	-14075
▁intrepid	-14076
▁inverted	-14077
▁jetliner	-14078
▁jewelers	-14079
▁jodhpurs	-14080
▁jugglers	-14081
▁kangaroo	-14082
▁kneading	-14083
▁labeling	-14084
▁latticed	-14085
▁laughter	-14086
▁leapfrog	-14087
▁lesbians	-14088
▁literacy	-14089
▁literary	-14090
▁loveseat	-14091
▁majestic	-14092
▁majority	-14093
▁marriage	-14094
▁maximize	-14095
▁measured	-14096
▁measures	-14097
▁medalist	-14098
▁mementos	-14099
),	-14100
RI	-14101
Con	-14102
RIV	-14103
idy	-14104
▁3-	-14105
▁If	-14106
▁NF	-14107
Conn	-14108
RIVO	-14109
idel	-14110
ndid	-14111
orus	-14112
usly	-14113
▁Ana	-14114
▁Dod	-14115
▁Mut	-14116
▁NFL	-14117
▁Pap	-14118
▁Rad	-14119
▁agh	-14120
▁sed	-14121
ander	-14122
anked	-14123
uters	-14124
▁Papa	-14125
▁WELC	-14126
▁glut	-14127
▁join	-14128
▁tidy	-14129
▁yell	-14130
ARRIVO	-14131
Connie	-14132
arting	-14133
eXXXot	-14134
lendid	-14135
lously	-14136
rorist	-14137
▁Anahe	-14138
▁Fidel	-14139
▁Front	-14140
▁Kenya	-14141
▁Phone	-14142
▁Radio	-14143
▁deals	-14144
▁forty	-14145
▁punts	-14146
▁racec	-14147
▁roped	-14148
▁Mutual	-14149
▁Trader	-14150
▁aghast	-14151
▁allows	-14152
▁bathes	-14153
▁beater	-14154
▁chorus	-14155
▁chutes	-14156
▁expans	-14157
▁gluten	-14158
▁scraps	-14159
▁suburb	-14160
▁united	-14161
urniture	-14162
▁Anaheim	-14163
▁Dodgers	-14164
▁Playboy	-14165
▁WELCOME	-14166
▁blossom	-14167
▁copilot	-14168
▁crevice	-14169
▁culprit	-14170
▁flanked	-14171
▁illness	-14172
▁ketchup	-14173
▁shingle	-14174
▁signage	-14175
▁signify	-14176
▁toenail	-14177
▁wrestil	-14178
eXXXotica	-14179
▁Carnegie	-14180
▁Carnival	-14181
▁Dominoes	-14182
▁Graphics	-14183
▁Particip	-14184
▁arriving	-14185
▁changing	-14186
▁chilling	-14187
▁colander	-14188
▁fighters	-14189
▁garbanzo	-14190
▁headress	-14191
▁labelled	-14192
▁minstrel	-14193
▁mobility	-14194
▁motorist	-14195
▁moutains	-14196
▁mouthful	-14197
▁mouthing	-14198
▁moutnain	-14199
Sky	-14200
bil	-14201
raw	-14202
som	-14203
two	-14204
vat	-14205
yes	-14206
Seat	-14207
cock	-14208
ites	-14209
rawr	-14210
rena	-14211
scar	-14212
yatt	-14213
▁Her	-14214
▁Its	-14215
▁Sil	-14216
▁Sud	-14217
▁pes	-14218
acing	-14219
erbil	-14220
ggies	-14221
ignon	-14222
tzing	-14223
ulton	-14224
▁Orca	-14225
▁Rock	-14226
▁Silk	-14227
▁caro	-14228
▁dyes	-14229
▁fear	-14230
▁hoes	-14231
▁iPad	-14232
▁ones	-14233
strils	-14234
▁Herds	-14235
▁Hyatt	-14236
▁Oscar	-14237
▁Sudan	-14238
▁panor	-14239
▁polar	-14240
▁shell	-14241
Seattle	-14242
acingly	-14243
entical	-14244
forming	-14245
▁Camels	-14246
▁Fulton	-14247
▁Mignon	-14248
▁Serena	-14249
▁Yankee	-14250
▁bitten	-14251
▁cocker	-14252
▁cravat	-14253
▁duking	-14254
▁gerbil	-14255
▁onesie	-14256
▁pestle	-14257
▁whites	-14258
dentical	-14259
▁Lavigne	-14260
▁Solders	-14261
▁arching	-14262
▁buggies	-14263
▁bunting	-14264
▁burrito	-14265
▁huddles	-14266
▁intertw	-14267
▁menorah	-14268
▁whereas	-14269
▁zooming	-14270
something	-14271
▁Childern	-14272
▁Doberman	-14273
▁Fatigued	-14274
▁Vehicles	-14275
▁acquaint	-14276
▁caroling	-14277
▁faithful	-14278
▁movement	-14279
▁nostrils	-14280
▁numerals	-14281
▁obscures	-14282
▁occupant	-14283
▁ordinary	-14284
▁organism	-14285
▁organize	-14286
▁ornately	-14287
▁ourdoors	-14288
▁outDoors	-14289
▁outgoing	-14290
▁outlined	-14291
▁overtake	-14292
▁pamphlet	-14293
▁password	-14294
▁pastures	-14295
▁patience	-14296
▁pedaling	-14297
▁peddlers	-14298
▁pelicans	-14299
BC	-14300
SBC	-14301
glo	-14302
iom	-14303
▁TE	-14304
▁TH	-14305
▁TR	-14306
▁Ti	-14307
arol	-14308
grat	-14309
hers	-14310
ille	-14311
iomp	-14312
lock	-14313
ream	-14314
telo	-14315
uito	-14316
▁28.	-14317
▁Tar	-14318
▁aub	-14319
Carol	-14320
quito	-14321
royed	-14322
ucent	-14323
▁HSBC	-14324
▁TEAM	-14325
▁Twos	-14326
▁bold	-14327
▁bras	-14328
▁loit	-14329
illock	-14330
iomphe	-14331
telope	-14332
▁Cream	-14333
▁Flags	-14334
▁House	-14335
▁Lille	-14336
▁Males	-14337
▁Morse	-14338
▁Party	-14339
▁Racer	-14340
▁Steph	-14341
▁asked	-14342
▁forms	-14343
▁scold	-14344
▁spice	-14345
envenue	-14346
gratula	-14347
irlpool	-14348
▁Health	-14349
▁Target	-14350
▁auburn	-14351
▁dayglo	-14352
▁gating	-14353
▁german	-14354
▁happen	-14355
▁island	-14356
▁loiter	-14357
▁matter	-14358
▁newest	-14359
▁tended	-14360
ienvenue	-14361
▁Upright	-14362
▁acceler	-14363
▁beanbag	-14364
▁economy	-14365
▁england	-14366
▁grizzly	-14367
▁hillock	-14368
▁recieve	-14369
▁scolded	-14370
▁stature	-14371
▁symbols	-14372
Bienvenue	-14373
▁Dressing	-14374
▁Shipping	-14375
▁TRiomphe	-14376
▁antelope	-14377
▁crackers	-14378
▁crushers	-14379
▁fielders	-14380
▁mosquito	-14381
▁perfumes	-14382
▁perusing	-14383
▁physical	-14384
▁pinching	-14385
▁pitchfor	-14386
▁placards	-14387
▁pleasure	-14388
▁plethora	-14389
▁polished	-14390
▁presence	-14391
▁primping	-14392
▁printing	-14393
▁pristine	-14394
▁projects	-14395
▁property	-14396
▁provider	-14397
▁publicly	-14398
▁pullover	-14399
ID	-14400
Po	-14401
UA	-14402
UE	-14403
WO	-14404
gt	-14405
mg	-14406
IDS	-14407
QUE	-14408
SWO	-14409
TEP	-14410
wns	-14411
▁CA	-14412
▁Cy	-14413
Fish	-14414
Post	-14415
SQUE	-14416
XSWO	-14417
chef	-14418
enat	-14419
kees	-14420
lake	-14421
olmg	-14422
usin	-14423
▁BUA	-14424
▁Peu	-14425
▁cgt	-14426
▁gad	-14427
apily	-14428
eatle	-14429
hurst	-14430
issue	-14431
peach	-14432
urled	-14433
▁AIDS	-14434
▁Egyt	-14435
▁Jagu	-14436
▁Ship	-14437
▁UTEP	-14438
▁glad	-14439
▁mics	-14440
▁pron	-14441
▁then	-14442
elveet	-14443
enatar	-14444
greens	-14445
reager	-14446
▁Blake	-14447
▁Costa	-14448
▁Cyran	-14449
▁Holmg	-14450
▁Peuge	-14451
▁SXSWO	-14452
▁corks	-14453
▁gladi	-14454
▁tailg	-14455
▁weair	-14456
▁yawns	-14457
elveeta	-14458
impeach	-14459
▁Beatle	-14460
▁CASQUE	-14461
▁Harrod	-14462
▁Jaguar	-14463
▁Komodo	-14464
▁aircre	-14465
▁arrows	-14466
▁attach	-14467
▁cousin	-14468
▁excess	-14469
▁gadget	-14470
▁hapily	-14471
▁indigo	-14472
▁parale	-14473
▁peewee	-14474
▁pylons	-14475
▁tissue	-14476
nergizer	-14477
onehurst	-14478
vereager	-14479
▁Belling	-14480
▁Benatar	-14481
▁Cyranka	-14482
▁Egytian	-14483
▁Finally	-14484
▁Peugeot	-14485
▁Yankees	-14486
▁aircrew	-14487
▁chemise	-14488
▁clipper	-14489
▁conical	-14490
▁freezer	-14491
▁gadgets	-14492
▁greater	-14493
▁itching	-14494
▁weairng	-14495
Energizer	-14496
▁Holmgren	-14497
▁Newlywed	-14498
▁Platform	-14499
:3	-14500
AA	-14501
DE	-14502
MO	-14503
PO	-14504
▁:	-14505
:30	-14506
MOS	-14507
POR	-14508
PORT	-14509
▁AAA	-14510
▁Bow	-14511
DEMOS	-14512
bsite	-14513
ennis	-14514
olice	-14515
teens	-14516
▁7:30	-14517
▁buss	-14518
▁folk	-14519
▁hobo	-14520
▁tors	-14521
Police	-14522
erssed	-14523
licits	-14524
skirts	-14525
▁Peter	-14526
▁congo	-14527
▁crews	-14528
▁roads	-14529
▁satin	-14530
▁shaft	-14531
▁stamp	-14532
▁torso	-14533
▁trust	-14534
oration	-14535
▁10,000	-14536
▁Dennis	-14537
▁Marley	-14538
▁amazed	-14539
▁croche	-14540
▁fillet	-14541
▁intera	-14542
poration	-14543
▁Bowling	-14544
▁Coaches	-14545
▁Delwood	-14546
▁cannons	-14547
▁coaches	-14548
▁derssed	-14549
▁frisked	-14550
▁hitched	-14551
▁parkour	-14552
▁species	-14553
▁website	-14554
▁againest	-14555
▁applause	-14556
▁artifact	-14557
▁crescent	-14558
▁lectures	-14559
▁modifier	-14560
▁preteens	-14561
▁punctual	-14562
▁pursuing	-14563
▁ranching	-14564
▁receiver	-14565
▁recitals	-14566
▁reclined	-14567
▁recorded	-14568
▁recreate	-14569
▁recycled	-14570
▁refugees	-14571
▁regional	-14572
▁reindeer	-14573
▁religion	-14574
▁reminder	-14575
▁remotely	-14576
▁repaired	-14577
▁replaces	-14578
▁rescuing	-14579
▁research	-14580
▁reversal	-14581
▁rhythmic	-14582
▁rippling	-14583
▁rotating	-14584
▁rottweil	-14585
▁sanitize	-14586
▁satchels	-14587
▁scalling	-14588
▁scampers	-14589
▁schizoph	-14590
▁scottish	-14591
▁scraping	-14592
▁scrolled	-14593
▁seahorse	-14594
▁seashell	-14595
▁seasoned	-14596
▁sections	-14597
▁securely	-14598
▁selected	-14599
11	-14600
7)	-14601
DO	-14602
WN	-14603
:11	-14604
Ken	-14605
dye	-14606
fas	-14607
ubs	-14608
udi	-14609
zzy	-14610
▁44	-14611
▁PN	-14612
▁om	-14613
3:11	-14614
DOWN	-14615
Kenj	-14616
Subs	-14617
burn	-14618
eyed	-14619
hele	-14620
olis	-14621
othe	-14622
surf	-14623
▁(7)	-14624
▁Dor	-14625
▁PNC	-14626
Kenji	-14627
icing	-14628
inish	-14629
karts	-14630
stage	-14631
▁2.00	-14632
▁Audi	-14633
▁Half	-14634
▁Ozzy	-14635
▁begg	-14636
▁byes	-14637
▁helm	-14638
▁kart	-14639
▁sine	-14640
▁tame	-14641
apolis	-14642
finish	-14643
helete	-14644
ilburn	-14645
unches	-14646
votion	-14647
▁53:11	-14648
▁Dorad	-14649
▁Subar	-14650
▁Youth	-14651
▁drove	-14652
▁fried	-14653
▁goofs	-14654
▁kitty	-14655
▁sofas	-14656
▁spill	-14657
▁surly	-14658
joicing	-14659
▁Dorado	-14660
▁Justin	-14661
▁Subaru	-14662
▁beggar	-14663
▁dagger	-14664
▁soothe	-14665
▁sorted	-14666
▁staged	-14667
▁thinks	-14668
▁waling	-14669
▁windsh	-14670
neapolis	-14671
▁Bunches	-14672
▁Kilburn	-14673
▁daggers	-14674
▁eroding	-14675
▁inkwell	-14676
▁messily	-14677
▁rounded	-14678
▁sunsets	-14679
▁wonders	-14680
▁Egyptian	-14681
▁antiques	-14682
▁armchair	-14683
▁athelete	-14684
▁ceilings	-14685
▁develops	-14686
▁devotion	-14687
▁figuring	-14688
▁polishes	-14689
▁serviced	-14690
▁sessions	-14691
▁shallows	-14692
▁shelving	-14693
▁shinning	-14694
▁shipping	-14695
▁shocking	-14696
▁shooters	-14697
▁showcase	-14698
▁showdown	-14699
hn	-14700
si	-14701
tr	-14702
boo	-14703
iac	-14704
▁Ul	-14705
agus	-14706
anel	-14707
iacs	-14708
john	-14709
shit	-14710
▁Ann	-14711
▁Cle	-14712
▁Cru	-14713
▁Ult	-14714
▁hea	-14715
▁tot	-14716
Shine	-14717
arest	-14718
bound	-14719
ffles	-14720
moose	-14721
trans	-14722
▁Cruz	-14723
▁That	-14724
▁acid	-14725
▁idea	-14726
▁reds	-14727
▁ripe	-14728
▁wore	-14729
aniacs	-14730
aragus	-14731
uction	-14732
▁Cheap	-14733
▁Clear	-14734
▁Swans	-14735
▁Tower	-14736
[...]
